{"<s>":0,"<pad>":1,"</s>":2,"<unk>":3,"<mask>":4,"!":5,"\"":6,"#":7,"$":8,"%":9,"&":10,"'":11,"(":12,")":13,"*":14,"+":15,",":16,"-":17,".":18,"/":19,"0":20,"1":21,"2":22,"3":23,"4":24,"5":25,"6":26,"7":27,"8":28,"9":29,":":30,";":31,"<":32,"=":33,">":34,"?":35,"@":36,"A":37,"B":38,"C":39,"D":40,"E":41,"F":42,"G":43,"H":44,"I":45,"J":46,"K":47,"L":48,"M":49,"N":50,"O":51,"P":52,"Q":53,"R":54,"S":55,"T":56,"U":57,"V":58,"W":59,"X":60,"Y":61,"Z":62,"[":63,"\\":64,"]":65,"^":66,"_":67,"`":68,"a":69,"b":70,"c":71,"d":72,"e":73,"f":74,"g":75,"h":76,"i":77,"j":78,"k":79,"l":80,"m":81,"n":82,"o":83,"p":84,"q":85,"r":86,"s":87,"t":88,"u":89,"v":90,"w":91,"x":92,"y":93,"z":94,"{":95,"|":96,"}":97,"~":98,"¡":99,"¢":100,"£":101,"¤":102,"¥":103,"¦":104,"§":105,"¨":106,"©":107,"ª":108,"«":109,"¬":110,"®":111,"¯":112,"°":113,"±":114,"²":115,"³":116,"´":117,"µ":118,"¶":119,"·":120,"¸":121,"¹":122,"º":123,"»":124,"¼":125,"½":126,"¾":127,"¿":128,"À":129,"Á":130,"Â":131,"Ã":132,"Ä":133,"Å":134,"Æ":135,"Ç":136,"È":137,"É":138,"Ê":139,"Ë":140,"Ì":141,"Í":142,"Î":143,"Ï":144,"Ð":145,"Ñ":146,"Ò":147,"Ó":148,"Ô":149,"Õ":150,"Ö":151,"×":152,"Ø":153,"Ù":154,"Ú":155,"Û":156,"Ü":157,"Ý":158,"Þ":159,"ß":160,"à":161,"á":162,"â":163,"ã":164,"ä":165,"å":166,"æ":167,"ç":168,"è":169,"é":170,"ê":171,"ë":172,"ì":173,"í":174,"î":175,"ï":176,"ð":177,"ñ":178,"ò":179,"ó":180,"ô":181,"õ":182,"ö":183,"÷":184,"ø":185,"ù":186,"ú":187,"û":188,"ü":189,"ý":190,"þ":191,"ÿ":192,"Ā":193,"ā":194,"Ă":195,"ă":196,"Ą":197,"ą":198,"Ć":199,"ć":200,"Ĉ":201,"ĉ":202,"Ċ":203,"ċ":204,"Č":205,"č":206,"Ď":207,"ď":208,"Đ":209,"đ":210,"Ē":211,"ē":212,"Ĕ":213,"ĕ":214,"Ė":215,"ė":216,"Ę":217,"ę":218,"Ě":219,"ě":220,"Ĝ":221,"ĝ":222,"Ğ":223,"ğ":224,"Ġ":225,"ġ":226,"Ģ":227,"ģ":228,"Ĥ":229,"ĥ":230,"Ħ":231,"ħ":232,"Ĩ":233,"ĩ":234,"Ī":235,"ī":236,"Ĭ":237,"ĭ":238,"Į":239,"į":240,"İ":241,"ı":242,"Ĳ":243,"ĳ":244,"Ĵ":245,"ĵ":246,"Ķ":247,"ķ":248,"ĸ":249,"Ĺ":250,"ĺ":251,"Ļ":252,"ļ":253,"Ľ":254,"ľ":255,"Ŀ":256,"ŀ":257,"Ł":258,"ł":259,"Ń":260,"ĠÐ":261,"Ð°":262,"Ð¾":263,"ÑĤ":264,"Ð¸":265,"Ð½":266,"Ð»":267,"Ðµ":268,"Ñį":269,"ÑĢ":270,"Ñĥ":271,"Ð´":272,"Ðº":273,"Ñģ":274,"Ð²":275,"Ð¼":276,"ÌĦ":277,"Ñĭ":278,"Ñı":279,"Ð³":280,"Ñĩ":281,"ÑĤÐ°":282,"ÑĤÐ¾":283,"ĠÐ±":284,"ÑĮ":285,"ĠÑģ":286,"Ó£":287,"ĠÐ½":288,"ĠÐ¾":289,"Ð¿":290,"Ð»Ð¸":291,"Ð±":292,"ĠÑį":293,"ĠÐ´":294,"Ñħ":295,"ĠÐ²":296,"ĠÐ¿":297,"ÓĪ":298,"Ð»Ð°":299,"Ð¹":300,"Ð´Ðµ":301,"ÐºÐ°":302,"ÑĪ":303,"Ð´Ð°":304,"Ð¸Ð½":305,"ÑĢÐ°":306,"ÑĤÑĭ":307,"ÑĢÑį":308,"ÐºÐ¾":309,"Ð·":310,"ĠÐ¸":311,"ĠÐ¼":312,"Ó¯":313,"ÑĥÐ½":314,"ÑĢÐ¾":315,"ĠÑĤÐ°":316,"ĠÐº":317,"ĠÐ°":318,"Ð²Ð°":319,"ĠÑĥ":320,"ĠÐ³":321,"Ñİ":322,"ÐºÓ£":323,"ÐµÐ½":324,"Ð´Ñĥ":325,"ÑĢÐ¸":326,"Ġh":327,"ÑĤÑĮ":328,"ĠÐ¿Ð¾":329,"Ð¶":330,"Ð²Ð¾":331,"Ð³Ð¾":332,"Ð´Ó¯":333,"ĠÐ±Ð¸":334,"ĠÐ½Ð°":335,"ÑįÐ»":336,"ĠÑĤ":337,"ÐºÐ¸":338,"ÑĢÑĥ":339,"Ð½Ð°":340,"Ð¼Ð°":341,"Ð»Ð¾":342,"ÐµÑĤ":343,"Ð½Ð¾":344,"Ð´Ð¸":345,"ÐµÑĢ":346,"Ð²Ñį":347,"ÑĩÐ°":348,"Ð¼Ð¾":349,"Ð´Ñı":350,"ÑĤÑĭÐ½":351,"Ð½Ð¸":352,"ÑħÐ¾":353,"Ð½Ñį":354,"ĠÐ·":355,"ÑĤÑį":356,"Ð¸Ð»":357,"Ð°Ð»":358,"Ð¿Ð¾":359,"ĠÐ»":360,"ĠÐµ":361,"ĠÐ½Ðµ":362,"ĠÐ±Ñĭ":363,"ÑģÐµ":364,"Ð½Ñĥ":365,"ĠÑĤÐ¾":366,"Ð¼Ð¸":367,"ĠÑĩ":368,"ÓĪÐ°":369,"Ð¼Ñį":370,"Ð¾Ð»":371,"ÐºÑĥ":372,"Ñĳ":373,"ÑģÑı":374,"ÑĢÐµ":375,"Ð³Ð°":376,"ÐºÑį":377,"Ð´Ñį":378,"Ð´ÑĥÐº":379,"Ò£":380,"ÑĤÐ¾Ð¼":381,"Ð´Ð¾":382,"ÑģÑĮ":383,"ĠÐ¶":384,"ÑģÐ°":385,"ÑĤÐ¸":386,"ÑĨ":387,"ÐµÐ»":388,"Ð³Ð¸":389,"ĠÐ³Ð¾":390,"ÑĩÐ¸":391,"ÑĩÑį":392,"ĠÑģÑĤÐ°":393,"Ð³Ð´Ð°":394,"ÑĢÑįÐ½":395,"ĠÑĤÑĥ":396,"ĠÑĢÐ°":397,"ĠÑįÑĤÐ¾":398,"ÑĤÑĥ":399,"ĠÐ²Ð¾":400,"ĠÐºÐ¾":401,"Ð²ÑĥÐ½":402,"Ð´Ñĭ":403,"ÐµÐ¼":404,"ÑģÐ¸":405,"ĠÐ½Ñĥ":406,"ĠÐ´Ðµ":407,"ÑģÐ¾":408,"ĠhÑĥ":409,"Ð»Ñį":410,"ĠÐ±Ñĥ":411,"ÑģÑĳ":412,"Ð²Ñĥ":413,"ĠÑģÐ°":414,"Ñī":415,"ÑħÐ°":416,"ĠÑĤÐ°ÑĢ":417,"ÑĤÐµ":418,"ĠÐ¼Ð¾":419,"Ð²Ð¸":420,"ĠÐºÐ°":421,"ĠÐ·Ð°":422,"ĠÑı":423,"Ð²ÐºÓ£":424,"Ð¶Ðµ":425,"ÑĩÐ¾":426,"Ð¿Ð¾ÑĤÐ¾Ð¼":427,"Ð²Ðµ":428,"ĠÐ¿ÑĢÐ¸":429,"ĠÐ¾Ð»":430,"ĠÐ½Ð¸":431,"Ð±Ð¸":432,"ĠÑģÐ¾":433,"Ð³Ñį":434,"ĠÐ´Ð¾":435,"ÐµÐ¹":436,"Ð±Ð°":437,"Ð¼Ñĥ":438,"ĠÑħÐ¾":439,"Ð±Ð¾":440,"ÑģÑĤÐ°":441,"ÑįÐ»Ñį":442,"ÑģÑĤ":443,"ÑĪÐ¸":444,"ĠÑĩÑĤÐ¾":445,"ÑĢÑĭ":446,"ĠÐ´Ñİ":447,"ĠÑįÐ¼Ñį":448,"Ð·Ð°":449,"ÐµÐ½ÑĮ":450,"Ð±Ñĥ":451,"Äĵ":452,"ÐµÑĢÐµ":453,"ÓĪÐ°Ð½":454,"ĠÐ¾ÑĤ":455,"Ð»Ðµ":456,"ĠÐ³ÑĥÐ½":457,"ÑĦ":458,"Ð»ÑĮ":459,"ÑĤÐ°ÑĢ":460,"Ð±Ñĭ":461,"ĠÐ²ÑģÐµ":462,"Ð½Ðµ":463,"ĠÑħ":464,"ĠÐ¾Ð»ÐµÐ½":465,"Ð»Ñĥ":466,"Ð²Ð¾ÑĤ":467,"Ð¸Ð½Ð°":468,"Ð³Ñĥ":469,"Ð»Ó£":470,"ĠÐ¾Ð½":471,"ĠÐ°ÓĪ":472,"Ð²ÑįÑĢ":473,"ÐºÑĥÐ½":474,"Ð½Ñĭ":475,"ĠÐ´Ñı":476,"ÐºÐ¸Ð½":477,"ĠÐ³Ð¾Ð²Ð¾":478,"ÑıÑĤÑĮ":479,"ĠÐ²Ñĭ":480,"Ð½Ó£":481,"Ð¼Ð¾Ðµ":482,"ĠÑĪ":483,"ÓĪÑį":484,"ĠhÐ°":485,"ÐºÑįÐ»":486,"ÓĪÐºÓ£":487,"ĠÐ±Ñį":488,"ĠÑĤÐ°Ð¼":489,"ÑģÐºÐ°":490,"ÑĢÐ¸ÑĤ":491,"ĠÐ´Ð°":492,"ĠÐ²Ð¾ÑĤ":493,"Ð¸Ð»Ð¸":494,"ĠÑĤÐ°Ðº":495,"ÑİÑĤ":496,"ĠhÑį":497,"Ð²Ð°Ð»":498,"Ð´ÐµÑĢÑį":499,"ÓĪÐ¾":500,"ĠÐ¼Ð°":501,"ÐµÑģ":502,"ÑįÐ½":503,"ÑĥÑĢÑĥ":504,"ĠÑĤÑį":505,"Ð²ÐµÑĢ":506,"ÐºÐ°Ð½":507,"ĠÐ±ÑĭÐ»Ð¾":508,"ĠÐ¾ÑĢÐ¾":509,"ĠÐ¸Ñħ":510,"ÑĢÐ°Ð½":511,"ÑıÑĤ":512,"ÑĪÐ¾":513,"ĠÐ¼Ñĭ":514,"ĠÐºÐ°Ðº":515,"ĠÐ±Ð¸ÑģÑĳ":516,"ÑĪÐµÐ»":517,"ÐºÓ£Ð»":518,"Ð»Ð¸Ð½":519,"ĠÑģÐºÐ°":520,"ĠÐ¿ÑĢÐ¾":521,"ÑĩÐ¸ÑĤ":522,"ĠÐ´ÐµÐ»Ð°":523,"Ð²ÐºÓ£Ð»":524,"Ð¼Ó£":525,"Ð³Ó£":526,"ÑĩÐµ":527,"ĠÐ±Ð¾":528,"Ð²Ð°Ð»Ð¸":529,"ÑĤÐ°Ð´ÑĥÐº":530,"ÐºÐ¾Ð½":531,"ĠhÑĥÑĢÑĥ":532,"ĠÑĢÐµ":533,"ÐºÑĤÑį":534,"Ð²ÑģÐµ":535,"Ð¾Ð»ÑĮ":536,"Ð¾Ð½":537,"Ð±Ðµ":538,"ĠÐ¶Ðµ":539,"ĠÐµÐ³Ð¾":540,"Ð¿Ð°":541,"Ð¸ÑĢ":542,"ÑĤÑĭÑĢ":543,"ĠÐ·Ð½Ð°":544,"ÑįÑĢ":545,"Ð¼Ñĭ":546,"ĠÐ±Ð°":547,"ĠÐ²Ð°":548,"ÓĪÐ½Ñį":549,"ÑĪÐµ":550,"Ð¸Ð½Ñį":551,"hÓ£":552,"ĠÑĥÐ¶Ðµ":553,"ĠÐ±ÑĭÐ»":554,"ÑĪÐ°":555,"ĠÐ¸Ð½":556,"ĠÐµÑģ":557,"ĠÐ½ÑĥÓĪÐ°Ð½":558,"Ð±Ð¾ÑĤÐ°":559,"ÑĢÑı":560,"Ð½Ñı":561,"ÐµÐ´":562,"ĠÐ¾Ð½Ð¸":563,"Ð¿ÑıÑĤÑĮ":564,"Ð´ÐµÐ¼":565,"Ð±Ñį":566,"ĠÑĢÐ¾":567,"Ð»Ð¸ÑģÑĮ":568,"ĠhÐ¾":569,"ĠÑĩÑĤÐ¾Ð±Ñĭ":570,"ÓĪÐ°ÑĢ":571,"Ð»ÑĮÐºÐ¾":572,"Ð´ÐµÑĢÑįÐ½":573,"ĠÐºÑĥ":574,"ĠÐ±Ð¸ÑĩÐ¾":575,"ĠÐ¶Ð¸":576,"ÑĤÑĩÑį":577,"ÑģÐ¿":578,"ÑģÐºÐ¸":579,"ÑĪÑĮ":580,"ĠÐºÐ¾Ð³Ð´Ð°":581,"ĠÑħÐ¾ÑĢÐ¾":582,"ĠÑĤÑĭ":583,"ÑĩÐµÐ½ÑĮ":584,"ĠÐ¸Ð·":585,"ĠÑĢÐ°Ð·":586,"ÑīÐµ":587,"ĠÐ³Ñĥ":588,"Ð¶Ð°":589,"ĠÑģÐ°Ð¼Ð¾Ðµ":590,"hÑĥ":591,"Ð»Ñı":592,"ÐºÑĤÐ°":593,"ĠÑĤÐ¾Ð¶Ðµ":594,"ÐµÑħÐ°":595,"ĠÑĤÐ°ÑĢÑį":596,"ĠÐ»Ð¾":597,"ĠÐ¾ÑĢÐ¾ÑĢ":598,"Äģ":599,"ÐºÐµ":600,"ÑĤÐ°Ðº":601,"Ð¼Ð°Ð½":602,"ĠÑĩÑĥ":603,"Ò£ÐºÓ£":604,"ÑįÑĤÐ¾":605,"ĠÐ½Ð¾":606,"ĠÐ±ÑĭÐ»Ð°":607,"ÑģÑį":608,"ÑĩÑĥ":609,"Ð´Ð°Ð½":610,"ĠÑĢÐ°Ð±Ð¾ÑĤÐ°":611,"ÑĤÐµÑĨ":612,"ĠÐ±Ð¾Ð»ÑĮ":613,"ĠÑģÐ²Ð¾":614,"ĠÑįÑĢ":615,"ĠÐ³Ð°":616,"Ð´ÐµÑģÑĮ":617,"ĠÐ±ÑĭÐ»Ð¸":618,"hÐ¸":619,"Ð»Ð°Ð½":620,"ĠhÑįÐ»Ñį":621,"hÐ°":622,"Ð½ÑĮ":623,"ÑĢÑįÐ²":624,"ĠÐ°ÓĪÐ¸":625,"Ò£Ð°":626,"Ð³Ð´Ñĭ":627,"Ð¿ÐºÐ°":628,"Ð´ÑĮ":629,"Ð²Ñĭ":630,"Ð´ÐµÐ»Ð°":631,"Ð·Ð°Ð»":632,"Ð½Ð¸Ð½":633,"ĠÐ¼Ñĥ":634,"Ð½Ð¾Ðµ":635,"ĠÑĩÐµ":636,"Ð»Ñĭ":637,"ÐºÓ¯":638,"Ð²ÐµÐ½":639,"ĠÐ»Ðµ":640,"ĠÐ¶ÐµÐ½":641,"ĠÑĢÑĭ":642,"ÐµÐ·":643,"ÑĤÐ°Ð¼":644,"ĠÑģÐ¸":645,"Ð¶Ð¸":646,"ĠÐ»Ð¸":647,"ĠÑĢÐ°Ñģ":648,"ĠÑįÑĤÐ¸":649,"ĠÐ´ÑĢÑĥ":650,"ĠÐ¿Ð°":651,"ĠÐ»Ñĥ":652,"ĠÐ½ÑĥÓĪÐ°ÑĢ":653,"Ò»":654,"Ð½Ð¾Ð³Ð¾":655,"ÑĩÐ°Ñģ":656,"ĠÐ¾Ð´":657,"Ð¿Ð¸":658,"ÑĨÐ°":659,"ĠÐ¾Ð»ÐµÐ½ÐµÐ¹":660,"ĠÑħÐ°":661,"ÑĢÐ³Ð¸":662,"ÑģÐ¸Ð½":663,"Ð»Ð°ÑģÑĮ":664,"Ð´ÐµÑĤ":665,"ĠÐ³Ð¸ÑĢ":666,"Ð´Ð¸Ð»Ð¸":667,"Ð½ÑįÐ¼":668,"Ð´ÐµÐ½":669,"ÐºÐ¾Ð¹":670,"ÐºÑĤÑĭ":671,"ÑģÐ¸Ð»":672,"ĠÐ¾ÑĩÐµÐ½ÑĮ":673,"ĠÐ´Ñĥ":674,"ĠÑĤÐ¾Ð³Ð´Ð°":675,"ĠÐ´Ñį":676,"ĠÐ´ÐµÑĤ":677,"ÑĪÐºÐ°":678,"ĠÑĤÐµ":679,"Åį":680,"Ð½ÑĥÐ½":681,"ÐµÐ½Ñı":682,"Ð´ÑĥÐ»Ð°":683,"ĠÐ¿Ð¾ÑĤÐ¾Ð¼":684,"ÑģÐºÓ£":685,"ÑĤÑįÐ»":686,"ÑĢÓ£":687,"ĠÐ¾Ð¿ÑıÑĤÑĮ":688,"ĠÑĤÐ°Ð´Ó¯":689,"ĠÑĥÐ¼":690,"hÐ¸Ð½":691,"Ð½Ð¼Ñį":692,"ÑĩÐ¸Ð»":693,"ĠÐ°Ð¼Ð°":694,"Ð´Ð¸Ð»":695,"ĠÐ±ÑįÐµ":696,"ÑĩÑĤÐ¾":697,"ÑİÐ´Ð°":698,"ĠÐ±Ð¸ÑģÐ¾":699,"ĠÐµÑīÐµ":700,"ĠÑģÐµ":701,"ĠÑģÐ¿":702,"ÑĤÑĮÑģÑı":703,"ĠÐ»Ñİ":704,"ĠÐ¾Ð»ÐµÐ½Ñı":705,"Ð¸Ð¼":706,"ĠÑĥÐ»":707,"ÐºÐ¸Ð¹":708,"ĠÑģÑĤÐ°Ð»":709,"ÑĤÑĢÐµ":710,"ĠÐ¾ÑħÐ¾":711,"ĠÐµÑģÑĤÑĮ":712,"Ð¼Ñı":713,"ĠÐ¾Ð±":714,"ĠÑħÐ¾ÑĢÐ¾ÑĪÐ¾":715,"ĠÓĪÑį":716,"ÑĤÑĤÑį":717,"ÑĤÐ¾Ð³Ð´Ð°":718,"ĠÑįÐ´Ó¯":719,"ĠÑįÐ»Ñį":720,"ÑĪÐ»Ð¸":721,"Ð·Ñĭ":722,"ĠÐºÑį":723,"ÑĢÐ¸Ð»":724,"hÑį":725,"Ð´ÑıÐ½":726,"Ð¼Ð¸Ð½":727,"ÓĪÐ¸":728,"ĠÑĤÐ°Ð¹":729,"Ð²Ð°Ð½":730,"ÑĩÐ°Ð»":731,"ĠÐ³Ð¾Ð²Ð¾ÑĢÐ¸ÑĤ":732,"Ð²ÑģÐµÐ¼":733,"ÐµÑħÐ°Ð»Ð¸":734,"ĠÐ³Ð¸ÑĢÐºÑĥ":735,"ĠÐ²Ðµ":736,"ÓĪÓ£":737,"ĠÐ¼ÐµÐ½Ñı":738,"ĠÐ½Ð°Ð²ÐµÑĢ":739,"Ð´ÑıÑĤ":740,"ÄĵÐºÑĥÐ½":741,"ĠÐ·Ð½Ð°ÑĩÐ¸ÑĤ":742,"ÐºÐ¾Ð³Ð´Ð°":743,"ÐµÐ½Ð¸":744,"Ð»Ð¾Ð²Ðµ":745,"ĠÐ·Ð´ÐµÑģÑĮ":746,"ĠÑģÐ¾Ð±Ð°":747,"ĠÑĢÑĥ":748,"ĠÐ½ÐµÑĤ":749,"ĠÐ²Ð¸":750,"Ð²Ð°ÑĤÑĮ":751,"Ð¼Ð¾Ð¹":752,"Ð´ÑıÐ¼":753,"ĠÐ±ÐµÑĢÐµ":754,"ĠÐ¿ÐµÑĢÐµ":755,"ÓĪÐ¸Ð»":756,"ĠÐ·ÐµÐ¼":757,"Ð²ÑĥÐ»":758,"ÐºÑĤÐ¾":759,"ÑıÐ½":760,"Ð±ÐµÐ½":761,"ÑħÑĥ":762,"ĠÑĩÐµÐ»Ð¾Ð²Ðµ":763,"Ð¾ÑĢÐ¾":764,"ÐºÑģÐ°":765,"ĠÑģÑĤÐ¾":766,"ĠÐ¾ÑĤÐµÑĨ":767,"ĠÐ²ÐµÑĢ":768,"Ð²Ð°ÑĤÑĭÐ½":769,"ĠÐ¿Ð¾Ð´":770,"ÐºÐ¸Ð»":771,"ĠÐ´Ñĭ":772,"ÓĪÐ¸Ð½Ð°":773,"ĠÐ½Ð°Ð²ÐµÑĢÐ½Ð¾Ðµ":774,"ÐµÐ²":775,"Ð´ÐµÐ½Ñį":776,"ÐºÐ°ÑĢ":777,"Ð²Ð°ÐµÑĤ":778,"ĠÑģÐºÐ°Ð·Ð°Ð»":779,"ÑĤÐ¸Ð½":780,"Ð¸Ñħ":781,"Ð»ÑĤÐ°":782,"ÑģÐºÐ¾":783,"ĠÑģÐ´ÐµÐ»Ð°":784,"ĠÐ¼Ð½Ð¾Ð³Ð¾":785,"Ð²ÐµÐ·":786,"Ð¼Ðµ":787,"ĠÐ±ÑĢÐ°":788,"ĠÐ±Ð°Ð»":789,"ĠÐ¾ÑģÑĤÐ°":790,"Ð·Ñı":791,"ĠÐ½Ð°Ñģ":792,"Ð½ÑĥÐ»":793,"ĠÑĤÐ¾Ð»ÑĮÐºÐ¾":794,"ĠÑģÑĤÐ°Ð»Ð¸":795,"Ð½ÑĭÐ¹":796,"ÐµÐ´Ð²Ðµ":797,"ĠÐ¶ÐµÐ½Ñī":798,"Ð»Ñİ":799,"ĠÐ±Ðµ":800,"Ð¿Ñĥ":801,"Ð´ÐµÓĪÐ¾":802,"ÑĢÑįÐ²ÑĥÐ½":803,"ĠÐ¸ÑĩÑį":804,"ĠÐ½Ð°Ð´Ð¾":805,"Ð½ÑĥÓĪÐ°Ð½":806,"Ò£Ñį":807,"ÑĤÓ¯":808,"ĠÐ¼Ð°Ð»":809,"ĠÐ°Ñı":810,"ĠÑįÑĤÐ¾ÑĤ":811,"ĠÐºÐ¾Ð¼Ð¾Ðµ":812,"Ð±Ð¸ÑĢÐ°":813,"Ð»Ð´Ñį":814,"ĠÑįÑĤÑį":815,"ĠÐ°Ð½":816,"Ð²Ð°Ð¹":817,"Ð¶Ñĥ":818,"ĠÑĤÐ¾Ð³Ð¾":819,"ÓĪÐºÓ£Ð½":820,"Ìħ":821,"Ð²Ð½Ð¾":822,"ĠÑģÐ¼Ð¾":823,"ÑĪÐ»Ð°":824,"ÑĪÐºÐ¸":825,"ÑĢÐ°Ð²":826,"Ð½ÑĭÐµ":827,"ĠÑĢÐ°ÑģÑģÐºÐ°":828,"ĠÒ»":829,"Ð¾ÑĤ":830,"Ð¾Ð½Ð¸":831,"ĠÐ¾Ð½Ð°":832,"ĠÑįÐ¿":833,"ĠÐ´Ð¸":834,"ĠÐ´Ð¾Ð»":835,"ÐºÐ¾Ð¼":836,"ÑĢÐµÐ¼Ñı":837,"ÓĪÐºÓ£ÑĤÑĭÐ½":838,"ĠÑĤÑįÐ³Ñį":839,"ÑĩÐµÐ³Ð¾":840,"hÑįÐ»Ñį":841,"ÑĩÐµÐ¼":842,"ÑĤÐ°Ð´Ó¯":843,"ÑĮÑı":844,"ĠÐ²ÑĢÐµÐ¼Ñı":845,"ÐºÐ¸ÑĢ":846,"ĠÐµÐµ":847,"ĠÐ³Ð¾ÑĢÐ¾":848,"ĠÑģÐ¾Ð²ÑģÐµÐ¼":849,"ĠÑģÐºÐ°Ð·Ð°":850,"ÑĢÑģÐ¸":851,"Ð´ÑįÐ»":852,"ĠÑįÑĢÑį":853,"ÑħÐ¸":854,"ĠÐ¼ÐµÐ´Ð²Ðµ":855,"ÑĢÐ¾Ð¼":856,"Ð³Ð¸ÑĤ":857,"ÑīÐ¸":858,"ĠÑħÑĥ":859,"ÑĪÐ°Ñı":860,"Ð°Ð¼Ð°":861,"Ð´Ñİ":862,"ÐºÐ°Ðº":863,"ÑĥÐ½Ð´Ñį":864,"ÑĩÐ¸Ð½":865,"Ð±Ð¾Ð»":866,"Ð´Ó¯Ð½":867,"Ð´Ð¸ÑĤ":868,"ĠÐ½ÑĥÐ»":869,"ĠÐ¼Ð¾Ð¹":870,"ÑģÑĤÑĢÐµ":871,"ĠÓĪÑįÐ½Ñį":872,"Ð¾Ðº":873,"ÑģÑĤÐ¸":874,"ĠÑĥÐ¼Ñĥ":875,"ĠÐ¿Ð¾Ñģ":876,"ÑĨÐ¸":877,"Ð²ÐµÐ½ÐºÐ¸Ð¹":878,"ÑĤÐ¸Ð»":879,"Ð½ÐµÑĤ":880,"Ð½Ð´Ñį":881,"Ð»ÑįÐ»":882,"Ð»ÐµÑĤ":883,"Ð²Ñı":884,"Ð³Ð¸Ð½":885,"ĠÐ¾Ñģ":886,"Ð¿ÐºÓ£Ð»":887,"ĠÐ¼Ð¸Ð½":888,"ĠÐ¼ÑĥÐ½":889,"ĠÐ°hÓ£":890,"ĠÐ³Ð´Ðµ":891,"Ð³Ð¾Ð²Ð¾":892,"ĠÐ»Ð°":893,"ĠÑĤÑĥÐ´Ð°":894,"ÑĦÐºÓ£Ð»":895,"ĠÑĪÐºÐ¾":896,"ÑĤÑĭÑĢÐºÐ°":897,"ÑĤÑı":898,"ÑģÑĭ":899,"Ð³Ð¸Ð»":900,"ĠÑģÐµÐ¹":901,"Ð¿ÐºÓ£":902,"Ð»Ð¸Ð¼":903,"ĠÐ²ÑģÑĳ":904,"ÐºÐ°Ð»":905,"ĠÑĤÐ°Ð´ÑĥÐº":906,"ĠÐºÐ»Ð°":907,"ÑĢÐ¸Ðº":908,"Ð½Ð¾Ð¹":909,"ĠÐ½ÐµÐ³Ð¾":910,"ĠÐ²Ð¾Ð¹":911,"ÐºÓ¯Ð½":912,"ĠÑĢÑĭÐ±Ð°":913,"ĠÑĩÐµÐ»Ð¾Ð²ÐµÐº":914,"ĠÑģÐµÐ¹ÑĩÐ°Ñģ":915,"ÑĤÑĩÐ°":916,"ĠÐ´Ð°Ð»":917,"ÑħÐ°Ð»":918,"Ð´ÐµÑĪÑĮ":919,"Ð·Ð¸Ð»Ð¸":920,"ĠÐ½Ð¸Ñħ":921,"ĠÐ¼Ð°Ð»ÐµÐ½ÑĮ":922,"Ð±Ñı":923,"ĠÐºÐ¸":924,"Ð²ÐµÐ½ÐºÐ¸Ð¹ÑģÐºÐ¸":925,"ÑĤÐµÑĢ":926,"Ð»ÑĩÐ°":927,"Ð³Ðµ":928,"Ð³ÑĥÐ½":929,"ÐºÐ°Ñı":930,"ĠÐ°Ð¼Ó£":931,"Ð²Ð¾Ð¹":932,"ĠÐ±Ð¸ÑĢÐ°":933,"ÑħÐ¾ÑĢÐ¾":934,"ÐºÑĥÐ´Ð°":935,"ĠÐ¶Ð¸Ð»Ð¸":936,"ĠÑģÑĤÐ°Ð»Ð°":937,"ĠÐ±ÑĥÐ´Ñĥ":938,"Ð²Ð°Ð»Ð´Ñı":939,"hÐ¾":940,"Ð»Ð²Ñį":941,"ÑĢÐ¸Ð½":942,"ÑģÑİÐ´Ð°":943,"ÑĩÐ½Ð¾":944,"ĠÐ±Ð¸ÑĩÑį":945,"ĠÑĤÑĥÑĢÑĥ":946,"ĠÑĤÑĥÐ³Ñį":947,"ĠÐ½Ð¸ÐºÑį":948,"ĠÐ³ÑĥÐ½Ð½Ñį":949,"ĠhÑįÐ³Ð´Ñĭ":950,"ĠÑĥÐ¼ÐµÑĢ":951,"ÑĬ":952,"ĠÓĪÐ¸Ð½Ð°":953,"Ð¾Ð¼":954,"Ð´Ð¸Ð½":955,"Ð´Ð¾Ð»":956,"ÑĩÑĮ":957,"ĠÑģÑĥÑĢÑĥ":958,"ĠÑįÑĩÑį":959,"ÐºÐ¾Ð²":960,"ĠÐ°ÑĢ":961,"Ð²Ð°ÑİÑĤ":962,"ÑģÐµÐ¹":963,"ÐºÑĥÑĢ":964,"ÑĤÑĥÐ´Ð°":965,"ĠÑħÑĥÑĢÑĥ":966,"ĠÐ±ÑįÐµÐ»":967,"ĠÐ¼Ð°Ð½Ð°":968,"ÑĤÑĭÑĢÐºÐ¾":969,"ĠÐºÑįÑĤÑį":970,"ÑĢÑģÐ¸ÐºÐ°Ð½":971,"ĠÓ£":972,"Ð¾Ð¹":973,"ÑįÐ²ÐµÐ½ÐºÐ¸Ð¹ÑģÐºÐ¸":974,"ÐºÑĩÐ°":975,"ÑģÑĤÐ¾":976,"ÑĩÅį":977,"ĠÑģÐ¸Ð»":978,"ĠÑģÑĤÑĢÐµ":979,"Ð¿ÑĢÐ¸":980,"ĠÑįÐ²Ñį":981,"ÑĪÑĥ":982,"ĠÐ¼Ñı":983,"ĠÐ±ÑĥÐ»ÑĤÐ°":984,"ĠÐ³Ð¾Ð²Ð¾ÑĢÐ¸":985,"ĠÐ±Ð°Ð±Ñĥ":986,"ĠÐ½ÑĥÓĪÐ°Ð½Ð¼Ð°Ð½":987,"ĠÐ½ÑĥÓĪÐ°ÑĢÐ²Ð°ÑĤÑĭÐ½":988,"ĠÐ¾Ð´Ð¸Ð½":989,"Ð¾ÑĢÐ¾ÑĢ":990,"Ð¾ÑĤÐµÑĨ":991,"Ð³ÑĢÐ°":992,"Ð¿ÑĩÑĥ":993,"ĠÐ¿Ñį":994,"ÑĢÐ°Ð·":995,"ĠÐ°ÑıÑĤ":996,"Ð²Ð°ÑĢ":997,"Ð¶ÐµÑĤ":998,"Ð½Ð¸Ðº":999,"ĠÐ»ÐµÑĤ":1000,"Ð³Ð°Ð½Ó£":1001,"ĠÑģÑĤÐ°ÑĢÑĥ":1002,"ĠÑħÑį":1003,"ĠÐ±Ð°Ð»Ð´Ñĭ":1004,"Ð¾Ð½Ð°":1005,"Ð´Ó£":1006,"ÑģÑĥ":1007,"Ð±ÑĢÐ°":1008,"Ð¹Ð¸":1009,"ĠÐ¸ÑģÐµ":1010,"Ð¶Ð°Ð»":1011,"ÐºÐ¸Ðµ":1012,"Ð´ÑıÓĪÐ°":1013,"ÑħÐ¾Ð·":1014,"Ð½ÑįÐ½":1015,"ĠÑĤÐ¾ÑĤ":1016,"ÓĪÐºÓ£Ð²ÑĥÐ½":1017,"ĠÑĢÐµÐ±ÐµÐ½":1018,"ĠÐµÑģÐ»Ð¸":1019,"ĠÑĩÐ°":1020,"Ð²ÑĢÑį":1021,"Ð²ÑįÐ»":1022,"Ð²ÐµÑĤ":1023,"ĠÐ¾Ð³Ð¾":1024,"ĠÐ´ÐµÑĢÐµ":1025,"ĠÐ´ÑĥÐ½Ð´Ñį":1026,"ĠÐ²Ð·Ñı":1027,"ĠÐ¿Ð¾Ð¹":1028,"ĠÐ¿Ð¾ÑĪÐµÐ»":1029,"ĠÑĤÑĥÐºÑģÐ°":1030,"ĠÐ½Ð¸ÑĩÐµÐ³Ð¾":1031,"ÑĪÐ¸Ð¹":1032,"ÑĦÐºÓ£":1033,"ĠÐ°ÓĪÐ¸Ð»":1034,"ĠÐ´ÐµÐ»Ð°ÑĤÑĮ":1035,"ĠÐºÑĥÓĪÐ°":1036,"ĠÑģÐ¸Ð»ÑĮ":1037,"hÐ°Ð»":1038,"ÑĤÐºÓ£":1039,"Ð»ÑģÑı":1040,"Ð´ÑĥÐ½":1041,"ĠÑģÑİÐ´Ð°":1042,"ÑĤÑĭÐºÓ£":1043,"ĠÐ¼Ðµ":1044,"ĠÐ°ÑģÐ¸Ð½":1045,"ĠÑĥÐ»Ñĥ":1046,"ĠÐ±Ð¸Ð´Ðµ":1047,"ĠÑĤÑĥÐ½":1048,"ĠÑĩÐ¸":1049,"ĠÑģÑĤÐ°ÑĢ":1050,"ĠÑįÑĤÐ¾Ð³Ð¾":1051,"ĠÐ´ÐµÐ²Ñĥ":1052,"ĠÐ´Ð¾Ð±Ñĭ":1053,"ĠÐ¾Ð»ÐµÐ½Ð¸":1054,"ĠÐ±Ð¸ÑģÑĳÐ»":1055,"ĠÐ±Ð¾Ð»ÑĮÑĪÐ¾":1056,"ĠÄĵÐºÑĥÐ½":1057,"Ð½ÑįÐ»":1058,"ÐµÐ³Ð¾":1059,"ÑĢÐ²Ñį":1060,"ÑģÑĤÑĥ":1061,"ÑĮÐµ":1062,"ĠÐ¿ÑĤÐ¸":1063,"ÑĤÑĭÐ»":1064,"ĠÐ¸Ð»Ð¸":1065,"Ð´ÑĥÑĪÐºÐ°":1066,"Ð¶ÐµÐ½":1067,"Ð¼Ð°Ð¼Ð°":1068,"ĠÐµÐ·":1069,"ÑĤÑĥÐ³":1070,"ÓĪÐ°Ð½Ó£":1071,"ÑģÐ¿Ðµ":1072,"ĠÐ³ÑĥÑģÑĳ":1073,"Ò£ÐºÓ£Ð½":1074,"Ð¾Ð¿ÑıÑĤÑĮ":1075,"ÐµÑħÐ°Ð»":1076,"ÑģÐ°Ð»":1077,"Ð¿Ñį":1078,"Ð¿Ð°Ð»":1079,"ĠÐ¼Ð¸Ð½Ñį":1080,"Ð²ÑįÐºÓ£":1081,"Ð¾Ð»ÐµÐ½":1082,"ĠÐºÐ¾Ð½":1083,"ĠÐ´ÑıÐ²":1084,"ĠÐ³Ð¾Ð²Ð¾ÑĢ":1085,"ĠÐ¼Ð°ÑĤÑĮ":1086,"ĠÑĩÑĥÐ¼":1087,"ĠÐ¼ÑĥÐ¶":1088,"ÑĢÐ³Ð¸ÑĪÐ¸":1089,"ĠÐ´ÐµÑĤÐµÐ¹":1090,"ÑĢÐºÑį":1091,"ÑģÑįÐ»":1092,"ÑģÑģÐºÐ¸":1093,"ÑĩÐ¾Ð»":1094,"Ð·Ð´ÐµÑģÑĮ":1095,"ĠhÐ¸":1096,"ĠÐ¿Ð¾ÑįÐ²ÐµÐ½ÐºÐ¸Ð¹ÑģÐºÐ¸":1097,"ÑħÐ¾Ð´Ð¸":1098,"ĠÐ±ÑĥÐ´ÐµÑĤ":1099,"Ð²Ð¸Ñĩ":1100,"ÑģÑĤÑĢÐ¾":1101,"ĠÐ³Ð¾Ð²Ð¾ÑĢÑı":1102,"ĠÑĤÑįÐ¿":1103,"ĠÐ±Ð°ÐºÐ°":1104,"ĠÐ´ÑįÐ³Ð¸":1105,"ĠÐ¾Ð»ÐµÐ½ÑıÑħ":1106,"ÑĤÐºÐ°":1107,"Ð´Ñĳ":1108,"ÐºÑģÑį":1109,"ĠÐ¿Ñĥ":1110,"ÓĪÑĤÑĥ":1111,"Ð´Ð°Ð²Ð°Ð¹":1112,"Ð¸Ð½Ñĭ":1113,"ÑĢÐ¾Ñģ":1114,"ĠÐ°ÑĤÑĭÑĢÐºÐ°":1115,"ÑģÐ¸Ð»Ð¸":1116,"ÑģÐ¾Ð¼Ð°":1117,"ĠÐ½Ð¸Ð¼":1118,"Ð±ÑįÐºÐ¾":1119,"ĠÐ´ÑĥÐ¼Ð°":1120,"ĠÐºÐ»Ð°Ñģ":1121,"ÓĻ":1122,"ĠÑİ":1123,"Ð½ÑĤÐ°":1124,"ÑĢÐ³Ó£":1125,"Ð³Ð°Ð»":1126,"ĠÐ±Ó¯":1127,"ĠÐ±Ð¾Ð»":1128,"ĠÐ½Ñı":1129,"Ð¿ÐµÑĢ":1130,"ÐºÐ¾ÐºÐ¾":1131,"ĠÐ±Ð¸Ð´ÐµÑĢÑį":1132,"Ð½Ð°Ð»":1133,"ÑģÐµÐ»":1134,"ĠÐ´ÐµÐ²":1135,"Ð³ÑįÑĢÐ¸ÑĤ":1136,"ĠÐ³ÑĥÐ½ÑįÐ½":1137,"ĠÐ»Ð¾Ð´":1138,"ĠÐ½ÑĥÓĪÐ°ÑĢÑĤÑĭÐ½":1139,"ĠÐ´ÐµÑĤÐ¸":1140,"ĠÐ»ÑİÐ´Ð¸":1141,"ĠÐ¾ÑħÐ¾ÑĤÐ¸":1142,"Ð´ÑįÐ»Ð¾":1143,"ÑģÐµÐ¹ÑĩÐ°Ñģ":1144,"ĠÐ±Ð¾Ð»ÑĮÑĪÐ¾Ð¹":1145,"Ð°Ð¼Ó£":1146,"Ð½Ð´Ó¯":1147,"Ð¼Ð½Ð¸":1148,"ĠÑģÑĤ":1149,"Ð¿ÑĢÐ¾":1150,"ĠÑįÑĤÑĭÑĢÐºÐ¾":1151,"ÑħÓ£":1152,"ĠÐ¸Ð»":1153,"ÑĥÐ½Ð°":1154,"ĠÐ°Ð´Ð¸Ð»Ð¸":1155,"ĠÐ°Ð¼Ð¸Ð½":1156,"ĠÐ³ÑįÑĢ":1157,"Ð²Ð¾Ð½":1158,"Ð²ÑįÐ½":1159,"ĠÐ·Ð¸":1160,"Ð´ÑįÐ½":1161,"ÑĨÐµ":1162,"ĠÑĤÑĥÐ³":1163,"Ð´ÑĭÑĤ":1164,"ĠhÑĥÐ²Ñĥ":1165,"ĠhÑĥÐ²ÑĥÐ»":1166,"ĠÑģÐ°Ð¼Ð¾":1167,"ĠÑģÐ°Ð¼Ñĭ":1168,"ĠÑģÐ¾Ð±Ð¸ÑĢÐ°":1169,"ÑģÑĤÐ°Ð»":1170,"ĠÐ¶Ð¸Ð²Ñĥ":1171,"ÑģÐ¿Ñĥ":1172,"ÐºÑĤÑĭÑĢÑį":1173,"ĠÐ¶ÐµÐ½ÑīÐ¸Ð½Ð°":1174,"ĠÑĦ":1175,"ĠÓĪÐ¾":1176,"ÑįÐ´Ó¯":1177,"ÑĢÐºÐ°":1178,"Ð´ÑĨÐ°":1179,"ÑģÓ£":1180,"Ð²ÑĢÑįÐ½":1181,"Ð³Ð´Ð¸":1182,"ĠÑįÐ´ÑĥÐº":1183,"Ð»Ð°Ð´":1184,"ĠÐ°ÑĢÐ³Ð¸ÑĪÐ¸":1185,"ĠÑĥÑĩÐ°":1186,"ĠÐ³ÑĢÐ¸":1187,"ĠÐ½Ð°ÑĩÐ°":1188,"Ð´ÑĥÐºÑĤÑĭ":1189,"ÑģÐ¾Ð²":1190,"ÑīÐ°":1191,"ĠÐ´Ð¾Ð¼Ð¾Ð¹":1192,"ÑĪÐ¸Ðµ":1193,"ĠÐ´ÑİÐ»Ð°":1194,"ĠÑĪÐ°":1195,"ÐµÐ·Ð¶Ð°":1196,"ĠÑģÑĤÐ¾ÑĢÐ¾":1197,"ĠÐ²ÐµÑĢÑĤÐ¾":1198,"Ð²ÐµÐ·Ð»Ð¸":1199,"ĠÐ¾Ð³Ð¾Ð½ÑĮ":1200,"Ð¿ÐµÑĢÑĮ":1201,"hÐ¸Ð½Ñį":1202,"ĠÑĳ":1203,"ÑįÐ¼Ñį":1204,"Ð¼Ó¯":1205,"Ð¼ÑįÐ»":1206,"ÑĩÐ¸Ð½Ð°":1207,"ÑĤÐ°ÑĢÑį":1208,"ÑĤÐ¾ÑĢÑĭ":1209,"ĠÑģÑĥ":1210,"ĠÐ½Ñį":1211,"Ð¿ÐµÑĢÐµ":1212,"Ð±Ó£":1213,"Ð´ÐµÐ»":1214,"ĠÑĥÐ²Ð¸":1215,"Ð´Ó¯ÑĤÑĭÐ½":1216,"Ð½Ð°Ñı":1217,"ÐµÑĤÑģÑı":1218,"Ð½Ð¸Ð¼":1219,"ÑĤÐ¾Ð¼Ñĥ":1220,"ÑĨÑĭ":1221,"ĠÑģÐ°ÑĢÑģÐ¸ÐºÐ°Ð½":1222,"ĠÐ´Ð¾Ð¼Ð°":1223,"ÓĪÐ½ÑįÑĢÑįÐ²":1224,"ĠÐ»ÐµÑĤÐ¾Ð¼":1225,"ĠÑįÐ¿ÐµÑĤ":1226,"Ð½Ñİ":1227,"Ð½Ð¼Ð¸":1228,"ÐºÑĢÑĭ":1229,"ÑģÑĤÑĮ":1230,"ÑģÐ¿Ð¾":1231,"ÑĩÐºÐ°":1232,"ÑĩÑįÐ»":1233,"ĠÑģÐºÐ¾":1234,"ĠÑģÐµÐ¼":1235,"Ð±Ð¸Ð½":1236,"ĠÑįÐ½Ó£":1237,"ÓĪÑĥ":1238,"Ð´ÐµÐ¹":1239,"ĠÐ¸Ð»Ð°":1240,"ĠÐ¸ÑĢÐ³Ð¸":1241,"Ð²Ð°ÑĢÐ¸":1242,"ĠÑĥÐ±Ð¸":1243,"ĠÐ¿Ð¾ÐºÐ°":1244,"Ò£Ð½Ñį":1245,"ÐµÐ»ÑĮ":1246,"ÑĩÐ¸Ð»Ð¸":1247,"ĠÐ´ÐµÐ»Ð°Ð»Ð¸":1248,"ĠÐ¸Ð½Ð´Ðµ":1249,"ĠÑĢÐ¾ÑģÐ¾Ð¼Ð°":1250,"ĠÐ±ÑĢÐ°ÑĤ":1251,"ĠÐ½ÑĥÐ»Ð³Ó£":1252,"ĠÐ¼ÑıÑģÐ¾":1253,"ĠÑĢÐµÐ±ÐµÐ½Ð¾Ðº":1254,"Ð»ÐºÐ¸":1255,"ÑģÐ¾Ð»":1256,"Ð³Ó¯":1257,"ĠÑģÐ»Ðµ":1258,"Ð¿ÑĤÑĭ":1259,"ĠÐ´Ð»Ñı":1260,"Ð´ÐµÐ»Ð¸":1261,"ÐºÐ¾ÑĢ":1262,"ĠÐ¼Ó¯":1263,"ÑĢÐ¾Ð²":1264,"Ð²Ð°Ñı":1265,"ÐµÐ½ÑģÐ¸":1266,"Ð´ÑĥÑĤ":1267,"ĠÐ½ÐµÐºÑį":1268,"ĠÑģÑĤÐ°Ð»Ð¾":1269,"ÑģÐ¸ÑĢ":1270,"ĠÐ·Ð°ÐºÐ¾Ð½":1271,"ĠÐ¿ÑĢÐ¸ÐµÑħÐ°Ð»Ð¸":1272,"ĠÐ±ÑįÐ¹":1273,"ĠÐ±Ð¾Ð³":1274,"ÓĪÐ½ÑįÑĢÑį":1275,"ÐµÑħÐ°Ð»Ð°":1276,"Ð´Ð¸Ð»ÑģÑı":1277,"ĠÐ¿Ð¾ÑģÐ¼Ð¾":1278,"Ð¸ÑĤ":1279,"Ð¸ÑĩÑį":1280,"Ð½ÓĪÓ£":1281,"Ð»Ð´Ñĭ":1282,"ÐºÑģÐ¿Ðµ":1283,"Ð²Ó£":1284,"ĠÐ±ÐµÑĢ":1285,"ÑĮÑĪÐµ":1286,"ĠÑįÑĤÐ°":1287,"ĠÑįhÓ£":1288,"ÑħÑį":1289,"ĠÐ¿ÑĢÐ¸Ð½":1290,"ÐºÐ¾Ð»Ð°":1291,"ÐºÐ¾Ð½ÑįÐ¼":1292,"Ð·Ð½Ð°":1293,"ĠÐºÑĤÐ¾":1294,"Ð´ÑĥÐ»Ó£":1295,"ĠÐ¿Ð¾Ð»":1296,"ĠÐ¿Ð¾Ð¼Ð¾":1297,"ĠÐ¿Ð¾Ð±Ðµ":1298,"ĠÐ¿Ð¾ÑĪÐ»Ð¸":1299,"Ð»Ð¾Ðº":1300,"Ð´ÑıÐ½Ð°":1301,"ĠÑĤÐ¾Ð»":1302,"Ò£Ð¸Ð½Ð°":1303,"Ð´Ð¾Ð¼":1304,"ĠÐ½ÑĥÒ£Ð°":1305,"ĠÐ´ÐµÐ´ÑĥÑĪÐºÐ°":1306,"ÑģÐ¾Ð±Ð°":1307,"Ð±ÑĥÐ´ÑĮ":1308,"ĠÑĥÐ»Ð³Ñĥ":1309,"ĠÑĤÐ°Ð¹Ð³Ðµ":1310,"ĠÑįÑĢÑįÐ³ÑįÑĢÐ¸ÑĤ":1311,"ĠÐ¼ÐµÐ´Ð²ÐµÐ´ÑĮ":1312,"ÐºÑģÐ¿ÐµÐ´Ð¸":1313,"ÑĤÑĢÐ¸":1314,"ÑĤÐ½Ð¾":1315,"Ð¸Ð·":1316,"Ð½Ð´Ð¸":1317,"Ð»Ð»Ñį":1318,"Ð»Ð±Ð°":1319,"ÑĥÐ¼Ñĥ":1320,"Ð´ÑĤÐ¾":1321,"ÐºÑĤÑįÐ»":1322,"ÑģÑĤÑĭ":1323,"Ð²ÑĢÐ°":1324,"Ð¼ÑĥÐ½":1325,"ĠÐ½ÑıÐ½":1326,"ĠÐ¾Ð·":1327,"ĠÑįÑĤÑĥ":1328,"ĠÑįÐºÑĥÐ½":1329,"ĠÐ¸Ð´Ó¯":1330,"ĠÐ³ÑĢÑĥ":1331,"ÑĢÑĥÑģÑģÐºÐ¸":1332,"Ð¼Ð¾Ð»":1333,"ÑħÐ¾Ð´ÑıÑĤ":1334,"ÑĤÑįÐ»Ð¸Ð½":1335,"ÑĤÑĥÐº":1336,"ĠÐ¿ÑĢÐ¸ÑĪÐµÐ»":1337,"Ð½ÐµÑĩÐ½Ð¾":1338,"ĠhÐ°Ð²Ð°Ð»Ð´Ñı":1339,"ĠÐ±Ð¾Ð»Ð¾":1340,"ĠÑĢÐ¾Ð´Ð¸":1341,"ĠÐ¾ÑĢÐ¾ÑĢÐ´Ð¸":1342,"ĠÐ´ÑĢÑĥÐ³Ð¾":1343,"ĠÐ´Ð¾Ð»Ð³Ð¾":1344,"ÑĩÐµÐ¼Ñĥ":1345,"ÑĤÐ¸Ð»ÑģÑı":1346,"ĠÐ¾ÑģÐµÐ½ÑĮ":1347,"Ð¾Ð»ÐµÐ½ÐµÐ¹":1348,"ÐºÑģÐ¿ÐµÐ´Ð¸ÑĨÐ¸":1349,"Ð¾ÑĩÐµÐ½ÑĮ":1350,"Ð½Ð¼Ñĥ":1351,"ÑĢÓ¯":1352,"ÑĢÐ³Ñį":1353,"Ð´Ð½Ð¾":1354,"Ð³Ð´Ðµ":1355,"ĠÐ´Ñĳ":1356,"ÑħÐ¸Ð½":1357,"ĠÐ²Ð´":1358,"ĠÐ¿Ðµ":1359,"ĠÐ¿Ð»Ð¾":1360,"ÓĪÐ¸Ð½":1361,"ĠÐ¸ÑĢÑį":1362,"ĠÐ¸ÑģÐ¿Ñĥ":1363,"ĠÐ¼Ñį":1364,"ĠÐ¼Ð½Ðµ":1365,"ĠÑĤÐ°Ð´Ñĥ":1366,"ĠÑĤÐ°ÑĢÐ¸":1367,"ĠÑĥÐ±Ðµ":1368,"ĠÐ¿Ð¾Ð¿":1369,"Ð¶Ð´Ñĭ":1370,"Ð´Ó¯Ð²ÑįÑĢ":1371,"ĠÐ½Ð°ÑĩÐ¸Ð½Ð°":1372,"Ð¼Ð°ÐºÑĤÐ°":1373,"ÐµÑĤÐµ":1374,"Ð½Ð¸Ð±ÑĥÐ´ÑĮ":1375,"ĠÐµÐ¼Ñĥ":1376,"Ð½ÑĥÓĪÐ°ÑĢ":1377,"Ð³Ð¸ÑĢ":1378,"ĠÑĢÐ°Ð½ÑĮ":1379,"ĠÐ±ÑĥÑģ":1380,"Ð¼ÑĥÐ¶":1381,"ĠÑħÐ¾Ð´Ð¸Ð»":1382,"Ð±Ð¾Ð¹":1383,"ĠÐ´ÑİÑĢ":1384,"ĠÐ¾ÑĤÑĨ":1385,"ĠÐ³ÑĥÐ½Ð´ÐµÑĢÑįÐ½":1386,"ĠÐ´ÑıÐ²Ð°":1387,"ĠÐ²ÑĭÑģÑĤÑĢÐµ":1388,"ĠhÑįÐ²ÑįÐºÓ£":1389,"ĠÐ¿ÑĢÐ¾Ð´ÑĥÐºÑĤÑĭ":1390,"ĠÑĢÐ°Ð±Ð¾ÑĤÐ°ÑĤÑĮ":1391,"hÐ¸Ð½ÑįÐ½":1392,"ĠÐ°ÑıÐ¼Ð°Ð¼Ð°":1393,"Ð»Ð´ÑįÐ½":1394,"ĠÑģÐºÐ°Ð·Ð°Ð»Ð°":1395,"ÑĤÐµÑĢÐ½Ð°":1396,"ĠÐµÐ·Ð´Ð¸Ð»Ð¸":1397,"ĠÑĪÐ°Ð¼Ð°Ð½":1398,"ĠÐ±ÐµÑĢÐ»Ð¾":1399,"ĠÑĢÐ°Ð½ÑĮÑĪÐµ":1400,"ĠÓ¯":1401,"ĠÄĵ":1402,"ĠÅį":1403,"Ð¾Ð²":1404,"ÑĤÑģÑı":1405,"Ð½ÑĩÐ°":1406,"Ð»Ð´Ó¯":1407,"Ð»ÑĩÐ¾":1408,"ÐµÑĪÑĮ":1409,"ÑįÑĤÐ¸":1410,"ÑģÐµÐ½":1411,"Ð³Ð»Ð°":1412,"ÑĤÐ¾Ð»ÑĮÐºÐ¾":1413,"ĠÐ±ÐµÐ»":1414,"ĠÐ½Ó£":1415,"Ð»Ð¸Ð»":1416,"ĠÑįÐºÐ¾Ð½":1417,"ĠÑįÐ½Ð¸Ð½":1418,"ĠÐ¿Ð»Ð°":1419,"ÓĪÐ½Ð°":1420,"ÐºÐ¾Ð³Ð¾":1421,"ÑĢÐ¸Ð³Ð°":1422,"Ð¶Ð½Ð¾":1423,"Ð²Ð¾Ð·":1424,"ĠÑĤÑĢÐ¾":1425,"Ð¼Ð°Ð»":1426,"Ð¼Ð°ÑĤÑĮ":1427,"ÑĩÐ¸Ð»Ð¸ÑģÑĮ":1428,"ÐµÐ¼Ñĥ":1429,"ÑģÐ¸ÑĤ":1430,"ĠhÑĥÑĤÑįÐ»":1431,"ÑģÑĳÐ»":1432,"ĠÐ¼Ð¾Ð¸":1433,"Ð²Ð¸Ð»Ð¸":1434,"ĠÐ¾Ð»Ð´Ð¾":1435,"ÑģÑĤÐ°Ð»Ð¸":1436,"ĠÑįÐ¼ÑįÑĢÑį":1437,"Ð·Ð°Ð»Ð°":1438,"ĠÐ¾ÑĤÑĨÐ°":1439,"ĠÑħÑįÐ»Ñį":1440,"ÓĪÑįhÓ£":1441,"ÐµÑģÑĤÑĮ":1442,"ĠhÑĥÑĢÑĥÑĢÑįÐ½":1443,"Ò£ÐºÓ£ÑĤÑĭÐ½":1444,"ĠÑĢÐ°Ð±Ð¾ÑĤÐ°Ð»":1445,"ĠÑįÑĢÐ´ÑįÐ»Ð¾":1446,"ĠÐ´ÑĢÑĥÐ³Ð¸":1447,"ĠÑģÐµÐ±Ðµ":1448,"ĠÐ¾Ð±ÑĢÐ°":1449,"ĠÑģÐ¾Ð±Ð°ÐºÐ°":1450,"ĠÐ·ÐµÐ¼Ð»Ñİ":1451,"ĠÓĪÐ¸Ð½Ð°ÐºÐ¸ÑĢ":1452,"ĠÑģÑĤÐ°ÑĢÑĥÑħÐ°":1453,"hÑĥÑĢÑĥ":1454,"ĠÑĪÐ¸":1455,"Ð»Äģ":1456,"ÑįÑĤÑį":1457,"ÑģÐµÑĤ":1458,"ÑĤÐ°ÑĢÐ¸ÑĤ":1459,"ÑĮÑİ":1460,"ĠÐ¾Ð´Ð°":1461,"Ð¿ÑĢÐ°Ð²":1462,"Ð±Ð°Ð»":1463,"ĠÐ²ÐµÑģ":1464,"ĠÐ²ÐµÐ·":1465,"Ð´ÐµÑģÑı":1466,"ÐºÐ¾Ðµ":1467,"ÑĥÐ½Ó£":1468,"ĠÐ°hÐ°":1469,"ĠÐ¿Ð¾ÐµÑħÐ°Ð»Ð¸":1470,"Ð³Ð¾ÑĢÐ¾":1471,"ÐºÐ¸Ñħ":1472,"Ð´ÑıÑĢÐ°":1473,"ÑģÐµÐ¼":1474,"Ð³Ð°Ð´Ó¯":1475,"ĠÐ²Ð¾Ð·":1476,"ĠÐºÐ¾Ð»Ð¾":1477,"ĠÐ±ÑĥÑĢÑĥ":1478,"ĠÐ±ÑĥÐ´ÑĤÐ¾":1479,"ĠÑħÐ¾Ð´Ð¸":1480,"ĠÐ´ÑİÐ³Ð°":1481,"ĠÐ´ÑıÐ¿":1482,"ĠÐ´ÑıÐ¿ÐºÐ°":1483,"ÐµÑģÐ»Ð¸":1484,"ĠÐ±Ð¸ÑģÑĳÐ½":1485,"ÑģÐ¿Ð¸":1486,"ĠÐ·ÐµÐ¼Ð»Ðµ":1487,"ÑĩÅįÐ²ÑĥÐ½":1488,"ĠÐ³Ð¾Ð²Ð¾ÑĢÐ¸ÑĤÑĮ":1489,"ĠÐ±Ð°Ð±ÑĥÑĪÐºÐ°":1490,"ĠÐºÑĥÓĪÐ°ÐºÐ°ÑĢ":1491,"ĠÑĤÑįÐ¿ÐºÑį":1492,"ĠÐ¾Ð·Ðµ":1493,"ĠÐ¾ÑĤÑĨÐ¾Ð¼":1494,"Ð¾ÑħÐ¾":1495,"Ð»Ð´Ð°":1496,"Ð»Ð²Ð°":1497,"ÐµÐºÐ¾":1498,"ÑģÑİ":1499,"ÑģÐ»Ð¾":1500,"ÑģÐ»Ñĭ":1501,"ÑĩÐµÐ½Ð¸":1502,"ÑĤÐ°ÑĢÐ°":1503,"ÑĤÐ¾ÑĤ":1504,"ĠÐ¿ÑĢÑı":1505,"Ð´ÐµÑĤÐ¸":1506,"Ð´Ð°Ð²Ð½Ð¾":1507,"ÑĤÑĭÐ¹":1508,"ĠÐ¼Ð»Ð°Ð´":1509,"ĠÐ°ÑĩÐ¸Ð½":1510,"ĠÑĥÐ»Ð¸":1511,"ĠhÄĵ":1512,"ĠÐ½Ð°ÑĪÐ¸":1513,"ÐºÐ¸ÑĤ":1514,"Ð²ÑįÑĤÑĭÐ½":1515,"Ð´ÑıÑĢ":1516,"Ð´ÑıÐ²ÐºÓ£":1517,"Ð½Ð¸Ð»":1518,"Ð¸Ð»ÑģÑı":1519,"ĠÐ»ÐµÑģ":1520,"Ð¼ÑįÑĢ":1521,"Ð´ÑĥÐºÐ¸Ð½":1522,"Ò£Ð¾":1523,"ĠÐ³Ð¾Ð»Ð¾":1524,"ÑĩÐ¸ÑĤÑĮ":1525,"ĠhÑĥÑİ":1526,"ĠhÑĥÐ»Ð°Ð½":1527,"ÑĤÐµÐ»Ð¸":1528,"ĠÐ¼Ð¾Ð»Ð¾":1529,"ĠÑıÓĪÑĥ":1530,"ĠÐ¿ÑĢÐ¸Ð²Ñı":1531,"ĠÑįÐ¼ÑįÐ²Ñĥ":1532,"ĠÑĢÐµÐºÐµ":1533,"ĠÑĩÑĥÐ¼Ð°":1534,"ĠÑĢÐ°Ð±Ð¾ÑĤÐ°Ð»Ð°":1535,"ĠÑĢÑĭÐ±Ñĥ":1536,"Ð¶Ð¸ÑĤ":1537,"ĠÐ»Ð¸ÑģÐ°":1538,"ĠÑįÑĤÐ¸Ñħ":1539,"ĠÐ¾Ð´Ð½Ð°":1540,"ĠÐ´ÑįÐ³Ð¸Ð»":1541,"ĠÐ¾ÑħÐ¾ÑĤÐ¸Ð»ÑģÑı":1542,"Ð·ÑĭÐ²Ð°ÐµÑĤ":1543,"ĠÑģÐ¾Ð±Ð°ÐºÐ¸":1544,"ĠÐ°Ð½ÓĪÐ°Ð½Ó£":1545,"ĠÐ¼ÐµÐ´Ð²ÐµÐ´Ñı":1546,"ĠÐ½ÑĥÐ»Ð³Ð¸":1547,"ĠÓĪÐ¸Ð½Ð°ÐºÐ¸Ð½":1548,"ĠÐ³Ð¾Ð²Ð¾ÑĢÑİ":1549,"ĠÐ³ÑįÑĢÐ±Ó£":1550,"Ð½ÓĪÓ£Ð»Ñį":1551,"Ð½ÑĥÓĪÐ°ÑĢÑĤÑĭÐ½":1552,"ĠÒ£Ñį":1553,"Ð»Ð´Ð¸":1554,"ÐµÐ»Ð°":1555,"ÑĥÐ¶Ðµ":1556,"Ð´ÑĢÑĥ":1557,"ÌĦÌĦ":1558,"ÑĤÐ¾Ð¶Ðµ":1559,"ĠÐ¾Ð´Ð°Ð½":1560,"ĠÑįÐ½":1561,"ĠÑįÑĢÑĥ":1562,"ĠÑįÐ²ÐºÓ£":1563,"ĠÐ²Ð½Ñĥ":1564,"ĠÐ²Ð¾Ð»":1565,"ĠÐ¿ÐµÐ½ÑģÐ¸":1566,"ĠÐºÑĢÐµ":1567,"ĠÑĥÑĪÐµÐ»":1568,"ĠÑĥÑĩÐ¸ÑĤ":1569,"ĠÐ±Ð¸hÐ¸":1570,"ĠÐ½Ð°ÑĩÐ°Ð»":1571,"Ð»Ð¾ÑģÑĮ":1572,"Ð¼Ð¾Ð¼":1573,"Ð½Ð¸ÐºÐ°":1574,"ÑħÐ¾Ð¹":1575,"ÐºÑĥÑĤ":1576,"ĠÐ³Ð¾Ð´Ñĥ":1577,"ĠÐ³Ð¾Ð³Ð¾":1578,"ÑĢÑįÐ½Ð´Ð°":1579,"ĠÐ²Ð¾Ð·Ð¸Ð»Ð¸":1580,"ĠÐ±ÑĥÐ´ÐµÑĪÑĮ":1581,"ÑģÑĤÐ°Ð»Ð°":1582,"ĠÐ´ÑİÐºÑĩÐ°":1583,"ĠÐ¾ÑĤÑģÑİÐ´Ð°":1584,"ĠÐ²ÑģÐµÑħ":1585,"ĠÐ²ÑģÐµÐ³Ð´Ð°":1586,"Ð»Ó£Ð½":1587,"ĠÑĢÐµÐºÐ¸":1588,"ĠÐ¸Ð½ÑĤÐµÑĢÐ½Ð°":1589,"Ð±ÑįÐ¹":1590,"ĠÐ³ÑĥÐ»ÑįÐ»":1591,"ÑįÑĤÐ¾ÑĤ":1592,"ĠÐ±Ð¾Ð»ÑĮÑĪÐ°Ñı":1593,"ĠÑģÐ²Ð¾Ñİ":1594,"Ð²ÑĭÐµ":1595,"ĠÐ¿Ð°Ð»Ð°":1596,"ĠÐ»ÑĥhÑĥ":1597,"ÑĤÑĢÐµÑĤÑĮ":1598,"ĠÑĢÑĥÐ¶":1599,"ĠÐ±ÐµÑĢÐµÐ³Ñĥ":1600,"ĠÑģÐ´ÐµÐ»Ð°Ð»":1601,"ĠÑĢÐ°ÑģÑģÐºÐ°Ð¶Ñĥ":1602,"ĠÑģÐºÐ°Ð·Ð°ÑĤÑĮ":1603,"ÑħÐ¾ÑĢÐ¾ÑĪÐ¾":1604,"ĠÐ°ÑĢÐ¼Ð¸":1605,"ĠÐ¿ÑįÐºÑĤÑĭÑĢÑį":1606,"ÑĢÐ¸Ð³Ð°Ð´Ð¸":1607,"Ð°ÓĪÐ¸":1608,"Ð½ÐºÐ°":1609,"Ð»ÑĤÑĭÐ½":1610,"ÑįÐ²Ð°":1611,"ÑįÑĤÐ¾Ð¼Ñĥ":1612,"ÐºÑįÐ»Ñį":1613,"ÑģÑĤÑį":1614,"Ð²ÑģÑĳ":1615,"Ð¼ÐµÑĢ":1616,"Ð¼ÐµÑģ":1617,"Ð³ÑĢÑĥ":1618,"ÑĤÐ°ÑĢÐ¸":1619,"ĠÑģÐµÐ´":1620,"ĠÑįÐ±ÑįÐºÐ¾":1621,"ĠÐ¿Ð°Ð»":1622,"ĠÐ¿ÑıÑĤÑĮ":1623,"ÑĢÐ°Ñı":1624,"ÑĢÐ°Ð±Ð¸Ð½":1625,"ĠÐ¸Ð¼":1626,"ÑĢÐ¾Ð²Ð°":1627,"ĠÐ°Ò£Ð°":1628,"Ð²Ð°Ð»Ð°":1629,"ĠÑĥÐ¹":1630,"ĠhÑĥÐ½Ð°":1631,"ĠÐ¿Ð¾ÑĤÐ°":1632,"ĠÐ¿Ð¾ÑģÐµÐ»":1633,"Ð¶Ð¸Ð»":1634,"Ð²Ð¾Ð·Ð¸Ð»Ð¸":1635,"ĠÐ½Ð°ÑĢÐ¾":1636,"ĠÑĤÑĢÐ¸":1637,"ĠÑĤÄģ":1638,"Ð»Ð¾Ð¼":1639,"Ð´ÑıÐ¼Ð¸":1640,"Ð¿Ð¾ÑĩÐµÐ¼Ñĥ":1641,"ĠÐ³Ð¾ÑĤÐ¾":1642,"ĠÐ´ÐµÐ¿":1643,"ĠÐ·Ð°Ðº":1644,"ÑģÑĤÐ°Ð²":1645,"ĠÐ´ÑİÐ³Ð°Ð½Ó£":1646,"ĠÐ³ÑĥÐ½Ð¸":1647,"Ð½Ó£Ð²Ñį":1648,"ÐºÑįÐ»Ð´Ñĥ":1649,"ĠhÑįÑĢÑį":1650,"Ð±ÑįÐµÐ»":1651,"hÑĥÐ»Ð°Ð½":1652,"Ò£ÐºÓ£ÑĦ":1653,"ĠÐ±Ð¾Ð»ÑĮÑĪÐµ":1654,"ĠÑģÐ²Ð¾Ð¸Ñħ":1655,"ĠÐ»ÑĥÑħÑĥ":1656,"Ð´ÐµÐ½ÑįÐ»":1657,"ĠÑĤÐµÐ¿ÐµÑĢÑĮ":1658,"ĠÐ°Ð¼Ð°ÑģÐºÓ£":1659,"ĠÐ»ÑİÐ´ÐµÐ¹":1660,"ĠÒ»Ð°":1661,"ĠÐ¼ÑĥÐ½Ñį":1662,"ĠÐ²Ð¾Ð¹Ð½Ð°":1663,"ĠÐ´Ð°Ð»ÐµÐºÐ¾":1664,"ĠÐ±Ð¸ÑĩÑįÐ½":1665,"ĠÐ´ÐµÑĢÐµÐ²":1666,"Ð´ÑĨÐ°ÑĤÑĮ":1667,"ĠÐ¸ÑģÐ¿ÑĥÐ³Ð°":1668,"hÑĥÐ½":1669,"ĠÑĨ":1670,"ÑĤÑĢ":1671,"ÑĤÑĤÓ¯":1672,"Ð»Ð³Ñį":1673,"Ð´Ð½Ð¸":1674,"ÑģÐ¼Ð¾":1675,"ÑĩÓ£":1676,"ÑĩÐµÑĤ":1677,"ÑĤÐ¾Ð³Ð¾":1678,"ĠÐ¾Ñĳ":1679,"ĠÐ¾ÑĢÐ°Ð½":1680,"Ð¿Ñĭ":1681,"Ð±Ð¾Ð»ÑĮ":1682,"ĠÑįÐµ":1683,"ĠÑįÐ²ÐµÐ½":1684,"ĠÐ´Ð²Ð°":1685,"Ð´ÐµÑĤÑĮ":1686,"Ð´ÐµÑĢÓ£":1687,"ÑĪÐºÑĥ":1688,"ÑĢÐ°Ñģ":1689,"ÑĢÐ°Ð±Ð¾ÑĤÐ°":1690,"ÑĤÑĭÑĢÐµ":1691,"ÐºÐ¾Ð»Ð¾":1692,"ĠÐ¸Ð³ÑĢÐ°":1693,"ÑĢÐ¾Ðº":1694,"ĠÐºÐ¸Ð½":1695,"ĠÐ°Ð»Ðµ":1696,"ĠÑĥÐ´Ñı":1697,"ĠÐ³Ð»Ð°":1698,"ĠÐ³ÑĥÑĢÑĥ":1699,"ĠÐ¿Ð¾Ð»Ð¾":1700,"Ð³Ð¾Ð²Ð°ÑĢÐ¸":1701,"ÑĩÐ°Ð²":1702,"ÑĤÑįÐ³Ñį":1703,"ĠÐµÐ´ÑıÑĤ":1704,"Ð³Ð°ÑĢ":1705,"Ð³Ð°Ð»Ð¸":1706,"Ð³Ð°ÑĤÑĮ":1707,"ÑĩÐ¸ÑĤÑĮÑģÑı":1708,"ĠÑģÑĤÐ°ÑĢÐ¸":1709,"ĠÑĤÑĥÑĢÐµ":1710,"ĠÐ²Ð¾ÑģÐ¿Ð¸":1711,"ĠÑģÐ°Ð¼Ð°":1712,"ĠÑıÐ³Ð¾":1713,"ĠÐ¿ÑĢÐ¸Ð´Ð°":1714,"ĠÐ¿ÑĢÐ¸ÑĪÐ»Ð¸":1715,"ÑĪÐ¸Ñħ":1716,"Ð·Ð°Ð´":1717,"ĠÐ¾ÑĤÐ¿Ñĥ":1718,"ĠÐ³ÑĥÐ½Ñį":1719,"ĠÐ³ÑĥÐ½Ð´ÐµÐ½Ñį":1720,"ĠÐ´ÑıÐ½ÑĤÐ°":1721,"ÑģÐºÐ°Ð·Ð°Ð»":1722,"ÐºÐ°Ð½Ð½Ð¾":1723,"ĠÐ·Ð½Ð°Ñİ":1724,"ÓĪÐ½ÑįÐ¼":1725,"ĠÑĢÐ¾Ð´Ð¸Ð»ÑģÑı":1726,"ĠÑĢÐ°Ð±Ð¾ÑĤÐ°Ð»Ð¸":1727,"ĠÑħÐ°Ð²Ð°Ð»Ð¸":1728,"ĠÑĤÐµÐ±Ñı":1729,"ÑĩÑĤÐ¾Ð±Ñĭ":1730,"ĠÑģÐµÐ±Ñı":1731,"ĠÐ¶ÐµÐ½ÑīÐ¸Ð½Ñĭ":1732,"ĠÐºÐ¾Ð¼Ð¾ÐµÐ¼Ð¸":1733,"ĠÑĤÑįÐ³ÑįÑĤÑĩÑį":1734,"ĠÐ°Ð¼Ó£Ð¼":1735,"ĠÑħÑįÐ³Ð´Ð¸":1736,"ĠÐ²Ð·ÑıÐ»":1737,"ĠÑģÐ¸Ð»ÑĮÐ½Ð¾":1738,"ĠÑģÑĤÐ°ÑĢÑĪÐ¸Ð¹":1739,"ĠÐ¾ÑħÐ¾ÑĤÐ¸ÑĤÑĮÑģÑı":1740,"ĠÑĥÑĩÐ°Ð¼Ð¸":1741,"ĠÑģÑĤÐ¾ÑĢÐ¾Ð½Ñĥ":1742,"ĠÐ²ÐµÑĢÑĤÐ¾Ð»ÐµÑĤ":1743,"Ð·Ð½Ð°ÑĩÐ¸ÑĤ":1744,"ĠÑĤÐ¾Ð»Ð³Ð¾":1745,"Ò£Ð¸Ð½Ð°ÐºÐ¸Ð½":1746,"Ð·ÑĭÐ²Ð°ÐµÑĤÑģÑı":1747,"hÑįÐ½":1748,"ÐµÐ»Ð¸":1749,"ÑįÐ´ÑĥÐº":1750,"ÑģÐº":1751,"Ð²ÐºÐ¾":1752,"ÑĤÐ°Ð»":1753,"ÑĤÐ°Ð»Ð°":1754,"ĠÐ±ÐµÐ´":1755,"ĠÑģÐ²Ð°":1756,"ĠÑģÐ¾Ð»":1757,"ĠÐ½Ñİ":1758,"ĠÐ¾Ð´Ðµ":1759,"Ð¿ÐºÐ°Ð½":1760,"Ð»Ð¸ÑģÐ°":1761,"Ð±Ð»Ð¸":1762,"ĠÑįÐ½Ñį":1763,"ĠÑįÑģÑį":1764,"ĠÑįÐ²Ó£":1765,"ĠÑįÐºÑģÐ¿ÐµÐ´Ð¸ÑĨÐ¸":1766,"ĠÐ´ÐµÑĢ":1767,"ĠÐ´Ð²Ðµ":1768,"ĠÐ´ÐµÐ½ÑĮ":1769,"ĠÐ²Ð·":1770,"ÓĪÑĥÐ½":1771,"ÓĪÐºÑį":1772,"ÓĪÐ³Ð¸ÑĤ":1773,"Ð·Ð½ÑĮ":1774,"ÑĢÐ¾Ð½":1775,"ÑĢÐ¾Ð¹":1776,"ĠÑĤÐ°ÑģÐºÐ°":1777,"ĠÐºÑĢÐ¸":1778,"ĠÐºÐ¾Ð»":1779,"ĠÐ°Ð±":1780,"ĠÐ°Ð»Ð°":1781,"ĠÐ¿Ð¾Ð¿Ð°":1782,"Ð²Ð¾Ð´":1783,"Ð²Ð¾Ð¼":1784,"Ð²Ð¾ÐµÐ¼":1785,"ĠÐ½Ð°ÑĪÐµÐ»":1786,"ĠÑĤÐµÐ»":1787,"Ð½Ð°ÑĩÐ°":1788,"Ð½Ð¾Ð²":1789,"ÐµÑĢÐ´Ð¸":1790,"Ð½Ð¸Ð·":1791,"ÑħÐ¾Ð½ÑĮ":1792,"Ð¼Ð¸ÑĢÐ°":1793,"ÐºÑĥÓĪÐ°":1794,"Ò£Ð¸Ð»":1795,"Ð´Ð¾Ð¹":1796,"ÑĩÐ¸Ð»Ð°ÑģÑĮ":1797,"ĠÑģÑĤÐ°ÑĢÐ¸Ðº":1798,"ĠÑĤÑĥÐ³Ð¸":1799,"ÑģÐ¾Ð²ÑģÐµÐ¼":1800,"ĠÑģÐ¾Ð±Ð¾Ð»":1801,"ĠÑħÐ¾Ð´Ð¸Ð»Ð¸":1802,"ĠÑįÐ¼ÑįÑĢÑįÐ½":1803,"ĠÐ²ÑĭÑĢÐ¾Ñģ":1804,"ĠÑĪÐ°Ð¼Ð°":1805,"ĠÐ´Ð°Ð²Ð°Ð¹":1806,"ĠhÑįÑĢÐ³Ó£":1807,"ĠÐ±Ð¾Ð³Ð°":1808,"Ð²Ð°Ð»Ð¸ÑģÑĮ":1809,"ÐºÑĤÑįÐ´Ðµ":1810,"Ð½ÑıÐ»Ð¸":1811,"ĠÐ¶Ð¸ÑĤÑĮ":1812,"ĠÐ¾ÑĢÐ¾ÑĢÐ²Ð¾":1813,"ĠÐ´ÑĢÑĥÐ³":1814,"ĠÐ¿Ð°ÑĢ":1815,"ĠÐ¿Ð°ÑģÑĤÑĥ":1816,"ĠÑħÐ°Ð²Ð°Ð»":1817,"ĠÑģÐµÑģÑĤ":1818,"ĠÑģÐ¿Ðµ":1819,"ÑģÐºÐ¾Ð»ÑĮÐºÐ¾":1820,"ĠÑĪÐºÐ¾Ð»Ñĥ":1821,"Ð¶ÐµÐ½Ñī":1822,"ĠhÑĥÐ²ÑĥÐ»Ð¸Ð½":1823,"ĠÑģÐµÐ¼ÑĮ":1824,"ĠÐ½ÑĥÒ£Ð°Ð½":1825,"Ð¼Ð¾Ð»Ð³Ó£":1826,"ĠÐ¿ÑĢÑıÐ¼Ð¾":1827,"hÑįÐ»":1828,"Ð°Ð¼Ð¸":1829,"Ð¾Ð´Ð¸Ð½":1830,"ÑĤÐºÐ¾":1831,"ÑĤÄģ":1832,"Ð½Ð´ÑĥÐº":1833,"Ð½ÐµÐ¹":1834,"Ð»Ð²Ð¸":1835,"ÑįÐ½Ó£":1836,"ÑįÐ±ÑįÐºÐ¾":1837,"ÑĢÐ´Ñĥ":1838,"ÑĢÐ¼Ð°":1839,"ÑĢÑĤÑĭÐ½":1840,"ÐºÐºÐ¸":1841,"ÐºÑĤÓ¯":1842,"ÑıÐ¼":1843,"ÑĤÐ¾Ð½Ð¾":1844,"ĠÐ±ÑĢÐ¸Ð³Ð°Ð´Ð¸":1845,"ĠÐ¾Ð¹":1846,"Ð»Ð¸ÑĤÑĭÐ½":1847,"ĠÑįÐ»Ð°":1848,"ĠÑįÐ²Ð°":1849,"ĠÑįÓĪÑįhÓ£":1850,"ĠÐ´Ð²Ð¾":1851,"ĠÐ²ÑĢÐ°":1852,"ĠÐ²Ð¼ÐµÑģ":1853,"ÓĪÓ¯":1854,"Ð»Ð°Ñı":1855,"ÐºÐ°Ð½ÑįÐ¼":1856,"Ð¸Ð½Ñĥ":1857,"ÑĢÐ°ÑĪ":1858,"Ð·Ð¸":1859,"Ð·Ð¸Ð½":1860,"ĠÐ¸Ð»Ñį":1861,"ĠÐ¼ÐµÑģ":1862,"ĠÐ°ÑģÐ¸ÑĢ":1863,"ĠÑĥÐ¿ÐºÐ°":1864,"ĠÑĥÑģÐ»Ñĭ":1865,"ĠÐ¿Ð¾ÐºÐ¾Ð¹":1866,"ĠÐ¿Ð¾ÐµÑħÐ°Ð»":1867,"Ð¶Ð¸Ð»Ð¸":1868,"Ð´Ó¯Ð¸":1869,"ĠÐ±Ð¸ÑĢÑį":1870,"ĠÑĤÑĢÐµ":1871,"ÑĩÐ°Ð»Ð¸":1872,"Ð¿Ð¾ÑįÑĤÐ¾Ð¼Ñĥ":1873,"ĠÐµÐ»Ð¸":1874,"ĠÐ½ÐµÐµ":1875,"ĠÑĩÐµÑĢ":1876,"Ð³Ð°Ð»Ð°":1877,"Ò£Ð¸":1878,"Ò£Ó£":1879,"ĠÐ¶Ð¸Ð»":1880,"ĠÐ¶ÐµÐ»":1881,"ĠÐ³Ð¾Ð´":1882,"ÑĩÐ¸Ð»Ð°":1883,"ĠÑģÑĤÐ°Ð´Ð¾":1884,"ĠÑĤÑĥÓĪ":1885,"ĠÐºÐ¾Ð³Ð¾":1886,"ĠÐºÐ¾ÑĤÐ¾ÑĢÑĭ":1887,"Ð»ÑįÐ½":1888,"ĠÑģÐ°Ð¼Ð¸":1889,"ÑĤÐµÑĢÐ¸":1890,"ĠÐ¼Ð¾Ð¶Ð½Ð¾":1891,"ĠÐ¿ÑĢÐ¸ÐµÑħÐ°Ð»":1892,"ÑıÑĤÑĮÑģÑı":1893,"ĠÑĪÐºÑĥ":1894,"ĠhÐ°Ð¼Ð°":1895,"ĠhÐ°Ð²Ð°Ð»Ð¸":1896,"ÑıÑĤÑģÑı":1897,"ÓĪÐ½ÑįÑĢÑįÐ²ÑĥÐ½":1898,"ĠÐºÑĥÐ´Ð°":1899,"ĠÐ»ÐµÑĤÐ¾":1900,"ĠÑĤÐµÑĩÐµÐ½Ð¸":1901,"ÑĩÐ¸Ð»ÑģÑı":1902,"ĠÑģÐ¿ÑĢÐ°":1903,"ĠÐ³Ð¸ÑĢÐºÑĥÐ´Ñı":1904,"ĠÒ»Ñĥ":1905,"ĠÑĪÐºÐ¾Ð»Ð°":1906,"ĠÐ²Ð·ÑıÐ»Ð¸":1907,"ĠÐ³Ð¾Ð²Ð¾ÑĢÑıÑĤ":1908,"ÓĪÑĤÑĥÐ²ÑĥÐ½":1909,"ĠÐ»Ð¾Ð´ÐºÑĥ":1910,"ĠÑģÐ°Ð¼ÑĭÐ¹":1911,"ĠÐ¶Ð¸Ð²ÑĥÑĤ":1912,"ĠÐ°ÑĢÐ³Ð¸ÑĪÐ¸Ð»Ð¸":1913,"ÐµÐ·Ð¶Ð°Ð»Ð¸":1914,"ĠÑģÐºÐ¾Ð»ÑĮÐºÐ¾":1915,"ĠÐ¿ÑĢÐ¸Ð½ÐµÑģ":1916,"ĠÐ´ÑĢÑĥÐ³Ð¾Ð¹":1917,"ĠÐ¾ÑģÐµÐ½ÑĮÑİ":1918,"ĠÐ¾Ð±ÑĢÐ°ÑĤÐ½Ð¾":1919,"ÑģÐµÐ¼ÑĮ":1920,"ĠÐ¿ÑĢÐ¸Ð´Ð°Ð½Ð¾Ðµ":1921,"hÐ¸Ð»":1922,"Ð°Ð¼Ð¸Ð½":1923,"Ð¾Ð´":1924,"ÑĤÑĢÐ°":1925,"ÑĤÐµÐ½":1926,"ÑĤÐºÐ¸":1927,"ÑĤÑĩÐ¾":1928,"ÑĤÐ¿Ð¸":1929,"Ð»Ð´ÑĥÐº":1930,"ÑĢÐµÑĤ":1931,"Ð´ÑĥÐ½Ð´Ñį":1932,"ÐºÑĤÑĭÐ½":1933,"Ð²ÐºÐ°":1934,"Ð²ÐµÐ¼":1935,"Ð¼ÐºÐ°":1936,"Ð³Ð´Ð¾":1937,"ÑĩÐºÐ¸":1938,"ĠÐ±ÑįÐ»Ñį":1939,"ĠÐ±Äĵ":1940,"ĠÐ±ÑĥÐ½Ó£":1941,"ÑĮÐ½Ð¾":1942,"ĠÑģÑĭ":1943,"ĠÑģÐ½Ðµ":1944,"ĠÑģÐ»Ñĥ":1945,"ĠÐ¾ÑģÐ°":1946,"ĠÐ¾Ð´ÑıÓĪÐ°":1947,"Ð¿Ð»Ð°":1948,"Ð¿ÑĢÐ°":1949,"Ð¿ÐºÐ¾":1950,"Ð±ÑįÐ½":1951,"ĠÐ´ÐµÐ»":1952,"ĠÐ²ÑĤÐ¾":1953,"ĠÐ²Ð½Ð¸Ð·":1954,"ÑĤÑĭÐºÐ¸":1955,"ĠÐ¸ÑģÑį":1956,"ĠÐ¼Ð¸":1957,"ĠÑĤÐ°ÐºÐ¾Ð¹":1958,"ĠÐ°ÑĢÐ°":1959,"ĠÐ°Ð¼Ñĥ":1960,"ĠÐ°hÐ°Ð»":1961,"ĠÐ°ÓĪÐ°Ð½Ó£":1962,"ĠÑĥÐ²ÐµÐ·Ð»Ð¸":1963,"Ð´ÑĥÐ»Ð¾":1964,"ĠÐ¿Ð¾Ðµ":1965,"ĠÐ¿Ð¾ÑĢ":1966,"ĠÐ±Ð¸Ð¼":1967,"ĠÐ½Ð°ÑĪ":1968,"ĠÑĤÐµÐ¼":1969,"ÐºÐ¸Ð¼":1970,"Ð¼Ð¾Ð²":1971,"Ð½Ð¸ÑĩÐµÐ³Ð¾":1972,"ÑħÐ¾Ð´Ð¸ÑĤ":1973,"Ð¿Ð¾Ð´":1974,"Ð¿Ð¾ÐºÐ°":1975,"ĠÐ»ÐµÐ½":1976,"Ð½ÑĥÐ»Ð°":1977,"Ð½ÑĥÑİ":1978,"Ð³Ð°Ð½":1979,"ÐºÑįÑĤ":1980,"ÑģÐ°ÑĢÑģÐ¸ÐºÐ°Ð½":1981,"ÑĩÐ¸ÑĢ":1982,"ĠÑģÑĤÐ°Ð²":1983,"ÑĤÑĥÓĪ":1984,"ÑĤÑĥÐ»Ð°":1985,"ÑĤÑĥÑĢÑĥ":1986,"ÑĤÑĥÐºÑģÐ°":1987,"ĠÐºÐ¾Ð½ÐµÑĩÐ½Ð¾":1988,"ĠÐ¼Ð¾Ð¶ÐµÑĤ":1989,"Ð²Ð¸Ð»Ð¸ÑģÑĮ":1990,"ĠÐ¾Ð»Ð»Ð¾":1991,"ĠÑģÐ¾Ð²":1992,"ĠÑģÐ¾Ð±ÑĢÐ°":1993,"ÑĪÐ¸ÑģÑĮ":1994,"Ð±ÑĥÑĪÐºÐ°":1995,"Ð»ÐµÑĤÐ°":1996,"ĠÐ³ÑĥÐ½Ð´ÐµÐ¼":1997,"ÓĪÑįÐ½Ñį":1998,"ÑİÑĤÑģÑı":1999,"ĠÐ¾ÑĢÐ¾Ð½":2000,"ÑĢÐ°Ð½ÑĮÑĪÐµ":2001,"ĠÐ²Ð°ÑģÐ¸Ð»":2002,"ĠÐ¶Ð¸Ð·Ð½ÑĮ":2003,"Ð¶Ð°Ð»Ð¸":2004,"Ð¶Ð°Ð»Ð°":2005,"ĠÐ»Ð¾ÑģÑı":2006,"ĠÑĩÑĥÐ¼Ðµ":2007,"ĠÑģÐ²Ð¾ÐµÐ¹":2008,"ĠÐ³Ð°Ð´Ð°":2009,"ĠÑĩÐµÑĤÑĭÑĢÐµ":2010,"ĠÐ´ÑĢÑĥÐ³Ð°":2011,"ĠÐ¾Ð»ÐµÐ½ÑıÐ¼Ð¸":2012,"ĠÐ¾ÑħÐ¾ÑĤ":2013,"ÑĤÑĤÑįÐ½":2014,"ÓĪÐ¸ÑĤ":2015,"ĠÐ²ÐµÑīÐ¸":2016,"ĠÐ´ÑĭÐ½ÓĪÓ£Ð»Ñį":2017,"ÐµÐ²Ð½Ð°":2018,"ĠÐ±ÑĢÐ°ÑĤÑĮ":2019,"ĠÐ±Ð°Ð»Ð´Ð¸":2020,"ĠÐ´Ð¸ÐºÐ¸Ñħ":2021,"Ð±Ð¾Ð»ÑĤÐ¾Ð½Ð¾":2022,"ĠÑĥÐ¼ÑĥÐºÐ¾":2023,"ĠÐ¼Ð¸Ð½ÓĪÓ£":2024,"ĠÑĥÐ¼ÐµÑĢÐ»Ð°":2025,"Ð´Ð¾Ð»Ð³Ð¾":2026,"ĠÑĤÑĥÐ½ÓĪÐ°":2027,"ĠÑĥÐ²Ð¸Ð´ÐµÐ»":2028,"Ò£Ð½ÑįÑĢÑįÐ²ÑĥÐ½":2029,"ĠÐ¿Ð¾Ð»Ð½Ð¾":2030,"ĠÐ´ÑĢÑĥÐ³Ð¸Ðµ":2031,"Ð´ÐµÑģÑıÑĤ":2032,"ĠÐ´ÑİÐ³Ð°Ð½Ó£Ð´Ó¯":2033,"âĢ":2034,"Ð°ÑĤÑĭÑĢÐºÐ°":2035,"Ð¾Ð±":2036,"ÑĤÐµÐ»":2037,"Ð½Ð´":2038,"Ð½ÐºÐ¸":2039,"Ð½Ð½ÑĥÐ½":2040,"Ð»Ð´ÑĥÐ»Ð°":2041,"Ð»Ð´Ó£":2042,"ÐµÐµ":2043,"ÑįÑĢÑį":2044,"ÑĢÐ³Ó¯":2045,"ÑģÐ»Ðµ":2046,"Ð¼Ð½Ó£":2047,"ÑıÐ»":2048,"ĠÐ±Ð¸Ð½":2049,"ĠÐ±Ð¸Ð½Ñį":2050,"ĠÐ¾Ð³":2051,"ĠÑįÐ´Ð¸":2052,"ĠÐ´ÑĥÐ½":2053,"ĠÐ´ÑĢÐ¾Ð²Ð°":2054,"ÓĪÐ¾Ð»":2055,"ÓĪÐ´Ñį":2056,"Ð´ÐµÐ¼Ð¸":2057,"Ð´ÐµÑĤÐµ":2058,"Ð´ÐµÐ²ÐºÓ£":2059,"Ð´ÐµÐ²ÐºÓ£Ð»":2060,"ÑĪÐºÐ¾Ð¼":2061,"ÐºÐ¾Ð»ÑĮ":2062,"ÐºÐ¾Ð¼Ð¾Ðµ":2063,"ÐºÐ¾ÑĤÐ¾ÑĢÑĭ":2064,"ĠÐ¸Ð»Ð°Ð½":2065,"ĠÑĤÐ°Ð²ÑįÑĢ":2066,"ĠÐ°Ð¼":2067,"ĠÐ°ÑħÐ°":2068,"Ð²Ð°Ñİ":2069,"ĠÑĥÐ±":2070,"ĠÐ³ÑįÐ½":2071,"ĠÐ¿Ð¾Ñı":2072,"ĠÐ¿Ð¾Ð´Ð¾":2073,"ĠÐ¿Ð¾ÑĪÐ»Ð°":2074,"Ð³Ð¾Ð½":2075,"Ð´Ó¯Ð´Ð°":2076,"ĠÐ±Ð¸hÐ¸Ð½":2077,"ĠÐ±Ð¸ÑĢÐºÑį":2078,"ĠÑĤÐ¸":2079,"Ð½Ð¾Ð¼":2080,"ÐºÑĥÑİ":2081,"ÑģÐ°Ð¼Ð°":2082,"ÑĨÑĥ":2083,"ÐµÐ»Ñĭ":2084,"Ð³Ð¸Ð´Ð°":2085,"ÑĩÐ¸Ðº":2086,"ĠÑĤÑĥÑĢ":2087,"ĠÑĢÐ°Ð²Ð½Ð¾":2088,"ĠÑįÑĤÐ¾Ð¹":2089,"ÑĤÑĥÐ³Ñį":2090,"ĠÐºÐ¾Ð¼":2091,"ĠÐ´ÐµÐ±":2092,"ĠhÑĥÑĤÑį":2093,"ĠÐ±ÑĥÐ±ÐµÐ½":2094,"ĠÐ¿ÑĢÐ¸Ð´ÐµÑĤ":2095,"Ð³ÑįÐ½":2096,"ÑģÑĤÐ²ÐµÐ½":2097,"ĠÑĩÑĤÐ¾ÑĤÐ¾":2098,"Ð·Ð°ÑĩÐµÐ¼":2099,"ĠÐ¾ÑĤÑĤÑĥÐ´Ð°":2100,"ĠÐ³ÑĥÐ½Ð¸Ð¼":2101,"ĠÐ°ÓĪÑį":2102,"ĠÐ´ÑıÐ²Ñĥ":2103,"ĠhÐ°Ð²Ð°Ð»":2104,"ÑģÐºÐ°Ð·Ð°Ð»Ð°":2105,"ĠÐ´Ð°Ð²Ð½Ð¾":2106,"ĠhÑįhÑįÐ½":2107,"ĠÐ´ÐµÐ»Ð°ÐµÑĤ":2108,"ÑĩÐµÑĢÐ¾Ð¼":2109,"ĠÐºÑĥÒ£Ð°":2110,"ÑĤÑĩÑįÑĢÑį":2111,"ĠÑĢÐ°Ð·Ð¾":2112,"ĠÑĢÐ°Ð·Ð³Ð¾Ð²Ð°ÑĢÐ¸":2113,"Ò£ÐºÓ£Ð²":2114,"ĠÑģÐ²Ð¾Ð¸":2115,"ĠÑħÐ°Ð²Ð°Ð»Ð´Ñı":2116,"ĠÑĥÐ»Ð´Ñį":2117,"ĠÑĢÑĥÐºÐ°":2118,"ĠÐ²ÐµÑĢÑħÐ¾":2119,"ĠÐ¾ÑģÑĤÐ°Ð²":2120,"Ð½ÑĥÐ»ÑģÑı":2121,"ĠÐ¸ÑĩÑįÑĤÑĩÑį":2122,"Ò£ÑįhÑį":2123,"Ð¾ÑĤÑģÑİÐ´Ð°":2124,"ĠÑĥÐ¼ÑĥÐºÐ¸Ð½":2125,"ĠÐ³Ð´ÐµÑĤÐ¾":2126,"ĠÐ¼Ð°Ð»ÐµÐ½ÑĮÐºÐ°Ñı":2127,"ĠÐºÐ¸ÓĪÐ³Ð¸ÑĤ":2128,"ĠÑģÑĤÑĢÐµÐ»Ñı":2129,"Ð¾ÑĢÐ¾ÑĢÐ²Ð¾":2130,"ĠÐºÑĥÓĪÐ°ÐºÐ°Ð½":2131,"ĠÐ¼ÐµÑģÑı":2132,"ĠÑĥÐ»ÑĥÐºÓ£Ð»":2133,"ĠÐ½ÑıÐ¼Ð°":2134,"ĠÐ¸Ð»Ð¼Ð°ÐºÑĤÐ°":2135,"ĠÐ·Ð¸Ð¼Ð¾Ð¹":2136,"ĠhÑĥÐ²ÑĥÐ»Ð¸ÑĤÑĭÐ½":2137,"ĠÑĳÐ»ÐºÐ¸":2138,"ĠÑĢÐ¾ÑģÐ¾Ð¼Ð°ÑħÐ°":2139,"ĠÐ¿Ð¾ÑģÐ¼Ð¾ÑĤÑĢÐµÑĤÑĮ":2140,"ĠÑįhÓ£ÐºÐ¾ÐºÐ¾":2141,"ÑģÐ¾Ð±Ð°ÐºÐ°":2142,"ĠÐ±Ð¾Ð»Ð¾Ð½Ó£":2143,"ĠÐ±ÑĥÑģÐ»Ñį":2144,"ĠÓ¯ÑĩÐ°":2145,"ĠÐ»ÐµÑģÑĥ":2146,"ĠÐ±Ð¸hÐ¸Ð¼":2147,"ĠÑģÐ²Ð°Ð´ÑĮ":2148,"ÓĪÓ¯ÐºÑĤÐ°":2149,"ĠÑĥÐ¿ÐºÐ°ÑĤ":2150,"âĢĻ":2151,"ĠÐ±Ð¸hÐ¸Ð½Ð´Ñį":2152,"ĠÑĥÐ½":2153,"ÑĤÑĤÐµ":2154,"Ð¸Ð»Ð°":2155,"Ð½Ð´Ðµ":2156,"ÑįÐ´Ð°":2157,"ÑįÐ²Ñį":2158,"ÑįÑĩÑį":2159,"ÑįhÓ£":2160,"ÑįÑĤÑĭÑĢÐºÐ¾":2161,"ÑĢÐ´Ó¯":2162,"ÑĥÐ¼":2163,"Ð´ÑĢÐ°":2164,"ÐºÐ»Ð°":2165,"ÑģÑĩÐ°":2166,"Ð²ÑĪÐ¸ÑģÑĮ":2167,"Ð¼Ð¸Ð»":2168,"ÑĤÐ°Ð¹":2169,"ÑĤÐ¾Ð½ÑĩÐ°":2170,"ĠÑģÐ´Ð°":2171,"ĠÑģÐµÑĤ":2172,"ĠÑģÐ»Ñĭ":2173,"ĠÐ¾Ð¼Ð¾Ð»Ð³Ó£":2174,"Ð¿Ðµ":2175,"ĠÑįÐ¼":2176,"ĠÑįÐ¼Ð¾":2177,"ĠÑįÐ²ÐºÓ£Ð»":2178,"ĠÑįÐºÑĥÑĢ":2179,"ĠÐ´Ð»Ð¸Ð½":2180,"ÑħÐ²Ð°":2181,"ĠÐ²ÑģÑı":2182,"ĠÐ²Ð¿ÐµÑĢÐµ":2183,"ÓĪÐºÑĥ":2184,"Ð¹Ó£":2185,"Ð¹ÑĤÐµ":2186,"ÑĪÐ¸Ð»":2187,"ÑĢÐ°Ð²ÑĥÐ½":2188,"ĠÐ¸ÑĢ":2189,"ĠÑĥÑĤÐ¾":2190,"ĠÑĥÐ»Ð¾":2191,"ĠÑĥÑģÑĤÐ°":2192,"ĠÑĥÐ¼Ð¸ÑĢÐ°":2193,"ĠÐ³ÑįÐ»Ñį":2194,"ÐºÓ£Ð¼":2195,"Ð³Ð¾ÑĢ":2196,"ĠÐ±Ð¸Ð²ÐºÓ£":2197,"ĠÐ½Ð°Ð¼":2198,"ĠÐ½Ð°Ð¹":2199,"ĠÐ½Ð°ÐºÐ°Ð½Ð½Ð¾":2200,"ĠÑĤÑı":2201,"ÑĢÑĥÐ¶":2202,"Ð½Ð°Ð½":2203,"Ð¼Ð°ÑĤ":2204,"Ð´ÑıÐ¿":2205,"Ð´ÑıÑĢÐ°Ð½":2206,"Ð½Ð¸Ðµ":2207,"Ð¿Ð¾ÑĢÑĥÑģÑģÐºÐ¸":2208,"ĠÐµÐ¹":2209,"Ð½ÑĥÐ»Ð¸":2210,"ĠÑĤÐ¾Ð±Ð¾Ð¹":2211,"ÐºÑĥÑĢÐ°":2212,"ÑģÑıÑĤÑĮ":2213,"Ð³Ð°Ð·Ð¸Ð½":2214,"ĠÐ¶ÐµÑĢÐ´Ð¸":2215,"ÑĤÐ¸ÑħÐ¾Ð½ÑĮ":2216,"ĠÐ´ÐµÐ²ÑĥÐ»":2217,"ĠÐ´ÐµÑģÑıÑĤÑĮ":2218,"ĠÑģÐ°Ð¼":2219,"ÑĤÐµÐ¿ÐµÑĢÑĮ":2220,"ĠÐºÐ°Ð¿ÐºÐ°":2221,"ĠÐºÐ°ÑĢÐ°Ð±Ð¸Ð½":2222,"ĠÐ·Ð°Ð¼ÑĥÐ¶":2223,"ĠÐ¿ÑĢÐ¸ÑĪÐ»Ð°":2224,"ĠÐ½Ð¸ÐºÐ¾Ð»Ð°":2225,"Ð±Ð°Ð±ÑĥÑĪÐºÐ°":2226,"Ð±Ð¾Ð½":2227,"Ð±Ð¾Ð³":2228,"ÑģÑĤÑı":2229,"ÑģÑĤÐµÑĢ":2230,"ÑģÑĤÑĢÐµÑĤ":2231,"ĠÑįÐ¼ÑįÐ½Ð¼Ñĥ":2232,"ÐµÑĢÐµÐ·":2233,"ĠÐ¾ÑĤÐºÑĢÑĭ":2234,"ĠÐ²ÑĭÑĢÐ°":2235,"ÑģÐºÐ°Ð¹":2236,"ĠÐ¼Ð°ÑĢ":2237,"Ð²ÐµÑĢÑħ":2238,"ĠÐ´ÐµÐ»Ð°Ð»":2239,"ÑĩÐµÐ²Ð°Ð»Ð¸":2240,"ĠÐ±Ð¾Ñı":2241,"Ð¿Ð°ÑĤÑĮ":2242,"ÑįÑĢÐºÑį":2243,"ĠÐ¸Ð½Ð´Ð¸":2244,"ĠÐ¶Ð¸Ð²ÐµÑĤ":2245,"ĠÑĢÐ°ÑģÑģ":2246,"Ð´ÐµÐ½Ð´Ñį":2247,"ĠÑģÐ¿ÑĢÑı":2248,"Ð·ÑĭÐ²Ð°Ð»Ð¸":2249,"hÑįÐ²ÑįÐºÓ£":2250,"ĠÑĤÐ°Ð¹Ð¼Ñĥ":2251,"ĠÐ²ÐµÐº":2252,"ĠÑģÐ´ÐµÐ»Ð°Ð»Ð¸":2253,"Ð¾ÑĤÑĤÑĥÐ´Ð°":2254,"ĠÐ´Ð¾Ð»Ð±Ð¾Ð»ÑĤÐ¾Ð½Ð¾":2255,"ĠÑħÑĥÑĤÑį":2256,"ÑģÑĤÐ¸Ð»Ð¸":2257,"ĠÑĥÐ¼ÑĥÐºÐ¾Ð½":2258,"ĠÐ¿Ð¾ÑģÐ»Ðµ":2259,"ÑĨÐ¸Ð°Ð»":2260,"Ð³Ð¾Ð²Ð¾ÑĢÐ¸ÑĤ":2261,"ĠÐ´Ð°Ð»ÑĮÑĪÐµ":2262,"ĠÐ¼Ð°Ð»ÐµÐ½ÑĮÐºÐ¸Ð¹":2263,"ĠÐºÐ¸ÑģÐ»Ð¾":2264,"ĠÐ±ÑĥÐ´ÑĥÑĩÐ¸":2265,"ĠÐ±Ð¸ÑĩÑįÑĤÑĭÐ½":2266,"ÑĩÅįÐ½":2267,"ĠÑįÐ²ÑįÐ´ÑĭÑĤ":2268,"ĠÐ¿Ð¾Ð¹Ð´Ñĥ":2269,"ĠÐ¿ÑĤÐ¸ÑĨÑĭ":2270,"ĠÐ¼ÑĥÐ¶ÑĩÐ¸Ð½":2271,"ĠÑĤÑįÐ¿ÐºÑįÐ»":2272,"ÑģÐ¸Ð»Ð¸Ð¹":2273,"ĠÐ½ÑıÓĪ":2274,"ĠÑģÑĤÑĢÐ°ÑĪ":2275,"ĠÑģÐ°Ð¼Ð¾Ð³Ð¾":2276,"ĠÐ½Ð°ÑĩÐ°Ð»Ð¸":2277,"Ð¿ÑĤÑĭÐ»Ñį":2278,"ÑĥÐ¼ÑĥÐºÐ¾":2279,"ĠÑĢÐ¾Ð´Ð¸ÑĤÐµÐ»Ð¸":2280,"ĠÐ²Ð´Ð²Ð¾ÐµÐ¼":2281,"ĠÐ°ÑıÐ¼Ð°Ð¼Ð°ÑĤ":2282,"ĠÑħÐ¾Ð´Ð¸ÑĤÑĮ":2283,"ĠÐ¾Ð·ÐµÑĢÐ°":2284,"ĠÐ³ÑįÑĢÐ±Ó£Ð½":2285,"ĠÒ£ÑįÐ½Ñį":2286,"ĠÐ°ÑĢÐ¼Ð¸Ð¸":2287,"ĠÐ¿Ð¾ÑģÐµÐ»ÐºÐµ":2288,"ĠÐ·Ð°ÐºÑĢÐ¸":2289,"ĠÑįÐ²ÐµÐ½ÐºÐ¸":2290,"ĠÐºÐ¾Ð»ÑħÐ¾Ð·":2291,"ĠÐ°Ð±Ð´ÑĥÐ½":2292,"ÐºÑĥÓĪÐ°ÐºÐ°ÑĢ":2293,"Ð¶ÐµÐ½ÑīÐ¸Ð½Ñĭ":2294,"ĠÐ¼ÐµÑģÑĤÐ¾":2295,"ĠÐ¶ÐµÐ»ÐµÐ·":2296,"ĠÑĤÐµÑĩÐµÐ½Ð¸Ñİ":2297,"ĠÑģÐ¿ÑĢÐ°ÑĪÐ¸":2298,"ÑģÑĤÐ²ÐµÐ½Ð½Ð¸":2299,"ĠÑĢ":2300,"ÑĤÓ£":2301,"Ð½ÐµÐ¼":2302,"Ð»Ð´Ð¾":2303,"Ð»Ð´Ð°Ð½":2304,"ÑįÐ²ÐºÓ£Ð»":2305,"ÑĢÐºÐ¾":2306,"ÑĢÐ²Ð¸":2307,"ÐºÑĢÐ°":2308,"ÐºÑģÐµ":2309,"ÐºÑģÑįÐ»":2310,"ÑģÐ¸Ð½Ñį":2311,"Ð²ÑģÐ¾":2312,"Ð²ÐºÐ¸Ð»":2313,"Ð¼Ð´Ð°":2314,"Ð¼Ð±Ð°":2315,"Ð¼Ð½Ð¾Ð³Ð¾":2316,"ÑıÐ»Ñį":2317,"ÑĩÐºÐµ":2318,"ÑĤÐ°Ñī":2319,"ĠÑģÑĬ":2320,"ĠÐ¾ÐºÐ¸Ð½":2321,"ĠÐ¾Ð´ÑıÐ½":2322,"Ð¿Ð»Ñĭ":2323,"ĠÑįÐ´Ð°":2324,"ĠÑįÑħÓ£":2325,"ĠÑįÑĤÐ¾Ð¼Ñĥ":2326,"ĠÐ´Ð½Ñı":2327,"ĠÐ¿ÐµÑĢ":2328,"ĠÐ¿ÑĢÐµ":2329,"Ð´ÐµÐ¿":2330,"Ð´ÐµÐ¼Ó£":2331,"Ð´ÐµÐ´ÑĥÑĪÐºÐ°":2332,"ÑĪÐ°Ð»":2333,"ÑĪÐµÐ¹":2334,"Ð´Ð°Ð»":2335,"Ð´Ð°Ð»Ð¸":2336,"ÑĤÑĭÐ³Ñį":2337,"ÑĢÑįÐºÐ¸Ð½":2338,"ÐºÐ¾Ð½ÐµÑĩÐ½Ð¾":2339,"ĠÐ¸ÑĢÐ³Ó£":2340,"ÑĥÐ½Ð´Ó¯":2341,"ÑĢÐ¾ÑģÐ¸Ð»":2342,"ĠÐºÑĢÐ¸Ðº":2343,"ĠÐ°Ð³Ð°":2344,"ĠÐ°ÑĩÐ¸ÑĢ":2345,"ĠÑĥÑĤ":2346,"ĠÑĥÑĢÓ£":2347,"ĠÑĥÐ¿Ð°Ð»":2348,"ĠÑĥÑĩÐ¸ÑĤÑĮÑģÑı":2349,"ÑİÑģÑĮ":2350,"ÐµÐ½Ð¾":2351,"ÑĢÐ¸Ð»ÑĮ":2352,"ĠhÐ¸Ð½":2353,"ĠÐ¿Ð¾Ð´Ñĥ":2354,"ĠÐ¿Ð¾ÑĢÑĥÑģÑģÐºÐ¸":2355,"Ð³Ð¾Ð¼":2356,"ĠÐ½Ð°Ð·Ð°Ð´":2357,"Ð½Ð°Ð´Ð¾":2358,"Ð¼Ð°Ð»Ð°":2359,"Ð½Ð¾Ð²Ð°":2360,"ÑĩÐ°ÑĤÑĮ":2361,"Ð¼Ð¾Ð¸":2362,"Ð´ÑıÐ²":2363,"Ð´ÑıÑģÐ°":2364,"ĠÐ½ÐµÐ²Ðµ":2365,"ĠÐ½ÐµÐ»ÑĮ":2366,"ĠÐ±ÑĭÑģÑĤÑĢÐ¾":2367,"Ð¼ÑįÐ¼Ñį":2368,"Ð¾Ð»ÐµÐ½Ð¸":2369,"ÑģÑıÑĩÐ°":2370,"ÑĢÐµÐ¹":2371,"Ð´ÑįÐ³Ð¸":2372,"Ò£Ð½ÑįÐ¼":2373,"ÑĤÐ¸Ð²":2374,"ÐµÐ»Ðµ":2375,"ĠÐ³Ð¾Ð´Ð°":2376,"ĠÑĤÑĥÑĤÐ¾Ð½ÑĩÐ°":2377,"ĠÐ²Ð¾Ð´Ðµ":2378,"ĠhÑĥÐºÑĤÑĭ":2379,"ĠhÑĥÑĤÑįÐ»Ð¸Ð½":2380,"ĠÑģÐ°Ð´Ð¸":2381,"ĠÑĤÐ°ÑĢÐ³Ð°":2382,"ĠÐ·Ð°Ð¿Ð¸":2383,"ĠÐ·Ð°Ð±Ð¾Ð»":2384,"ĠÑıÐºÑĥÑĤ":2385,"ĠÐ½Ð¸Ð¼Ð¸":2386,"ĠÑħÐ¾Ð¼Ð¾":2387,"ÑĢÑĭÐ·":2388,"ĠÐ´ÑİÐ»Ð¾":2389,"ĠÐ´ÑİÐ²Ñĥ":2390,"Ð·Ð°Ð»Ð¸":2391,"Ð±ÑĥÐ»ÑĤÐ°":2392,"Ð±ÑĥÐ´ÐµÑĪÑĮ":2393,"Ð»ÐµÑĤÑĭ":2394,"Ð»ÑĥÐ²ÑĥÐ½":2395,"Ð»ÑĥÐ³Ð´Ñĭ":2396,"Ð³ÑĥÑģÑĳ":2397,"Ð½ÑĭÐ¼":2398,"Ð½ÑĭÑħ":2399,"ĠÐ²ÑĭÐ´Ðµ":2400,"ĠÐ²ÑĭÑĪÐ»Ð°":2401,"ĠÑĪÑĥÑĢÑĥ":2402,"Ð¸Ð»Ð¸Ð½":2403,"ÑįÐ½Ð¸Ð½":2404,"ĠÐ¿ÑĢÐ¾ÑģÑĤÐ¾":2405,"ĠÐ´ÐµÐ»Ð°Ñı":2406,"ĠÐ´ÐµÐ»Ð°Ð»Ð°":2407,"ĠÐ±Ð¾ÑĢÓ£":2408,"ĠhÑĥÑĢÑĥÐ¿":2409,"ĠhÑĥÑĢÑĥÑĢÑį":2410,"Ð¸ÑĢÐ¸Ð½":2411,"ĠÐ·Ð½Ð°Ð»Ð°":2412,"ÑĪÐµÐ³Ð¾":2413,"ĠÑĢÐ¾Ð´":2414,"ĠÐ¶Ð¸Ð»Ð°":2415,"ĠÐ¶Ð¸Ð²ÐµÐ¼":2416,"hÑĥÑĤÑįÐ»":2417,"ÑĤÐ°ÐºÑĤÐ¾":2418,"Ò£ÐºÓ£Ð²ÑĥÐ½":2419,"ĠÐ½Ð¾ÑĩÑĮ":2420,"ĠÑģÐ²Ð¾ÐµÐ³Ð¾":2421,"hÐ°Ð²Ð°Ð»":2422,"Ð²ÑĭÐ¹":2423,"ĠÑĩÐµÐ³Ð¾":2424,"ĠÑĢÑĭÐ±":2425,"ĠÑģÐ¸Ð¿ÐºÐ°":2426,"Ð½ÑĥÐ½Ð¼Ð¸":2427,"ĠÑĥÐ¼Ð½Ð¾":2428,"ĠÐ¾Ð»ÐµÐ½ÑıÐ¼":2429,"ĠÐ¾Ð±Ð¼Ð°":2430,"ĠÓĪÑįÐ»Ð¸":2431,"ĠÐºÑįÐ³Ñį":2432,"ÑĢÐ¸Ð»Ð²Ñį":2433,"ĠÑĤÐ°Ð¹Ð³Ð°Ð´Ó¯":2434,"ĠÐ²ÐµÑĩÐµÑĢÐ¾Ð¼":2435,"ÐµÐ½Ð¸Ðµ":2436,"ĠÑģÐ¾Ð±Ð°ÐºÑĥ":2437,"ĠÐ´ÑĭÐ¼Ð¾":2438,"ÓĪÐ¸Ð½Ð°ÐºÐ¸Ð½":2439,"ÑģÐºÐ¾Ðµ":2440,"ĠÑģÐºÐ°Ð·Ð°Ð»Ð¸":2441,"ÑĢÑģÐ¸ÐºÐ°":2442,"ÑīÐ¸ÑĤ":2443,"Ð°Ð¼Ð°ÑģÐºÓ£":2444,"ĠÐ²Ð¾Ð¹Ð½Ñĥ":2445,"Ð²Ð¾Ð¹Ð½Ð°":2446,"ĠÐ´ÐµÑĢÐµÐ²Ð¾":2447,"ĠÐ´ÑĥÐ½Ð´ÑįÐ²Ñį":2448,"ĠÐ¿ÑĤÐ¸ÑĨ":2449,"ĠÐ¿ÑĤÐ¸ÑĨÐ°":2450,"Ð¿ÑįÐºÑĤÑĭÑĢÑį":2451,"ĠÐ·Ð°ÐºÐ¾Ð½ÑĩÐ¸Ð»":2452,"ĠÐ¿Ð¾Ð±ÐµÐ¶Ð°Ð»Ð°":2453,"ĠÐ³ÑĢÑĥÐ·":2454,"ĠhÐ°Ð²Ð°Ð»Ð´ÑıÑģÐ°":2455,"ĠÐ¸ÑĢÑįÐºÑģÑį":2456,"ĠÐ²ÑĭÑģÑĤÑĢÐµÐ»Ð¸Ð»":2457,"ĠÐ´ÑıÐ¿ÐºÑĥÐ½":2458,"ĠÑģÐµÐ´ÑĮ":2459,"Ð´Ð½Ð¸Ð¹":2460,"ĠÐ²Ð¼ÐµÑģÑĤÐµ":2461,"ĠÑģÐ¾Ð²ÑħÐ¾Ð·":2462,"ĠÑģÐµÑĤÐ¸":2463,"ÑĤÐ¸ÑħÐ¾Ð½ÑĮÐºÑĥ":2464,"hÓ¯":2465,"ĠÑĤÑĭÑĢ":2466,"ĠÑĢÑı":2467,"Ð°Ñı":2468,"ÑĤÐµÐ¼":2469,"ÑĤÑĤÑı":2470,"Ð½Ð´Ð¾":2471,"Ð»Ð²Ð¾":2472,"ÐµÐ²Ð¾":2473,"ÐµÑīÐµ":2474,"ÑįÑĤ":2475,"ÑįÐºÑĥÐ½":2476,"ÑĢÑıÑĤ":2477,"ÑĥÑĤ":2478,"ÐºÑģÐ¸":2479,"ÑģÐ»Ð¸":2480,"ÑģÑĩÑį":2481,"ÑģÐºÐµ":2482,"Ð²ÑĤÐ¾":2483,"Ð²Ð´Ð°":2484,"Ð²ÐµÐ»":2485,"Ð²ÑĤÑĢÐ°":2486,"ÑıÐ»Ð¸":2487,"ÑĩÐµÑĢ":2488,"ÑĩÄģ":2489,"ĠÑģÐµÑĢÐµ":2490,"ĠÑģÐ½Ð¾Ð²Ð°":2491,"ĠÐ¾ÑĩÐ°":2492,"ĠÐ¾ÑģÑĤÑĢÐ¾":2493,"Ð¿ÐµÑĤ":2494,"ĠÑįÑı":2495,"ĠÐ²ÑģÐ¿Ð¾":2496,"ĠÐ²ÑģÑĤÑĢÐµÑĤ":2497,"ĠÐ²Ð²ÐµÑĢÑħ":2498,"ĠÐ¿ÐµÑģ":2499,"ĠÐ¿Ð»Ñĭ":2500,"ÓĪÐ½Ð¾":2501,"Ð´ÐµÓĪÑį":2502,"ÑĪÐºÐ¾Ð»Ð°":2503,"Ð´Ð°Ð»Ðµ":2504,"ÑĢÐ°Ðº":2505,"ÑĤÑĭÐºÐ¸Ð½":2506,"Ð·Ð¾Ð²":2507,"ĠÑĤÐ°ÑĤÐ¸":2508,"ĠÐºÑĢÐ°Ñģ":2509,"ĠÐ°Ðº":2510,"ĠÐ°Ð¼Ð¸":2511,"ĠÐ°ÓĪÐ°":2512,"ĠÐ°Ð»Ð±Ð°":2513,"ĠÑĥÑģÐ¸":2514,"ĠÑĥÓĪÑĤÑĥÐ²ÑĥÐ½":2515,"ĠÐ³Äĵ":2516,"ÑİÑī":2517,"ÐµÐ½Ðµ":2518,"ĠhÐ°Ð»":2519,"ĠÐ¿Ð¾Ð´Ð°":2520,"ĠÐ¿Ð¾ÑģÐµ":2521,"ĠÐ¿Ð¾ÑħÐ¾ÑĢÐ¾":2522,"ĠÐ¿Ð¾ÐµÑħÐ°Ð»Ð°":2523,"ĠÐ¿Ð¾ÐµÑģÑĤÑĮ":2524,"ĠÐ¿Ð¾ÑĤÐ¸ÑħÐ¾Ð½ÑĮÐºÑĥ":2525,"Ð¶ÐµÐ¼":2526,"ĠÐ±Ð¸Ð´Ð¾":2527,"ĠÐ±Ð¸ÑĪÐ¸":2528,"ĠÐ±Ð¸hÑį":2529,"ĠÐ±Ð¸Ò£Ñį":2530,"ĠÐ±Ð¸ÓĪÐºÓ£Ð½":2531,"ĠÐ½Ð°Ñĥ":2532,"ĠÐ½Ð°ÑħÐ¾Ð´ÑıÑĤ":2533,"ĠÑĤÐ²Ð¾":2534,"ÐºÐ¸Ð²":2535,"ÑĢÑĥÑħÐ°":2536,"Ð½Ð°Ð¼":2537,"Ð½Ð°Ð»Ð¸":2538,"Ð»Ð¾Ð½":2539,"Ð´ÑıÐ´Ñı":2540,"Ð´ÑıÐ¿ÐºÓ£Ð»":2541,"Ð½Ð¸Ð¼Ð°":2542,"ÑħÐ¾Ð´Ð¸Ð»":2543,"ĠÐ·Ð°Ð»":2544,"ĠÐµÑħÐ°":2545,"Ð½ÑĥÑĤ":2546,"Ð½ÑĥÒ£Ð°":2547,"ĠÑĤÐ¾Ð¹":2548,"ĠÑĩÐµÐ¼":2549,"ÐºÑįÑĤÑį":2550,"Ð´ÑĥÐºÐ¿Ð¸":2551,"ÑģÐ°Ð¶Ð¸":2552,"ÑĤÐ¸ÐºÐ¸":2553,"ĠÐ³Ð¾Ð½Ñı":2554,"ĠÑģÑĤÐ°Ð½ÐµÑĤ":2555,"ĠÑĤÑĥÐº":2556,"ĠÑĤÑĥÐ»Ñį":2557,"ĠÑĢÐ°Ð±Ð¾":2558,"ÑĤÑĥÑĤ":2559,"ĠÐ²Ð¾Ð´Ñĥ":2560,"ĠÐ²Ð¾ÑģÐµÐ¼ÑĮ":2561,"Ð²ÑĥÐ½Ð°":2562,"ÑģÐ¸Ð²ÐºÓ£":2563,"ĠÐ´ÐµÐ´Ñĥ":2564,"ĠhÑĥÐºÑĥ":2565,"ĠhÑĥÓĪÑĤÑĥ":2566,"ĠÐ±ÑĥÐ´ÐµÐ¼":2567,"ĠÑģÐ°ÑĢÑģÐ¸ÐºÐ°":2568,"ĠÐ¼Ð¾Ð³":2569,"ĠÐºÐ°ÐºÐ¾Ð¹":2570,"ĠÐºÐ°Ð¶Ð´Ñĭ":2571,"ĠÐºÐ°Ð¿ÐºÐ°Ð½":2572,"ĠÐ·Ð°Ð±Ñĭ":2573,"Ð²ÐµÑģ":2574,"ĠÑģÐ¾ÑģÐµ":2575,"ĠÐ´Ð¾Ð¼":2576,"ĠÐ´Ð¾ÑĢÐ¾":2577,"ĠÑħÐ¾Ð´Ð¸ÑĤ":2578,"ÑģÑĤÐ°ÑĢÐ¸Ðº":2579,"ÑĢÑĭÐ¹":2580,"ÑĢÑĭÐ±Ñĥ":2581,"ĠÐ´ÑİÐºÑĤÑį":2582,"ĠÑįÐ¼ÑįÐ¿":2583,"Ð»ÐµÑĤÐ¾Ð¼":2584,"Ð½ÐµÐµ":2585,"ĠÑħÑĢÐ¸":2586,"ĠÑĪÐµÐ»":2587,"ĠÐ´Ð°Ð»Ð¸":2588,"ÓĪÐ¾ÑĤÐ¾":2589,"ĠÐ¼Ð°ÑĤÐµÑĢ":2590,"ĠÐ¼Ð°Ð³Ð°Ð·Ð¸Ð½":2591,"Ð²ÐµÑĢÑĤÐ¾":2592,"Ð²ÐµÑĢÑĮ":2593,"ĠÐºÐ°ÐºÑĤÐ¾":2594,"ĠÐ¿ÑĢÐ¾Ð²Ð¾Ð´":2595,"ĠÐ´ÐµÐ»Ð°ÐµÑĪÑĮ":2596,"ĠÑĢÐµÐºÐ°":2597,"Ð¿Ð°Ð»Ð°":2598,"ÑĤÑĭÑĢÐºÑį":2599,"ĠÐ·Ð½Ð°ÐµÑĤ":2600,"ÑĪÐµÐº":2601,"ÑĪÐ°Ð»Ð°":2602,"ĠÐ¸Ð½Ð´ÐµÑĢÑį":2603,"ĠÐ¸Ð½Ð´ÐµÑĢÑįÐ½":2604,"ÑģÐ¿Ñį":2605,"hÑĥÑĤÑįÐ»Ð¸Ð½":2606,"Ð»ÑıÐ»":2607,"Ð»ÑıÐ»Ð¸":2608,"ĠÐ»Ð¾ÑģÐµÐ½":2609,"ĠÐ½Ð¾Ð³Ð¸":2610,"ĠÑĢÐ°Ð±Ð¾ÑĤÐ°ÐµÑĤ":2611,"Ð²ÑĭÐ»Ð¸":2612,"ĠÑģÐ¸Ð´Ñı":2613,"ĠÑįÑĤÐ¸Ð¼":2614,"ĠÐ´ÑĢÑĥÐ·":2615,"Ò»Ð°":2616,"ĠÑĤÐµÐ¿":2617,"ĠÑĤÐµÐ±Ðµ":2618,"hÐ¸Ð½Ð¸":2619,"ĠÑģÐµÐ²ÐµÑĢ":2620,"hÑįÐ³Ð´Ñĭ":2621,"Ð¼Ð¸Ð½ÓĪÓ£":2622,"ĠÐ±ÐµÑĢÐµÑģÑĤÑĭ":2623,"ÓĪÐ¸Ð»Ñį":2624,"ĠÐ·ÐµÐ¼Ð»Ð¸":2625,"ĠÑĩÐµÐ»Ð¾Ð²ÐµÐºÐ°":2626,"ÓĪÐ¸Ð½Ð°ÐºÐ¸ÑĢ":2627,"ĠÐ±ÑĢÐ°Ð»Ð¸":2628,"ĠÐ¾ÑģÑĤÐ°Ð»ÑģÑı":2629,"ĠÐ¶ÐµÐ½ÑīÐ¸Ð½":2630,"Ð¿ÑĥÑģÑĤÑĮ":2631,"ĠÑĢÐ°ÑģÑģÐºÐ°Ð·Ñĭ":2632,"ĠÐ³Ð¾ÑĢÐ¾Ð´":2633,"ĠÓĪÑįÐ½ÑįÐ´Ðµ":2634,"Ð³Ð¾Ð²Ð¾ÑĢÐ¸":2635,"ÑĤÑıÐ±":2636,"ÐºÐ°Ð»Ð´Ñĥ":2637,"ĠÐ²Ð¾Ð¹Ð½Ñĭ":2638,"ĠÑĥÐ¼ÐµÑĢÐ»Ð¸":2639,"ĠÑģÑĤÑĢÐµÐ»":2640,"ĠÑįÐ²ÑįÐ½":2641,"ĠÐ¿Ð¾Ð¹Ð¼Ð°":2642,"ĠÑĥÐ»ÑĥÐ¼Ó£":2643,"ĠÑĩÐ¸Ð¿ÐºÐ°":2644,"ĠÐ´ÐµÐ²ÑĥÐ²ÐºÓ£":2645,"ÑĮÐµÐ²Ð¸Ñĩ":2646,"ĠhÐ¸ÓĪÐºÑį":2647,"ÑħÐ¾Ð´Ð¸Ð¼":2648,"ÑħÐ¾Ð´Ð¸ÑĤÑĮ":2649,"Ð´ÑĳÑĢÐ¾":2650,"ĠÐºÐ»Ð°ÑģÑģÐ¾Ð²":2651,"ĠÐ°ÑĢÐ³Ð¸ÑĪÐ¸ÑĤÑĮ":2652,"ĠÐ³ÑĢÐ¸Ð±":2653,"ĠÑģÐ»ÐµÐ´Ñĥ":2654,"ĠÐ¿Ð¾Ð±ÐµÐ¶Ð°Ð»":2655,"ĠÑĢÐ¾Ð´Ð¸Ð»Ð°ÑģÑĮ":2656,"ĠÐ²Ð´Ð¾Ð»ÑĮ":2657,"ĠÐ¿Ð»Ð¾ÑħÐ¾":2658,"ĠÐ¿Ð¾Ð¿Ð»Ñĭ":2659,"ĠÄĵÐºÑĥÑĢ":2660,"ĠÐ²ÐµÑģÐ½Ð¾Ð¹":2661,"ĠÐ¼Ð¾Ð»Ð¾Ð´Ñĭ":2662,"ĠÑįÑĢÑĥÐ¿ÑĩÑĥ":2663,"ĠÐ¸Ð½ÑĤÐµÑĢÐ½Ð°ÑĤÐµ":2664,"ĠÐ¿Ð°Ð»Ð°ÑĤÐºÐ°":2665,"ĠÐ¿Ð¾ÑĤÐ°Ð¿Ð¾":2666,"ĠÐ°Ð»ÐµÐºÑģÐ°":2667,"ĠÑıÐ³Ð¾Ð´Ñĭ":2668,"ĠÐ´ÑıÐ½ÑĤÐ°ÐºÓ£":2669,"ĠÑģÐ¾Ð»Ð´Ð°":2670,"Ð½Ð°ÑĩÐ°Ð»Ð°":2671,"ĠÐ¼ÐµÑģÑıÑĨ":2672,"ĠÑģÐµÐ´ÑĮÐ¼Ð¾Ð¼":2673,"ĠÑĢÑıÐ´Ð¾Ð¼":2674,"ĠÐ¿Ð¾ÑģÐµÐ»Ð¾Ðº":2675,"ĠÐºÐ°Ð¶Ð´ÑĭÐ¹":2676,"ĠÐ¼Ð°ÑĤÐµÑĢÑĮÑİ":2677,"ĠÐ¿ÑĢÐ¾Ð²Ð¾Ð´Ð½Ð¸Ðº":2678,"hÄĵ":2679,"Ð°hÓ£":2680,"ÑĤÑĤÐ¾":2681,"Ð¸ÑĢÑį":2682,"Ð¸Ð´Ó¯":2683,"Ð¸Ð»Ð°Ð½":2684,"Ð½ÐµÐ½":2685,"Ð½Ð¸Ð½Ð°":2686,"ÐµÐ´Ó¯":2687,"ÐµÐ²Ð¸Ñĩ":2688,"ÑįÑĤÐ°":2689,"ÑįÐ²ÐºÓ£":2690,"ÑįÐºÑģÐ¿ÐµÐ´Ð¸ÑĨÐ¸":2691,"ÑĢÑĮ":2692,"ÑĢÐ½Ð¸":2693,"ÑĢÐ¼Ð¸":2694,"ÑĥÐ±Ð¸":2695,"ÑĥÐ»Ñĥ":2696,"Ð´Ð½ÑĭÐµ":2697,"ÑģÐ»Ñĥ":2698,"Ð²Ð´":2699,"Ð²Ð½Ñĥ":2700,"Ð¼Ð¼":2701,"Ð¼ÐºÐ¸":2702,"Ð³ÑįÐ»":2703,"ÑĩÐºÑĥ":2704,"ÑĩÑĪÐµ":2705,"ÑĤÐ°Ð´Ñĥ":2706,"ÑĤÐ°ÑģÐºÐ¸":2707,"ÑĤÐ¾Ðº":2708,"ĠÐ±ÐµÐ·":2709,"ÑĮÐµÐ¼":2710,"ĠÑģÐ²ÐµÑĤ":2711,"ĠÐ¾Ð¼":2712,"ĠÐ¾ÑĢÐ°":2713,"Ð¿ÐºÐ¸":2714,"Ð»Ð¸Ð³Ñĥ":2715,"ĠÑįÐ»Ð¾":2716,"ĠÑįÓĪÐ½Ñį":2717,"ĠÑįÐ±Ñį":2718,"ĠÑįhÐ¸":2719,"ĠÑįÐ½ÑįÐ»":2720,"ĠÐ´Ó£":2721,"ĠÐ´Ð²ÐµÑĢÑĮ":2722,"ÑħÐµ":2723,"ĠÐ²ÑģÑİ":2724,"ĠÐ¿Ð¸":2725,"Ð¹Ñį":2726,"Ð´ÐµÑĩÐ¾":2727,"Ð´ÐµÐ»ÑĮ":2728,"Ð¸Ð½Ð³ÑĢÐ°":2729,"ÑĢÐ°Ð¼Ð¾":2730,"ÑĤÑĭÐµ":2731,"ÑĤÑĭÐ³Ð°":2732,"ĠÐ¸ÐºÐ¾":2733,"ĠÐ¸ÑĢÑĥ":2734,"ĠÐ¸Ð½Ð¸":2735,"ĠÐ¸ÑģÐµÑĤ":2736,"ÑĢÐ¾Ð´Ðµ":2737,"ĠÑĤÐ°ÑĢÐ¸Ð»":2738,"ĠÑĤÐ°ÐºÐ¸Ðµ":2739,"ĠÑĤÐ°ÐºÐ¾Ðµ":2740,"ĠÑĥÐ´Ð°":2741,"ĠÑĥÑĢÑį":2742,"ĠÑĥÑİ":2743,"ĠÑĥÐ¶":2744,"ĠÑĥÐ³Ñĥ":2745,"ĠÑĥÐ³Ó£":2746,"ĠÑĥÑĪÐ»Ð¸":2747,"ĠÑĥÑĢÐºÑį":2748,"ĠÐ³Ñį":2749,"ĠÐ³Ð°Ð»":2750,"ĠÐ³Ð»Ñĥ":2751,"ĠÐ³ÑĢÐ°Ð¼Ð¾":2752,"ÑĢÐ¸ÐºÑĤÐ°":2753,"ĠhÓ£":2754,"ĠhÐ¸Ð»":2755,"ĠhÐ¸Ð½Ñį":2756,"ÑĤÑĮÐ¼Ð¸":2757,"ĠÐ¿Ð¾ÑĤÐµÑĢ":2758,"ĠÐ¿Ð¾Ð»Ð¸Ð³Ñĥ":2759,"Ð³Ð¾Ð¹":2760,"ĠÐ±Ð¸Ð»Ð´ÑįÐ½":2761,"ĠÐ½Ð°Ð·ÑĭÐ²Ð°ÐµÑĤÑģÑı":2762,"ĠÐ½Ð°ÑģÐ°Ð¶Ð¸":2763,"ĠÑĤÓ£":2764,"ĠÑĤÓ¯":2765,"ĠÑĤÐ²Ð¾Ð¹":2766,"Ð½Ð°Ð¹":2767,"Ð»Ð¾Ð¹":2768,"Ð´ÑıÒ£Ð°":2769,"Ð½Ð¸Ð»Ð¸":2770,"Ð½Ð¸ÑĨÐ°":2771,"ÑħÐ¾Ð´Ð¸Ð»Ð¸":2772,"Ð¸Ð»Ñį":2773,"Ð¿Ð¾Ð¹":2774,"ĠÐ»ÑĮ":2775,"ĠÐ½ÐµÐ´Ð°Ð²Ð½Ð¾":2776,"Ð½ÑĥÐ¿":2777,"Ð½ÑĥÑĤÑĮ":2778,"ĠÑĤÐ¾Ð¼Ñĥ":2779,"ĠÑĩÐ¸ÑĢÐ¸Ð½":2780,"Ð¾Ð»Ð´Ð¾Ð»":2781,"ÑĢÐµÐ±ÐµÐ½":2782,"Ð³Ð°ÑĢÐ°":2783,"Ð³Ð°ÐµÑĤ":2784,"ÑģÐ°Ð½":2785,"ÑģÐ°Ð¼":2786,"ÑģÐ°Ð´Ð°":2787,"ÑĤÐ¸ÐºÓ£":2788,"ÑĨÐµÐ²":2789,"ĠÐ³Ð¾ÑĢÑĭ":2790,"ĠÑĤÑĥÑĢÑĭ":2791,"ĠÑĤÑĥÐºÑĤÑĭ":2792,"ĠÐ²Ð¾ÑģÑĮ":2793,"ĠÐºÐ¾ÑĤÐ¾":2794,"Ð´ÑĭÐ¼":2795,"ĠÐ´ÐµÑĤÑĮÐ¼Ð¸":2796,"Ð»ÑįÐ²":2797,"ĠÑģÐ°Ð½ÐºÐ¸":2798,"ÑĤÐµÑħ":2799,"ĠÐ¼Ð¾ÑģÐº":2800,"ĠÐ¿ÑĢÐ¸Ð²ÐµÐ·":2801,"ĠÐ¿ÑĢÐ¸Ð²ÐµÐ·Ð»Ð¸":2802,"ĠÐ¿ÑĢÐ¸ÐµÐ·Ð¶Ð°Ð»Ð¸":2803,"ĠÐ¾Ð»ÐµÐ½ÑĮ":2804,"ĠÐ½Ð¸Ð¶":2805,"Ð±Ð¾ÑĢ":2806,"ÑģÑĤÐ°Ð½ÑĮ":2807,"ÑģÑĤÐ°ÑĢÑĥÑħÐ°":2808,"ÑģÑĤÑıÐ½":2809,"ĠÑĩÑĤÐ¾Ð½Ð¸Ð±ÑĥÐ´ÑĮ":2810,"Ð·Ð°ÑĤÑĮ":2811,"Ð»ÑĮÐ½Ð¸Ðº":2812,"ÐºÑĥÐ½Ñį":2813,"ĠÐ´ÑıÐ½":2814,"ĠhÐ°Ð³Ð´Ñĭ":2815,"ÓĪÐºÓ£Ð²":2816,"ĠÐ±ÑįÑĳ":2817,"ÑģÐºÐ°Ñı":2818,"ĠÐ´Ð°Ð³Ð°":2819,"ĠÐ´Ð°Ð¶Ðµ":2820,"ĠÐ¼Ð°Ð¼Ð°":2821,"ĠÐ¼Ð°ÑĤÐµÑĢÐ¸":2822,"ĠÑĤÑįÐ²":2823,"ĠÐ´ÐµÐ»Ð°Ñİ":2824,"ÑĩÐµÐº":2825,"ÑĩÐµÑĢÐ¸":2826,"Ð²ÑģÐµÐ³Ð´Ð°":2827,"ÑĪÐ°Ð»Ð¸":2828,"Ð½ÑıÐ¼Ð°":2829,"ĠÑĢÐ¾Ð³Ð°":2830,"ĠÑĢÐ¾Ð´Ð¸ÑĤ":2831,"ĠhÐ¾ÓĪÐ¾":2832,"ĠÐ±Ð¸ÑĩÐ¾Ð½":2833,"Ð¶Ð°ÑĤÑĮ":2834,"hÑĥÐ²ÑĥÐ»":2835,"ĠÑĩÑĥÐ»ÑĥÐ³Ð´Ñĭ":2836,"Ò£ÐºÓ£ÑĤÐ¸Ð½":2837,"Ð´Ð°Ð½Ð´Ð°":2838,"ĠÐ±Ð¾Ð»ÑĮÑĪÐ¸Ðµ":2839,"ĠÑģÐ²Ð¾Ð¹":2840,"ĠÐ³Ð°Ð½Ð°Ð»":2841,"ĠÐ»ÐµÐ¶Ð°":2842,"ĠÐ¶ÐµÐ½Ð¸":2843,"ĠÑģÐ¸Ð´ÐµÑĤÑĮ":2844,"ĠÐ»Ð¸ÑģÑĤÐ²ÐµÐ½Ð½Ð¸":2845,"ĠÐ½ÑĥÓĪÐ°ÑĢÐ´Ó¯ÑĤÑĭÐ½":2846,"ĠÐ´ÑĥÐºÑĥ":2847,"ĠÐ´ÑĥÐ»Ð¸Ð½":2848,"ÑĢÓ£Ð»":2849,"ĠÑĥÐ¼Ó¯":2850,"ĠÐ»ÑİÐ´ÑıÐ¼":2851,"ĠÑĥÐ»Ð»Ñį":2852,"ÓĪÐ¸ÑĤÑĭÐ½":2853,"ÄĵÐºÑĥÐ½Ð´Ð°":2854,"ĠÑĢÑĥÑģÑģÐºÐ¸":2855,"ĠÐ²Ð¸Ð´ÐµÐ»":2856,"ĠÐ±ÐµÑĢÐµÐ³":2857,"ĠÑģÐ´ÐµÐ»Ð°Ð»Ð°":2858,"ĠÑģÐ´ÐµÐ»Ð°Ñİ":2859,"ĠÐ´Ð¾Ð»Ð±Ð¾":2860,"ÑīÐ¸Ðµ":2861,"ĠÐ¼Ð¸Ð½Ð´Ó¯":2862,"ĠÑĢÑĭÐ±Ð°ÑĩÐ¸Ð»":2863,"ĠÑĢÑĭÐ±Ð°ÑĩÐ¸Ð»Ð¸":2864,"Ð±ÑıÑĤÐ¸":2865,"ĠÐºÐ¸Ð»Ð¾Ð¼":2866,"ÑħÐ¾ÑĢÐ¾ÑĪÐ°Ñı":2867,"ĠÐ½Ð¸ÐºÑįÑĢÑįÐ½":2868,"ĠhÑįÐ³Ð´ÑĭÐºÐ¾":2869,"ÑĬÑı":2870,"ĠÑįÑĩÑįÐ²":2871,"ĠÑįÐ²ÑįÐ´Ñĭ":2872,"ĠÐ¼ÑıÑģÐ°":2873,"ĠÐ³Ð¾Ð²Ð¾ÑĢÐ¸Ð»Ð¸":2874,"ĠÐ³Ð¾Ð²Ð¾ÑĢÐ¸Ð»Ð°":2875,"ĠÐ±Ð°Ð±ÑĥÑĪÐºÐ¸":2876,"ĠÑģÑĤÐ°ÑĢÑĥÑħÐ¾Ð¹":2877,"ĠÑħÑįÐ³Ð´Ñĭ":2878,"ĠÑģÐ¸Ð»ÑĮÐ½ÑĭÐ¹":2879,"ĠÐ´Ð¾Ð±ÑĭÐ²Ð°Ð»":2880,"ÑĤÑĥÐ³Ð´Ð¾":2881,"ĠÐ±Ð°ÐºÐ°ÑĢÐ°Ð½":2882,"ĠÑģÑĤÑĢÐ¾":2883,"ĠÑģÐºÐ¾ÑĢÐ¾":2884,"ĠÑĥÐ±Ð¸Ð»Ð¸":2885,"ĠÐ±ÑįÐ¹ÓĪÐ¾":2886,"ĠÑįhÓ£ÐºÐ¾":2887,"ĠÐ¿ÑĢÐ¸Ð½Ð¾":2888,"ÑĢÐ³ÑįÐºÑģÑįÐ»":2889,"ĠÐ´ÑĳÑĢÐ¾":2890,"ĠÐ¿ÐµÑĪÐºÐ¾Ð¼":2891,"ĠÑĤÐ°ÑĢÐ¸ÓĪ":2892,"ĠÑĥÐ±ÐµÐ¶Ð°Ð»":2893,"ĠÐ½Ð°ÑĩÐ¸Ð½Ð°ÑİÑĤ":2894,"ĠÐ²ÑĭÑģÑĤÑĢÐµÐ»Ð¸":2895,"ĠÑĤÑĢÐ¾ÑĦ":2896,"ĠÑĪÐ¸ÑĪÐºÐ¸":2897,"ĠÐ²ÐµÐ·Ð´Ðµ":2898,"ĠÐ¾Ð·ÐµÑĢÐ¾":2899,"ĠhÄĵÓĪÐ°Ð½":2900,"ĠhÑĥÑİÐºÑĥ":2901,"ĠÑįÐ½ÑĤÑĭÐ»":2902,"ĠÐ¿Ð°Ð»Ð°ÑĤ":2903,"ĠÑĢÑĥÐ¶ÑĮÐµ":2904,"ĠÑģÐºÐ°Ð·Ð°ÑĤÑĮÑĤÐ¾":2905,"Ð³ÑĢÑĥÐ·":2906,"ĠÑĨÐµÐ»Ñĭ":2907,"ĠÐ²Ð¾ÑģÐ¿Ð¸ÑĤÑĭ":2908,"ĠÑģÐ¾Ð±Ð¾Ð»Ñı":2909,"ĠÐ±Ð¾Ð³Ð°ÑĤÑĭÐ¹":2910,"ĠÑįÐ²Ð°Ð´Ð°":2911,"ĠÑĤÑĢÐµÑīÐ¸ÑĤ":2912,"Ð¾Ð´Ð½Ð°":2913,"ÑĤÐµÐ½Ñį":2914,"ĠÑģÐ½ÐµÐ³":2915,"ĠÐ»ÐµÐ½Ð¸Ð½Ð³ÑĢÐ°":2916,"ĠÐ±ÑĢÐ°ÑĤÑĮÑı":2917,"ĠÐ±Ð¸Ð½ÑįÐ»":2918,"ĠÑĥÐ±Ð¸Ð»":2919,"ĠÐ²Ð¿ÐµÑĢÐµÐ´":2920,"ÑĨÐ¸Ð°Ð»ÑĮÐ½Ð¾":2921,"ĠÐºÐ¸ÑģÐ»Ð¾ÐºÐ°Ð½":2922,"ĠÐ½ÐµÐ»ÑĮÐ·Ñı":2923,"ĠÑĤÑĭÑĢÐ³Ð°Ð½Ó£":2924,"ĠÐ½Ð°ÑħÐ¾Ð´ÑıÑĤÑģÑı":2925,"ĠhÐ¸ÓĪÐºÑįÑĢÓ£":2926,"ĠÐ¿Ð¾ÑĤÐµÑĢÑı":2927,"ĠÐºÐ¸Ð»Ð¾Ð¼ÐµÑĤ":2928,"Ã¡":2929,"ĠÓĪÐ°":2930,"ĠÒ£Ð¸Ð½Ð°ÐºÐ¸Ð½":2931,"Ð°ÑĢÐ°":2932,"Ð°hÐ°Ð»":2933,"ÑĤÐº":2934,"ÑĤÑĤÐ°":2935,"ÑĤÑĢÐ¾":2936,"ÑĤÐ½Ñį":2937,"Ð½Ð´ÑĥÐ»Ð°":2938,"Ð»Ð´ÑĥÐ»Ó£":2939,"ÑįÐµ":2940,"ÑįÑı":2941,"ÑįÐ¿ÐµÑĤ":2942,"ÑĢÐ·":2943,"ÑĢÑĥÐ½":2944,"ÑĢÐ´Ð¸":2945,"ÑĢÐ²ÑįÑĢ":2946,"ÑĢÐºÑįÐ»":2947,"ÐºÑĤÑĥ":2948,"ÐºÅį":2949,"ÑģÐ²Ð¾":2950,"ÑģÑĥÑĢÑĥ":2951,"ÑģÐ´ÐµÐ»Ð°":2952,"Ð²Ð´Ð¾":2953,"Ð²Ð·Ñı":2954,"Ð²ÑģÑİ":2955,"Ð¼ÐµÐ½Ñı":2956,"Ð¼ÐµÐ´Ð²Ðµ":2957,"ÑĭÑħ":2958,"ÑıÑĤÐ°":2959,"Ð³ÑĢÐµ":2960,"Ð³Ð´Ñį":2961,"Ð³Äĵ":2962,"Ð³Ð½Ð°Ð»":2963,"ÑĤÐ°ÑĤÑĮ":2964,"ĠÐ±ÑĢÐ¾":2965,"ĠÑģÐ»Ð¾":2966,"ĠÑģÐµÑĢ":2967,"ĠÑģÐ¿Ð¸":2968,"ĠÑģÐ¿Ð°ÑĤÑĮ":2969,"ĠÐ¾ÑĤÐ¾":2970,"ĠÐ¾Ð»Ð¾":2971,"ĠÐ¾Ð±Ð¾":2972,"ĠÐ¾Ð³Ð¾Ð²Ð¾":2973,"Ð¿ÑįÐ»":2974,"Ð¿ÑĢÐµ":2975,"Ð¿ÑĤÐ¸":2976,"Ð¿ÑįÑĢ":2977,"Ð¿ÐµÐ½ÑģÐ¸":2978,"Ð»Ð¸Ðº":2979,"Ð»Ð¸ÑģÐ¸":2980,"Ð±ÐºÐ°":2981,"Ð±ÐµÑĢ":2982,"Ð±ÑįÑĢ":2983,"ĠÑįÐ»":2984,"ĠÑįÐ´Ñį":2985,"ĠÑįÐ¼Ñĥ":2986,"ĠÑįÑģÑįÐ»":2987,"ĠÐ´ÐµÐ¼":2988,"ĠÐ²Ð°Ð»":2989,"ĠÐ²ÐµÐ´":2990,"ĠÐ²ÑģÑĤÑĢÐµ":2991,"ĠÐ¿Ð»Ð°Ð½":2992,"Ð´ÐµÓĪÐ°":2993,"ÐºÐ°ÐºÐ°":2994,"ÐºÐ°Ð´Ó¯":2995,"ÑĪÐ¸Ð½":2996,"ÑĪÐºÐ¾Ð¹":2997,"Ð´Ð°Ð¼":2998,"Ð´Ð°Ñı":2999,"Ð´Ð°Ð»Ð°":3000,"Ð´Ð°ÑĤÑĮ":3001,"ÑĢÐ°Ð´Ð°":3002,"ÑĤÑĭÑĢÑį":3003,"ÐºÐ¾ÑĩÐµÐ²Ð°Ð»Ð¸":3004,"Ð·Ð¾":3005,"Ð·ÐºÐ¾":3006,"Ð·ÐµÐ¼":3007,"ĠÐ¸ÑĢÐ¸":3008,"ĠÐ¸Ñĳ":3009,"ĠÐ¸ÑģÐºÐ°":3010,"ĠÐ¸Ð¼Ñı":3011,"ĠÐ¸Ð´ÑĥÑĤ":3012,"ĠÐ¼Ð¾Ð»":3013,"ÑĥÐ½Ð¼Ð¸":3014,"ÑĢÐ¾Ð·":3015,"ÑĢÐ¾Ð²ÑĭÐµ":3016,"ĠÑĤÐ°Ð½":3017,"ĠÑĤÐ°Ð»Ñĥ":3018,"ĠÑĤÐ°ÑĢÐ¸ÑĤ":3019,"ĠÑĤÐ°ÐºÐ°Ñı":3020,"ĠÐºÑįÑĢ":3021,"ĠÐ°Ð¹":3022,"ĠÐ°ÐºÐ¸Ð½":3023,"ĠÑĥÐ³":3024,"ĠÑĥÐ²ÐµÐ·":3025,"ĠÑĥÑģÐ¸ÑĤ":3026,"ĠÑĥÑĩÐ¸Ð»ÑģÑı":3027,"ĠÐ³Ðµ":3028,"ĠhÑĥÐ½":3029,"ĠÐ¿Ð¾Ð²Ðµ":3030,"ĠÐ¿Ð¾Ð¿Ð°Ð»":3031,"Ð¶Ð´Ñĥ":3032,"ĠÐ±Ð¸ÑĢÑįÐ½":3033,"ĠÐ±Ð¸Ð²ÐºÓ£Ð»":3034,"ĠÐ±Ð¸Ð´ÐµÑĢÑįÐ½":3035,"ĠÐ½Ð°Ð´Ðµ":3036,"ĠÐ½Ð°Ð¼Ð°":3037,"ĠÐ½Ð°Ð´Ð°Ð½":3038,"ĠÐ½Ð°Ð»Ð¸Ð¼":3039,"ÐºÐ¸ÑĤÑĭÐ½":3040,"Ð½Ð°ÑĢÐ¾":3041,"Ð»Ð¾Ð´":3042,"Ð½Ð¾Ñı":3043,"Ð½Ð¾Ð¶":3044,"Ð½Ð¾Ð³Ð¸":3045,"Ð´Ð¸Ð¼":3046,"Ð´Ð¸Ð»Ð°":3047,"ÑĩÐ°ÑİÑĤ":3048,"Ð¼Ð¾Ñı":3049,"Ð¼Ð¾Ð¼Ð¾":3050,"Ð¼Ð¾ÐºÐ¸Ð»":3051,"Ð¼Ð¾Ð¶ÐµÑĤ":3052,"Ð½Ð¸ÐºÑĥ":3053,"Ð½Ð¸ÐºÐ¾Ð¼":3054,"ĠÐ·Ð²ÐµÑĢ":3055,"Ð°Ð»Ð±Ð°":3056,"Ð¿Ð¾Ð»Ð¾":3057,"Ð¿Ð¾ÑĪÐµÐ»":3058,"Ð¿Ð¾ÐºÐ¾Ð¹":3059,"Ð¿Ð¾ÑįÐ²ÐµÐ½ÐºÐ¸Ð¹ÑģÐºÐ¸":3060,"Ð¿Ð¾ÑģÐ»Ðµ":3061,"ĠÐ»Ñĭ":3062,"ĠÐµÐ´Ñĥ":3063,"Ð¼Ð¸Ðº":3064,"Ð¾Ð»Ð´Ð¾":3065,"Ð´ÑįÑĢÑį":3066,"Ð´ÑįÐ³Ð¸Ð»":3067,"ÑģÐ°Ð»Ð¸":3068,"ÑģÐ°Ð´Ð¸":3069,"ÑģÐ°Ð¼Ð¸":3070,"ÑĩÐ¸Ð¼":3071,"ÑĩÐ¸Ð²Ð¾":3072,"ĠÑĤÑĥÓĪÐ°":3073,"ÑĤÑĥÐ³Ð¸":3074,"ĠÐ²Ð¾Ð»Ð¾":3075,"ĠÐ´ÐµÐ»Ð¸":3076,"ÑģÐ¾ÑĤ":3077,"Ð²Ð¸ÑĤ":3078,"ĠÐºÐ°Ð¼Ñĭ":3079,"ĠÐºÐ°ÐºÐ°Ñı":3080,"ĠÐºÐ°ÐºÐ¸Ðµ":3081,"ĠÐºÐ°ÐºÐ¾Ðµ":3082,"ĠÐ·Ð°Ð±ÑĢÐ°":3083,"ĠÐ·Ð°Ð²ÑĭÐ»Ð¸":3084,"ĠÑıÑĤÐ¾":3085,"Ð¿Ð¾ÑĤÐ¾Ð¼Ñĥ":3086,"ĠÐ¿ÑĢÐ¸Ð»Ð¸":3087,"ĠÐ¿ÑĢÐ¸ÐµÑħÐ°Ð»Ð°":3088,"ĠÐ¿ÑĢÐ¸Ð²Ð¾Ð·Ð¸Ð»Ð¸":3089,"ĠÐ¾Ð»ÑĢÐ¾":3090,"ĠÐ¾Ð»Ð³Ó£":3091,"ĠÐ½Ð¸ÐºÑĥÐ´Ð°":3092,"Ð±Ð¸Ð»Ð¸":3093,"ĠÐ´Ð¾ÑĩÑĮ":3094,"Ð±Ð¾Ðº":3095,"ÑģÑĤÐ°ÑĢ":3096,"ÑģÑĤÐ¸Ð»":3097,"ĠÑĩÑĤÐ¾Ð±":3098,"ĠÑįÐ¼ÑįÐ²":3099,"ĠÑįÐ¼ÑįÐ¼":3100,"Ð·Ð°Ð´Ð¸":3101,"ÄĵÐ´Ð°":3102,"ĠÐ¾ÑĤÐ¿ÑĢÐ°Ð²":3103,"ĠÐ¾ÑĤÐ¿ÑĢÐ°":3104,"ĠÐ¾ÑĤÐ´ÐµÐ»ÑĮ":3105,"Ð»ÑĮÑĪÐµ":3106,"ÑĤÐ°ÑĢÐºÑį":3107,"ĠÑħÐ¸":3108,"Ð»ÑĥÐº":3109,"ĠÐ²ÑĭÑĪÐµÐ»":3110,"ĠÑĪÐµÑģÑĤÑĮ":3111,"ĠhÐ°ÓĪÓ¯ÐºÑĤÐ°":3112,"ÑĢÐ¸ÑĤÐ¿Ð¸":3113,"ĠÐ´Ð°Ð²Ð°Ð»Ð¸":3114,"Ð¸Ð»Ð¸Ð¼":3115,"ĠÑĤÐ°ÐºÑĤÐ¾":3116,"ĠhÑįÑĢÐ³Ó¯":3117,"ĠÑĤÑįÑĢ":3118,"Ð²ÐµÑĢÑħÑĥ":3119,"ÐºÐ°Ð½ÑĩÐ¸":3120,"ĠÑģÐºÐ°Ð·":3121,"ĠhÑĥÑĢÑĥÑģÐ¾":3122,"Ð±ÐµÐ¶Ð°Ð»":3123,"ĠÐµÐ³Ð¾ÑĢ":3124,"ĠÐ·Ð½Ð°Ð»":3125,"ĠÐ²Ð°Ð¼":3126,"ĠÐ²Ð°Ð¶ÐµÐ½":3127,"ĠÐ²Ð°ÑģÐ¸Ð»Ð¸Ð¹":3128,"ÓĪÐ½ÑįÐºÑįÐ»":3129,"ÑĪÐµÐµ":3130,"ÑĢÑıÐ·":3131,"Ð½ÑıÐ»":3132,"Ð±ÑįÐµ":3133,"ĠÑĢÐ¾Ð¶":3134,"ĠÑħÐ¾ÑĢÐ¾ÑĪÐµÐµ":3135,"ĠÑĤÑĭÑģÑıÑĩÐ°":3136,"ĠÐ³ÑĥÐ»ÑĩÐ¾":3137,"ĠÐ»Ð¾Ð³Ó£":3138,"ĠÑĩÑĥÐ¼Ñĭ":3139,"ĠÑĩÑĥÐ¼Ð¾Ð²":3140,"ÑĩÑĥÐ¼":3141,"ÑĩÑĥÑģÑĮ":3142,"ĠÑģÐ²Ð¾Ð¸Ð¼":3143,"hÐ¸ÑģÑı":3144,"hÐ¸ÑģÑĳ":3145,"Ð²ÑĭÑħ":3146,"ÐºÓ¯ÐºÐ°":3147,"ĠÑģÐ¸Ð´ÑıÑĤ":3148,"ĠÐ»ÑĥÑĩÑĪÐµ":3149,"ÑģÐ¸Ð½Ð¸Ð¼":3150,"ÐºÑĤÑĭÑĢÐ°":3151,"ÐºÑĤÑĭÑĢÐ¾":3152,"ĠÐ´ÑĥÐºÑĤÑį":3153,"ĠÐ´ÑĥÐ´Ð¸Ð½":3154,"ĠÐ´ÐµÑĤÑģÑĤ":3155,"ĠÐ´ÐµÑĤÑıÐ¼":3156,"ĠÐ°Ð¼Ð°ÐºÐ°":3157,"ÑĩÑĤÐ¾ÑĤÐ¾":3158,"ĠÐ»ÑİÐ»ÑĮ":3159,"ĠÑĥÐ»Ð´Ó£":3160,"ĠÐ¾Ð±ÑĬ":3161,"ÑĤÐ¾Ð³Ð´Ð°ÑĤÐ¾":3162,"ĠÐ²ÐµÑģÑĮ":3163,"ÐµÐ½Ð¸Ñı":3164,"ĠÐ²Ð¸Ð´ÐµÐ»Ð°":3165,"ĠÐ±ÐµÑĢÐµÑģÑĤÑıÐ½":3166,"ÓĪÐ¸Ð»Ð³Ñį":3167,"ÐºÑĤÐ¾ÑĢ":3168,"ÑıÐ½ÐµÑĤ":3169,"ĠÐ²ÐµÑĢÐ½Ñĥ":3170,"ĠÐ²ÐµÑĢÐ½ÑĥÐ»ÑģÑı":3171,"ĠÐ¾ÑģÑĤÐ°Ð»Ð¸ÑģÑĮ":3172,"ĠÐ¾ÑģÑĤÐ°Ð»Ð°ÑģÑĮ":3173,"ĠÐ¾ÑģÑĤÐ°Ð²Ð¸Ð»Ð¸":3174,"ĠÐ½Ð°ÑģÑĤÑĥ":3175,"Ð»ÑİÐ´Ð¸":3176,"ĠÐ±ÐµÐ³Ð°":3177,"ĠÐ±ÐµÐ»Ð¾Ðº":3178,"ĠÐ±ÐµÐ¶Ð¸ÑĤ":3179,"ĠÐ¸ÑĩÑįÐ¼":3180,"ĠÐ¼Ð°Ð»ÑĮ":3181,"ĠÑįÑĤÑįÐ¼":3182,"ĠÐ°Ð½ÓĪÐ°":3183,"ĠÒ»ÑĥÑĢÑĥ":3184,"ĠÑįÐ¿ÑĤÑĭ":3185,"ĠÐ³Ð¾ÑĢÐ¾Ð²Ð¾":3186,"ĠÑħÑĥÑİ":3187,"Ð´ÑİÑĢ":3188,"Ð´ÑİÐºÑĤÑį":3189,"ĠÐ¼ÑĥÐ½Ð´Ó¯":3190,"ĠÐ»Ð°ÑİÑĤ":3191,"ĠÐ»Ð°Ð¼Ð±Ð°":3192,"ÑĢÐ¸ÐºÑĤÑįÐ»":3193,"ĠÑĢÑĭÐ±Ð°ÑĩÐ¸ÑĤÑĮ":3194,"ĠÐ¼Ð°Ð»ÐµÐ½ÑĮÐºÐ¸Ðµ":3195,"Ð³ÑĥÐ½Ð½Ñį":3196,"Ð³ÑĥÐ½ÑįÐ½":3197,"ĠÐ±ÑĥÐ´ÑĥÑĤ":3198,"ĠÑĤÑĥÑĢÑĥÐ´Ó¯":3199,"ĠÑģÑĥÑĢÑĥÑĢÑįÐ²":3200,"Ð¾ÑĢÐ¾ÑĢÐ´Ð¸":3201,"ĠÐ¿ÑįÐº":3202,"ÑĢÐ°Ð·Ñĥ":3203,"ÑĢÐ°Ð·Ð±Ð¾ÑĢ":3204,"ĠÑģÑĤÐ°ÑĢÑĪÐ°Ñı":3205,"Ð´Ð°Ð²Ð°Ð¹ÑĤÐµ":3206,"ĠÐ±Ó¯Ð½Ó£":3207,"ĠÐ´ÐµÐ²ÑĩÐ¾":3208,"ĠÐ»Ð¾Ð´ÐºÐ¸":3209,"ĠÐ»Ð¾Ð´ÐºÐµ":3210,"ĠÐ°Ð´Ð¸Ð»Ð¸ÑĤÑĩÐ°":3211,"ĠÐ³ÑįÑĢÐ±Ð¸Ð½":3212,"ĠhÑĥÐ²ÑĥÐ»Ð±ÑįÐ½":3213,"ĠÐ³ÑĢÐ¸Ð±Ñĭ":3214,"hÐ¸Ð½ÑįÐ¼":3215,"ĠÐ½ÐµÐºÑįÓĪÐ´Ñį":3216,"ĠÐ±ÑįÐ¹ÑįÐ»":3217,"Ð¸ÑĩÑįÑĤÑĩÑį":3218,"Ð»Ð´ÑĭÐ¼":3219,"Ð»Ð»ÑįÐ½":3220,"Ð²ÑĢÐ°ÑīÐ°":3221,"ĠÐ±ÐµÑĢÐ»Ð¾Ð³Ñĥ":3222,"ĠÐ±ÐµÑĢÐ»Ð¾Ð³Ðµ":3223,"ĠÐ±ÐµÐ»ÐºÐ¸":3224,"ĠÑįÐºÐ¾Ð½Ð´Ðµ":3225,"Ð²Ð¾Ð·ÑıÑĤ":3226,"ĠÐ²Ð¾Ð·ÑĮ":3227,"ĠÐºÐ¾Ð»Ð¾ÐºÐ¾Ð»ÑĮ":3228,"ĠÐ¼Ð»Ð°Ð´ÑĪÐ¸Ð¹":3229,"ĠÑĥÐ»Ð¸ÑĨÐµ":3230,"ĠÐ´ÑįÐ³Ð¸Ð»Ð¼Ñį":3231,"ĠÑĥÑĩÐ¸ÑĤÐµÐ»ÑĮ":3232,"ĠÑĢÑĥÐ¶ÑĮÑı":3233,"ĠhÑįÑĢÑįÐ»Ð³Ñį":3234,"ĠhÑįÑĢÑįÐºÑįÑĤ":3235,"ĠÒ»Ð°Ð²Ð°Ð»":3236,"ĠÐ´ÐµÑĢÐµÐ²ÑĮÑı":3237,"ÑĤÑĢÑİ":3238,"Ð±Ð¾Ð»ÑĮÑĪÐµ":3239,"ĠÐ¸Ð³ÑĢÐ°ÑĤÑĮ":3240,"ĠÐºÐ¸Ð½Ð³Ð¸":3241,"ĠÑħÑįÐ³Ð´Ð¸ÑħÑį":3242,"ĠÑįÐºÑģÐ¿ÐµÐ´Ð¸ÑĨÐ¸Ð¸":3243,"ĠÐ²Ð·ÑĢÐ¾Ñģ":3244,"ĠÐºÑĢÐ¸ÑĩÐ°ÑĤÑĮ":3245,"ĠÑģÐ¾Ð±Ð¾Ð»ÐµÐ¹":3246,"ĠÑģÐµÑģÑĤÑĢÐ°":3247,"ĠÐ´Ð²Ð¾Ðµ":3248,"ĠÐºÐ¾ÑĤÐ¾ÑĢÑĭÐµ":3249,"ĠÑĪÐºÑĥÑĢÑĥ":3250,"ĠÐ°Ð¼ÑĥÑĤ":3251,"ĠÐ¾Ð³ÑĢÐ¾Ð¼":3252,"ĠÐºÑĥÒ£Ð°ÐºÐ°Ð½":3253,"ĠÑģÐ²Ð°Ð´ÑĮÐ±Ð°":3254,"ÑĢÑĥÐ¶ÑĮÐµ":3255,"Ð´ÑıÐ¿ÐºÑĥÐ½":3256,"ĠÑĤÐ°Ð¹Ð¼ÑĥÑĢÐ°":3257,"ĠÑĤÑįÐ¿ÐºÑįÐ»ÑĩÐ¾":3258,"ĠÑģÐµÑĢÐµÐ´Ð¸Ð½":3259,"ÑĪÐºÐ¾Ð»Ð°Ð»Ð°":3260,"ĠÐ·Ð°Ð»ÐµÐ·":3261,"ĠÐµÑħÐ°Ð»Ð¸":3262,"ĠÑħÑĢÐ¸ÑģÑĤ":3263,"ĠÑĥÐ¼Ó¯Ð½ÑĥÐ¿":3264,"ĠÑĤÑĢÐ¾ÑĦÐ¸Ð¼":3265,"ÑĢÐ·Ð±":3266,"ĠÐ¾Ð³Ð¾Ð²Ð¾ÑĢÐºÐ°":3267,"ĠÐ²ÐµÐ´ÑĮ":3268,"ĠÐ¾ÑĤÐ´ÐµÐ»ÑĮÐ½Ð¾":3269,"ĠÐ»Ð°Ð¼Ð±Ð°ÑĢÐ°":3270,"ÑĢÐ°Ð·Ð±Ð¾ÑĢÑĩÐ¸Ð²Ð¾":3271,"ĠÒ£":3272,"ĠÓĻ":3273,"Ð°ÓĪ":3274,"Ð°Ð³Ð°":3275,"Ð°ÑıÑĤ":3276,"Ð°ÓĪÐ¸Ð»":3277,"ÑĤÑįÐ»Ñį":3278,"ÑĤÐºÐ°Ð½":3279,"Ð¸ÑĤÑĮ":3280,"Ð¸Ð´Ð¸":3281,"Ð½Ð¼Ð°":3282,"Ð»Ð²ÑįÑĢ":3283,"Ð»Ð²Ð°ÑĤÑĭÐ½":3284,"ÑįÐ´Ñĥ":3285,"ÑįÑĤÑĭÐ½":3286,"ÑįÐ½Ð¸":3287,"ÑįhÐ¸":3288,"ÑįÐ²Ó£":3289,"ÑĢÑĤÐ°":3290,"ÑĢÐ³Ð¸Ð»":3291,"ÑĢÑĮÐµ":3292,"ÑĥÐ»":3293,"ÑĥÑĤÐ¾":3294,"ÑĥÐ´Ñı":3295,"Ð´ÑĤÐ¸":3296,"Ð´Äģ":3297,"ÑģÐ½Ð°ÑĩÐ°Ð»Ð°":3298,"Ð²Ð¸Ð»":3299,"Ð¼Ð±Ñĥ":3300,"Ð¼Ð»Ð°Ð´":3301,"Ð¼Ð½Ñİ":3302,"ÑıÐ»Ð°":3303,"ÑıÑģÐµÐ½":3304,"Ð³Ð»Ð°Ð½":3305,"ÑĤÐ°Ð»Ð¸":3306,"ÑĤÐ°ÑĢÐ¸Ð»":3307,"ÑĮÐµÐ²Ð½Ð°":3308,"ĠÑģÑı":3309,"ĠÑģÐµÐ»":3310,"ĠÐ½ÑĢÐ·Ð±":3311,"ĠÐ¾ÐºÐ°":3312,"ĠÐ¾Ð±Ñĭ":3313,"ĠÐ¾Ð±Ðµ":3314,"ĠÐ¾Ð¿Ñĭ":3315,"Ð¿ÑĩÐ°":3316,"Ð¿Ð»Ðµ":3317,"Ð¿ÑĢÑı":3318,"Ð»Ð¸ÑĤ":3319,"Ð±ÑįÐ»Ñį":3320,"ĠÑįÐ¹":3321,"ĠÑįÐ´Ñĥ":3322,"ĠÑįÑģÐµ":3323,"ĠÑįÑĳ":3324,"ĠÑįÑĤÐ¾Ð¼":3325,"ĠÑįÄĵ":3326,"ĠÑįÑģÓ£":3327,"ÑħÑĥÑĢÑĥ":3328,"ĠÐ²ÑģÑĤÐ°Ð»":3329,"ĠÐ²ÑĢÐ¾Ð´Ðµ":3330,"ĠÐ¿ÑĢÐ°Ð²":3331,"Ð»Ð°Ð¸":3332,"Ð»Ð°ÑĢÑį":3333,"Ð´ÐµÑģÐ¾":3334,"Ð´ÐµÓĪÐºÓ£Ð½":3335,"Ð´ÐµÒ£ÐºÓ£ÑĦ":3336,"ÐºÐ°ÑĢÐ¾":3337,"ÐºÐ°Ð¿ÐºÐ°":3338,"ÐºÐ°ÐºÐ°Ñı":3339,"ÐºÐ°ÑĢÐ°Ð±Ð¸Ð½":3340,"ÑĪÐµÐ½ÑĮ":3341,"ÑĪÐºÐµ":3342,"ÐºÐ¾Ð»":3343,"ÐºÐ¾ÑĢÐ¸":3344,"Ð·Ð²Ð°":3345,"Ð·Ð²Ð°Ð»":3346,"ĠÐ¸Ð´Ñĥ":3347,"ĠÐ¸Ð½Ó£":3348,"ĠÐ¸ÐºÐ¾Ð½":3349,"ĠÐ¸ÓĪÐ¸Ð½":3350,"ĠÐ¸ÑĤÑĭÐ³Ð°":3351,"ĠÐ¸Ð´ÑĤÐ¸":3352,"ĠÐ¼ÐµÑĤ":3353,"ĠÐ¼Ð½Ð¾Ð¹":3354,"ÑĢÐ¾Ð´Ð¸":3355,"ÑĢÐ¾ÑĦ":3356,"ĠÑĤÐ°Ð²Ð°ÑĢ":3357,"ĠÐºÑĢÐ°":3358,"ĠÐ°Ð¸":3359,"ĠÐ°ÑģÐ°":3360,"ĠÐ°ÐºÓ£Ð¼":3361,"Ð²Ð°ÐµÐ¼":3362,"Ð²Ð°ÑĤÑĮÑģÑı":3363,"ĠÑĥÐ·":3364,"ĠÑĥÑĢÑĥ":3365,"ĠÑĥÐ»Ñį":3366,"ĠÑĥÑĪÐ¸":3367,"ĠÑĥÐµÑħÐ°Ð»Ð¸":3368,"ĠÑĥÓĪÑĥÐ½":3369,"ĠÐ³ÑĢÑıÐ·":3370,"ÐºÓ£ÑĤ":3371,"ÑĢÐ¸ÐºÑĤÑį":3372,"ĠÐ¿Ð¾Ð½Ð¸":3373,"ĠÐ¿Ð¾Ð³Ð°":3374,"ĠÐ¿Ð¾ÑģÑĤÑĢÐ¾":3375,"ĠÐ±Ð¸Ð´Ð¸":3376,"ĠÐ±Ð¸ÑģÐ°":3377,"ĠÐ±Ð¸ÑģÐ¸Ð½":3378,"ĠÐ±Ð¸ÓĪÐºÓ£ÑĤÑĭÐ½":3379,"ĠÐ±Ð¸ÑĩÐ¾Ð»":3380,"ĠÐ±Ð¸ÑģÐ¾Ð»":3381,"ĠÐ±Ð¸hÐ¸Ð»":3382,"ĠÐ½Ð°Ð¿Ð°":3383,"ĠÐ½Ð°Ð·Ð²Ð°":3384,"ÑįÐ»Ð²Ñį":3385,"ÐºÐ¸Ð²ÑĥÐ½":3386,"ÑĢÑĥÑĤ":3387,"ÑĢÑĥÐ¶Ð¸":3388,"Ð½Ð°Ð·Ð°Ð´":3389,"Ð¼Ð°ÑĢ":3390,"Ð½Ð¾Ð½":3391,"Ð½Ð¾Ð²Ð¸Ñĩ":3392,"ÐµÑĢÐ¼Ð°":3393,"Ð²ÑįhÐ¸Ð½":3394,"ÑĩÐ°ÑĤ":3395,"Ð´ÑıÐ²ÐºÓ£Ð»":3396,"Ð´ÑıÓĪÐºÓ£ÑĤÑĭÐ½":3397,"ÑħÐ¾Ð´Ñı":3398,"ĠÐ·Ð²Ðµ":3399,"Ð°Ð»ÐµÑĤ":3400,"Ð¿Ð¾Ð»":3401,"Ð¿Ð¾ÑĢ":3402,"Ð¿Ð¾ÐµÑħÐ°Ð»Ð¸":3403,"Ð¿Ð¾ÑģÐ¼Ð¾":3404,"ĠÐµÐ¼Ð±Ñĥ":3405,"ĠÐ½ÐµÐ¹":3406,"ĠÐ½ÐµÑģÐºÐ¾Ð»ÑĮÐºÐ¾":3407,"ĠÐ½ÐµÐºÐ¾ÑĤÐ¾ÑĢÑĭ":3408,"ĠÐ½ÐµÑıÑģÐµÐ½":3409,"ĠÐ±ÑĭÑĤÑĮ":3410,"ĠÐ±ÑĭÐ²Ð°ÐµÑĤ":3411,"ĠÑĤÐ¾ÑĢÐ¸":3412,"Ð¾Ð»ÐµÐ½ÑĮ":3413,"Ð¾Ð»ÐµÐ½Ñı":3414,"ÑģÑıÐ½":3415,"ÑĢÐµÐºÐ°":3416,"ÐºÑįÐ¼":3417,"ÐºÑįÐ½ÑįÐ¼":3418,"Ð´ÑįÐ¼":3419,"Ð´ÑĥÐºÑĤÑį":3420,"Ò£ÑĤÑĥ":3421,"Ò£Ð½Ó£":3422,"Ð´Ð¾Ð½":3423,"Ð´Ð¾ÓĪÐ¾ÑĤÐ¾":3424,"ÑĤÐ¸ÑĤ":3425,"ÑĨÐ¾Ð²":3426,"ÐµÐ»Ñı":3427,"Ð³Ð¸ÑģÑı":3428,"ĠÐ³Ð¾Ð½":3429,"ĠÐ³Ð¾ÑģÐ¿Ð¾":3430,"ÑĩÐ¸ÐºÐ¸":3431,"ÑĩÐ¸Ð»Ð¾ÑģÑĮ":3432,"ĠÑģÑĤÐ°Ð´Ðµ":3433,"ĠÑĤÑĥÑĤ":3434,"ĠÑĤÑĥÐ¼Ð½Ð¸":3435,"ĠÐ²Ð¾Ð½":3436,"ĠÐ²Ð¾Ð´Ð°":3437,"Ð´ÑĭÐ½":3438,"Ð´ÑĭÐ½ÓĪÓ£Ð»Ñį":3439,"ĠÐ´ÐµÐ¿ÑĤÑĭÐ»Ñį":3440,"ĠÐ±ÑĥÑĢÐ´Ñĥ":3441,"ÑģÑĳÐ½":3442,"ÑīÐµÐ¼":3443,"ĠÐ¼Ð¾Ñı":3444,"Ð²Ð¸ÑĤÑĮ":3445,"ĠÐºÐ°ÑĢ":3446,"ĠÐºÐ°ÑĢÐ°":3447,"ĠÐºÐ°Ð¶":3448,"ĠÐºÐ°ÐºÑĥÑİ":3449,"ĠÐ·Ð°Ð¹":3450,"ĠÐ·Ð°ÐºÑĢÑĭ":3451,"ĠÐ·Ð°Ð¼ÐµÑĢ":3452,"ĠÐ·Ð°Ð»Ð°Ñı":3453,"ĠÑıÐºÑĥ":3454,"Ð²ÐµÐ»Ð¸":3455,"ĠÐ¿ÑĢÐ¸Ð±Ð»Ð¸":3456,"ĠÐ¿ÑĢÐ¸Ð²Ð¾Ð·ÑıÑĤ":3457,"ĠÐ¾Ð»Ð´Ð¾Ð»":3458,"ĠÐ½Ð¸ÐºÐ¾Ð³Ð´Ð°":3459,"ĠÐ½Ð¸ÐºÐ°Ðº":3460,"ĠÐ½Ð¸Ð¼Ð¾ÐºÐ¸Ð»":3461,"Ð±Ð¸ÑĤÑĮ":3462,"ĠÑģÐ¾ÑĢÐ¾":3463,"ĠÑģÐ¾Ð±Ð¾Ð¹":3464,"ĠÑģÐ¾ÑĢÐ¾Ðº":3465,"ĠÐ´Ð¾ÑĩÐµÑĢÐ¸":3466,"Ð±Ð°ÑĢ":3467,"Ð±Ð°ÑĩÓ£":3468,"ĠÑħÐ¾ÑĤÑĮ":3469,"ÑĪÐ¸Ð¼":3470,"ÑĪÐ¸ÑĤÑĮ":3471,"ĠÑįÐ¼ÑįÑĢÑįÐ²":3472,"ĠÑįÐ¼ÑįÐ²ÑĢÑįÐ½":3473,"Ð·Ð°ÑĤÐµÐ¼":3474,"Ð·Ð°Ð²ÑĤÑĢÐ°":3475,"Ð±ÑĥÐ´ÐµÐ¼":3476,"ĠÐ³ÑĥÐ½Ð´Ðµ":3477,"ĠÐ³ÑĥÐ½Ð¸Ð»Ð¸Ð¼":3478,"Ð»ÑĮÐ½Ð¸":3479,"Ð»ÑĮÐ½ÑĭÐ¹":3480,"Ð»ÑĮÐ½ÑĭÐµ":3481,"Ð½ÐµÑĢÐ°Ð·Ð±Ð¾ÑĢÑĩÐ¸Ð²Ð¾":3482,"ĠÑħÐ»Ðµ":3483,"ĠÐ¾Ð»ÐµÐ½ÐµÐ²Ð¾":3484,"Ð»ÑĥÑİ":3485,"Ð»ÑĥÑģÐ°":3486,"Ð»ÑĥhÑĥ":3487,"ĠÐ´ÑıÑı":3488,"ĠÐ´ÑıÐ½Ð´ÑĥÐº":3489,"ĠÐ³Ð¾Ð²Ð¾ÑĢÐ¸Ð»":3490,"ĠÐ±ÑįÑİ":3491,"ĠÐ´Ð°Ð³Ó£":3492,"ĠhÑįÐ³Ð´Ð¸":3493,"Ð´ÐµÑĢÑįÐ²":3494,"ĠÐ¼Ð°ÐºÐ°ÑĢÐ¾":3495,"ÑĢÐ°Ð½Ð´Ð°":3496,"ĠÑģÐºÐ°Ð¶ÐµÑĤ":3497,"ĠÐ´ÐµÐ»Ð°ÑİÑĤ":3498,"ĠhÑĥÑĢÑĥÐ¼":3499,"ĠhÑĥÑĢÑĥÑĩÐ¾":3500,"ĠhÑĥÑĢÑĥÐ²ÑĢÑįÐ½":3501,"ĠÑĢÐµÐºÑĥ":3502,"ĠÑĢÐµÐ±ÑıÑĤÐ¸":3503,"Ð¾Ð½ÐµÑĢ":3504,"Ð¸ÑĢÐ³Ð¸":3505,"ĠÐ±Ð°Ð»Ð¾":3506,"ĠÐ±Ð°Ð³Ð´Ð°":3507,"ĠÐ²Ð°Ð¼Ð¸":3508,"ĠÐ²Ð°ÑĢÐ°Ðº":3509,"ĠÐ¸Ð½Ð¸Ð½":3510,"ĠÐ½ÑĥÓĪÐ°Ð½Ð´Ó¯Ð½":3511,"Ð½ÑıÑħ":3512,"ĠhÐ¾ÑĢÐ¾":3513,"ĠhÐ¾ÑĢÐ¸":3514,"ÑĤÑĩÑįÐ½":3515,"ÑĤÑĩÑįÐ½Ñį":3516,"ĠÑħÐ¾ÑĢÐ¾ÑĪÐ°Ñı":3517,"ĠÐ³ÑĥÐ»ÑĥÐ²ÑĥÐ½":3518,"hÑĥÑĤÑį":3519,"ÐºÑĤÐ°ÐºÐ°":3520,"ĠÐ»Ð¾ÐºÐ¾":3521,"ÄģÐ½":3522,"ĠÑģÐ²Ð¾ÐµÐ¼Ñĥ":3523,"Ð²ÑĭÑĪÐ»Ð°":3524,"ÐºÓ¯ÑĢ":3525,"ĠÐ¶ÐµÐ½Ð¸Ð»ÑģÑı":3526,"ĠÑĢÑĭÐ±Ñĭ":3527,"ĠÑģÐ¸Ñħ":3528,"ĠÑģÐ¸Ð´Ð¸ÑĤ":3529,"ĠÑįÑĤÐ¸Ð¼Ð¸":3530,"ĠÐ»ÑĥÐºÓ£Ð»":3531,"ĠÐ¾Ð´Ð½Ð¸":3532,"ĠÐ¾Ð´Ð½Ñĥ":3533,"ĠÐ³Ð¸ÑĢÐºÓ£":3534,"ĠÐ´ÑįÐ³":3535,"ÑģÐºÓ£ÐºÓ¯Ð½":3536,"ÑĢÓ£Ð²Ñį":3537,"ĠÐ±ÑįÐµÐ²Ñį":3538,"ĠÑģÐ¿ÑĢÐ¾ÑģÐ¸Ð»":3539,"ĠÑĥÐ»ÐµÑĤ":3540,"ĠÐ¾Ð±ÑīÐµÐ¼":3541,"ĠÑįÐ»ÑįÑĤÑĭÐ½":3542,"Ð·ÑĭÐ²Ð°ÑİÑĤ":3543,"Ð´ÑıÐ½ÑĤÐ°":3544,"Ð´ÑıÐ½Ð´Ñį":3545,"ÓĪÐ¸Ñģ":3546,"ĠÑĤÐ°Ð¹Ð³Ð°":3547,"ĠÑĤÐ°Ð¹Ð³Ñĥ":3548,"ĠÐ³Ð¸ÑĢÐºÑĥÑĢÐ°":3549,"ĠÑģÐ¾Ð±Ð°Ðº":3550,"ĠÐ½ÐµÑĤÑĥ":3551,"ĠÐ²Ð¸Ð´Ð½Ð¾":3552,"ÓĪÐ¸Ð»Ð±Ð¸":3553,"Ð¾ÑĢÐ¾Ð½":3554,"ÐµÐ²ÑĢÐ°":3555,"Ð½ÑĥÐ»Ð³Ð¸":3556,"Ð½ÑĥÐ»Ð³Ó£":3557,"ĠÐ°Ð½ÑĤÑĭ":3558,"ĠÑĤÐ¾Ð³Ð¾Ð²Ð¾":3559,"ĠÑģÐ¼Ð¾Ð»Ñĥ":3560,"ĠÑĢÐ°ÑģÑģÐºÐ°Ð·Ð°Ð»":3561,"ĠÑįÐ¿ÑįÑĤ":3562,"ĠÐ³Ð¾ÑĢÐ¾Ð´Ó¯":3563,"ĠÐ³Ð¾ÑĢÐ¾Ñĳ":3564,"Ð´ÑİÐ»Ð°":3565,"ĠÐ¿Ð¾ÑģÑĥ":3566,"Ð»ÑįÐ»Ð²Ñį":3567,"ĠÐ¼ÑĥÐ½Ð´Ñĥ":3568,"ÑģÑĭÐ²Ð°Ð»Ð¸":3569,"ĠÐ´Ð°Ð»Ð³Ð°":3570,"ĠÐ´Ð°Ð»Ð³Ð°Ð½":3571,"hÐ¾Ð·":3572,"ĠÑĤÑĥÑĢÑĥÐ»Ð°":3573,"ĠÑģÑĥÑĢÑĥÐ¿":3574,"ĠÐ°ÑĢÐºÐ¸":3575,"Ð²Ð°ÑİÑĤÑģÑı":3576,"ĠÐ¼Ð°Ð½Ð°Ð¼":3577,"ĠÑģÑĤÑĢÐµÐ»Ñĭ":3578,"Ð¿ÑĢÐ¸ÑĪÐ»Ð¸":3579,"ĠÑįÐ²ÑįÓĪÐºÓ£":3580,"ĠÐ±Ð°Ð»Ð´ÑĭÑĩÐ°":3581,"ĠÑĩÐ°ÑģÐ¾Ð²":3582,"ĠÐ°ÓĪÐ¸Ð»Ð²Ð°":3583,"ĠÐ±Ð¸Ð´ÐµÐ²ÐºÓ£Ð»":3584,"ĠÑĤÑĥÐ½Ð´":3585,"ĠÑĤÑĥÐ½Ð´ÑĢÑĥ":3586,"Ð¿ÑįÑĤ":3587,"ĠÐ´ÑıÐ²ÑĢÐ°":3588,"ĠÐ¼ÑĥÐ¶ÐµÐ¼":3589,"ĠÐ¿ÑĥÑĪ":3590,"ĠÐ´ÑĥÐ¼Ð°Ð¹":3591,"ĠÐ´ÑĥÐ¼Ð°Ñİ":3592,"ĠÐºÐ»Ð°ÑģÑģ":3593,"ĠÐ±Ð¾Ð»Ðµ":3594,"ĠÐ±Ð¾Ð»ÐµÐ»Ð¸":3595,"ĠÐ¾ÑħÐ¾ÑĤÐ¸Ð»Ð¸ÑģÑĮ":3596,"ĠÑģÑĤÄģ":3597,"Ð¿ÑĢÐ¾Ð´ÑĥÐºÑĤÑĭ":3598,"ĠÐ°Ð´Ð¸Ð»Ð¸ÑģÐ¸":3599,"ĠhÑĥÐ²ÑĥÐ»Ð±Ð¾Ð½":3600,"ĠÑģÐ¾Ð±Ð¸ÑĢÐ°Ð»Ð¸":3601,"ĠÑĦÐµÐ²ÑĢÐ°":3602,"ÑģÐ¾Ð²ÑħÐ¾Ð·":3603,"ĠÑģÐµÐ¼ÑĮÑı":3604,"ĠÑģÐ»ÐµÐ´Ñĭ":3605,"ÐºÐ¾ÑĢÐ¼Ð¸":3606,"ĠÐ¿Ð¾ÑģÐ¼Ð¾ÑĤÑĢÐµ":3607,"ĠÐºÑĤÐ¾ÑĤÐ¾":3608,"ÑģÐ¾Ð±Ð°ÐºÐ¸":3609,"ĠÑĥÐ»Ð³ÑĥÑĩÐ¾":3610,"ÑĥÐ¼ÑĥÐºÐ¸Ð½":3611,"ĠÑįÐºÑĥÐ½ÐºÐ°":3612,"ĠÐ´ÑĢÑĥÐ³Ð¾Ð¼":3613,"ĠÐ±ÐµÑĢÐ»Ð¾Ð³Ð¸":3614,"ĠÓ¯ÐºÐ¾":3615,"ĠÑįÐºÐ¾Ð½Ð´Ñĭ":3616,"ĠÐ´ÑĢÑĥÐ³Ð¸Ñħ":3617,"ĠÐ¾Ð±ÑĢÐ°Ð´Ð¾":3618,"ÑģÐµÑĤÐ¸":3619,"Ð³Ð¾ÑĢÐ¾Ð²Ð¾":3620,"ĠÐ²Ð¾Ð·Ð²ÑĢÐ°ÑīÐ°":3621,"ĠÑĥÐ»Ð¸ÑĨÑĥ":3622,"ĠÐ¿ÑĢÐ¸Ð²ÑıÐ·Ð°":3623,"ĠÐ¾Ð´Ð½Ð°Ð¶Ð´Ñĭ":3624,"ĠÐ²Ð½ÑĥÑĤÑĢÐ¸":3625,"ĠÐ²Ð¾Ð»ÐºÐ¾Ð²":3626,"ĠÐ¿Ð°Ð»ÐºÐ¸":3627,"ĠÐ½Ð°ÑĢÐ¾Ð´Ð°":3628,"ĠÑĤÄģÐ»Äģ":3629,"ĠÐ´ÐµÐ¿ÑĤÐ¸Ð»":3630,"ĠÐ¸ÑģÐ¿ÑĥÐ³Ð°Ð»Ð°ÑģÑĮ":3631,"ÑĢÐ°Ð±Ð¾ÑĤÐ°Ð»Ð°":3632,"ĠÐºÐ¸Ð½Ð³Ð¸ÑĤ":3633,"ĠÐ³Ð»Ð°Ð·":3634,"Ò£Ð¸Ð½Ð°ÐºÐ¸Ð½ÑĤÑĭÐ½":3635,"ĠÐ½ÑİÑĤÑį":3636,"ĠÐ´Ð²ÐµÑĢÐ¸":3637,"ĠÑĤÐ°ÑģÐºÐ°Ð»Ð¸":3638,"ĠÑĤÐµÐ»ÑıÑĤÐ°":3639,"ĠhÑįÑĢÐ³Ó£Ð´Ð¾":3640,"ĠÑģÐ¿ÐµÑĨ":3641,"ĠÐ´Ð²Ð¾Ð¸Ñħ":3642,"ĠÑĥÑģÐ»ÑĭÑĪÐ°Ð»Ð°":3643,"ĠÐºÐ¾Ð³Ð¾ÑĤÐ¾":3644,"ĠÐºÐ¾ÑĤÐ¾ÑĢÑĭÐ¹":3645,"ĠÐ±ÄĵÐ´Ð½Ð¸Ð¹":3646,"ĠÐ°ÑĢÐ°ÐºÓ¯ÐºÐ°":3647,"ĠÐ°ÓĪÐ°Ð½Ó£Ð²Ñį":3648,"ĠÐ±Ð¸Ð¼ÑĩÑį":3649,"ĠÐ¾Ð»Ð»Ð¾Ð»Ð²Ð¾":3650,"ĠÐ²Ð°ÑģÐ¸Ð»ÑĮÐµÐ²Ð¸Ñĩ":3651,"ĠÐ²Ð°ÑģÐ¸Ð»ÑĮÐµÐ²Ð½Ð°":3652,"ĠÐ±Ð°Ð»Ð´Ð¸ÑģÐ°":3653,"ĠÐ³ÑįÐ½Ð½Ñį":3654,"ĠhÑįhÑįÐ½Ð´ÐµÓĪÐ¾":3655,"ĠÐ¸Ð»Ð¼Ð°ÐºÑĤÐ°Ð»":3656,"ĠÐ±Ð¾Ð»Ð¾Ð½Ó£ÑĤÐºÐ¸":3657,"ĠÓ¯ÑĩÐ°ÐºÐºÐ¸":3658,"ÑįÐ²ÑįÐ´ÑĭÑĤ":3659,"ÑįhÓ£ÐºÐ¾ÐºÐ¾":3660,"ÑĥÐ¼Ð½Ð¾":3661,"ĠÑįÐ¼ÐºÑį":3662,"ĠÑĤÑıÐ¶Ðµ":3663,"ĠÐ½Ð¸ÐºÐ¾Ð»Ð°ÐµÐ²Ð¸Ñĩ":3664,"ĠÐ·Ð°ÐºÑĢÐ¸ÑĩÐ°Ð»":3665,"ĠÐ¶ÐµÐ»ÐµÐ·Ð¾":3666,"ĠÐ¿Ð¾Ð´ÑĥÐ¼Ð°Ð»":3667,"ĠÐ·Ð°Ð±Ð¾Ð»ÐµÐ»":3668,"ĠÐ²ÑĭÐ´ÐµÐ»Ñĭ":3669,"ĠÐ±Ð¸Ò£ÑįÑħÓ£":3670,"ĠÑģÐ°ÑĢÑģÐ¸ÐºÐ°Ð½Ð°":3671,"Ð²ÐµÑģÐ½Ð¾Ð¹":3672,"hÐ¸Ð½Ð¸Ð²ÐºÓ£":3673,"ĠÐ°Ð»ÐµÐºÑģÐ°Ð½Ð´":3674,"ĠÑįÐ±ÑįÐºÑį":3675,"ĠÐ³Ð°Ð»Ñı":3676,"ĠhÓ£Ð²ÑĢÑįÐ½":3677,"ĠÑĤÓ¯ÑĢÓ¯":3678,"ĠÐ´Ð°Ð³Ð°Ð¼Ð°":3679,"ĠÑĨÐµÐ»ÑĭÐ¹":3680,"ĠÐ»ÐµÐ½Ð¸Ð½Ð³ÑĢÐ°Ð´":3681,"Ð·ÐµÐ¼Ð»Ñı":3682,"Ð½Ð¾ÑıÑĢ":3683,"ĠÐ²Ð¾Ð»Ð¾ÑĩÐ¸ÑĤ":3684,"ĠÐ¾Ð±ÑĬÐµÐ´":3685,"ĠÐ°Ð½ÓĪÐ°Ð½Ð¸":3686,"ĠÐºÐ¸Ð½Ð³Ð¸ÑĤÐ°":3687,"ĠÐ¾Ð±ÑĭÑĩÐ½Ð¾":3688,"ĠÐ¿Ð¾Ð³Ð°Ñģ":3689,"Ò£Ð½Ó£Ð»Ñį":3690,"ĠÐ³Ð¾ÑģÐ¿Ð¾Ð´Ð¸":3691,"ĠÐ¼Ð°ÐºÐ°ÑĢÐ¾Ð²Ð¸Ñĩ":3692,"hÐ¸Ð½Ð°":3693,"hÐ¾ÑĤ":3694,"ÇĿ":3695,"ĠÒ£Ð¾":3696,"Ð°Ð½":3697,"Ð°Ð¼":3698,"Ð°ÑģÐ¸Ð½":3699,"Ð°Ð´Ð¸Ð»Ð¸":3700,"Ð°ÑĢÐ³Ð¸ÑĪÐ¸":3701,"Ð¾Ð»Ð¾":3702,"Ð¾Ð±Ð¾":3703,"Ð¾ÑģÑĤÐ°":3704,"Ð¾Ð´ÐµÐ»Ð¸":3705,"ÑĤÐ²Ð¾":3706,"ÑĤÐ¼Ð¸":3707,"ÑĤÑĢÐ¸ÑĤ":3708,"ÑĤÑıÑĤ":3709,"ÑĤÐµÐ»ÑĮ":3710,"ÑĤÑĤÐµÐ½Ñį":3711,"Ð¸ÑĢÐ°":3712,"Ð¸Ð»Ð¾":3713,"Ð¸Ð³ÑĢÐ°":3714,"Ð¸ÑģÐ¿Ñĥ":3715,"Ð½Ð¼Ð¾":3716,"Ð½Ð½Ñį":3717,"Ð½Ð´ÐµÑĢÑįÐ½":3718,"Ð½Ð´Ó¯Ð½":3719,"Ð½ÑĨÐµ":3720,"Ð»Ð´Ñĥ":3721,"Ð»Ð³Ð¾":3722,"Ð»ÐµÐ¹":3723,"Ð»ÑĩÐ¾Ð»":3724,"Ð»ÑıÑĤÑĮÑģÑı":3725,"ÐµÐ´Ð¾":3726,"ÐµÑĨ":3727,"ÐµÐ´ÑıÑĤ":3728,"ÑįÐ»Ð°":3729,"ÑįÐºÑįÐ»":3730,"ÑįÑħÐ¸":3731,"ÑįÐ±ÑįÐ¹":3732,"ÑįÐ¿ÑįÑĤ":3733,"ÑĢÐ²Ð°":3734,"ÑĢÐ³Ð°":3735,"ÑĢÐ³Ñĥ":3736,"ÑĢÑĤÐ¸Ð½":3737,"ÑĥÑİ":3738,"ÑĥÑĩÐ°":3739,"ÑĥÐ²Ð¸":3740,"ÑĥÑĩÐ¸ÑĤ":3741,"ÑĥÐ²ÐµÐ·Ð»Ð¸":3742,"ÑĥÓĪÑĤÑĥÐ²ÑĥÐ½":3743,"Ð´Ð²Ð°":3744,"Ð´Åį":3745,"Ð´ÓĻ":3746,"Ð´ÑĢÐ¾Ð²Ð°":3747,"ÐºÐ½Ð¸Ð»":3748,"ÑģÐ»Ð°":3749,"ÑģÑĥÐ½":3750,"ÑģÐµÑĢ":3751,"ÑģÐºÑį":3752,"Ð²Ð¸Ð½":3753,"Ð²ÐºÑį":3754,"Ð²ÑģÐ¸":3755,"Ð²ÑĮÑı":3756,"Ð²ÑģÐ¿Ð¾":3757,"Ð¼ÑĤÑĭ":3758,"Ð¼Ð½Ð°":3759,"Ð¼Ð´Ñį":3760,"Ð¼Ð¸Ð½Ñį":3761,"Ð¼ÑħÐ¾Ð·":3762,"Ð¼Ð½Ð¾Ð¶":3763,"ÑıÐ²":3764,"ÑıÑĤÐ¾":3765,"ÑıÐ´Ó¯":3766,"ÑıÐ»ÑģÑı":3767,"Ð³ÐºÐ¾":3768,"Ð³ÑĢÐ¸":3769,"Ð³Ð½ÑĥÐ»":3770,"ÑĩÐºÐ¾Ð¹":3771,"ÑĩÐµÑĢÐµÐ·":3772,"ÑĤÐ°Ð¿":3773,"ÑĤÐ°Ð½Ð°":3774,"ÑĤÐ¾Ð²":3775,"ÑĤÐ¾Ð³Ð¾Ð²Ð¾":3776,"ĠÐ±Ð»Ð¸":3777,"ÑĮÐµÐ²":3778,"ĠÑģÑį":3779,"ĠÑģÓ£":3780,"ĠÑģÐµÐ½":3781,"ĠÑģÐ²Ñı":3782,"ĠÑģÑħÐ²Ð°":3783,"ĠÑģÑĥÐ½Ð´Ó¯":3784,"ĠÑģÐ²ÐµÑĢÑħÑĥ":3785,"ĠÑģÑĢÐ°Ð·Ñĥ":3786,"Ó£Ð½":3787,"ĠÐ¾Ð¼Ð¾":3788,"ĠÐ¾Ð´Ñı":3789,"ĠÐ¾ÓĪÐ¾":3790,"ĠÐ¾Ð²ÐºÓ£Ð»":3791,"ĠÐ¾Ð³Ð´Ñĭ":3792,"ĠÐ¾Ð¶Ð¸":3793,"ĠÐ¾ÐºÐ°Ð»":3794,"ĠÐ¾Ð´ÑıÑĢÐ°":3795,"ĠÐ¾ÓĪÐ½Ð¾":3796,"ĠÐ¾Ð¿Ð»Ðµ":3797,"Ð¿Ð´Ñı":3798,"Ð±Ó¯":3799,"Ð±ÐºÐ¸":3800,"Ð±ÐµÐ»":3801,"ĠÑįÑĢÐ°":3802,"ĠÑįÐºÓ£":3803,"ĠÑįÐ½Ð¸":3804,"ĠÑįÐ´Ð¾":3805,"ĠÑįÐ»Ó£":3806,"ĠÑįÓĪÐºÓ£ÑĤÑĭÐ½":3807,"ĠÑįÑĩÑįÐ»":3808,"ĠÑįÐ±ÑįÐ¹":3809,"ĠÑįÐ»Ð³Ñį":3810,"ĠÑįÑĤÑĭÑĢÐºÑį":3811,"ĠÐ´ÑįÑĢ":3812,"ĠÐ´Ð½ÐµÐ¹":3813,"ÑħÐ¸Ð»":3814,"ÑħÐ¸Ð½Ñį":3815,"ĠÐ²ÐµÑĤ":3816,"ĠÐ¿Ð¸Ð½Ð°":3817,"ĠÐ¿Ã¡":3818,"ÓĪÐ¼Ñį":3819,"Ð»Ð°ÐºÓ£Ð»":3820,"Ð»Ð°hÐ°Ð²Ð°Ð»":3821,"Ð´ÐµÑĩÑį":3822,"Ð´ÐµÐºÑįÐ»":3823,"Ð´ÐµÐ´ÐµÐ½":3824,"Ð´ÐµÐ¿ÐºÓ£Ð»":3825,"Ð´ÐµÑĦÐºÓ£Ð»":3826,"Ð´ÐµÒ£Ð¾":3827,"Ð´ÐµÐ¿ÑĤÑĭÐ»Ñį":3828,"ÐºÐ°Ð¼Ð¸":3829,"ÑĪÑĳ":3830,"ÑĪÐ»Ð¸ÑģÑĮ":3831,"ÑĪÐµÐ¼Ñĥ":3832,"Ð´Ð°ÐµÑĤ":3833,"Ð´Ð°Ð´ÑĥÐº":3834,"Ð´Ð°Ð¶Ðµ":3835,"ÑĢÐ°Ð¼Ð¸":3836,"ÑĢÐ°ÐºÐ¸Ð½":3837,"ÑĤÑĭÐ¼":3838,"ÐºÐ¾Ð²Ð¾Ð¼":3839,"Ð·Ð²ÐµÐ½":3840,"ĠÐ¸Ð½Ð¾":3841,"ĠÐ¸Ð´ÑĥÐº":3842,"ĠÐ¸Ð´ÐµÑĤ":3843,"ĠÐ¸ÑģÑĤÐ¾":3844,"ĠÐ¼ÑįÐ½":3845,"Ó¯ÑĩÐ°":3846,"ÑĢÐ¾ÐºÐ¸Ð½":3847,"ÑĢÐ¾ÑģÐ¾Ð¼Ð°":3848,"ĠÑĤÐ°Ð²Ñĥ":3849,"ĠÑĤÐ°Ñī":3850,"ĠÐºÑĢÑĥ":3851,"ĠÐºÐµÐ´":3852,"ĠÐ°Ò£":3853,"ĠÐ°ÑĤÐ¸":3854,"ĠÐ°hÐ¸":3855,"ĠÐ°Ð»ÑĤÐ°":3856,"ĠÐ°Ò£Ð¸":3857,"ĠÐ°hÓ¯":3858,"ĠÑĥÑĤÐ°":3859,"ĠÑĥÐ»Ó£":3860,"ĠÑĥÑĩÐ¸Ð»":3861,"ĠÑĥÐ·Ð½Ð°":3862,"ĠÑĥÑĩÐ¸Ð»Ð°ÑģÑĮ":3863,"ĠÑĥÓĪÐºÑĥ":3864,"ĠÑĥÐºÑĢÐ°":3865,"ÑĢÐ¸Ñı":3866,"ĠÐ¿Ð¾Ð²Ð¾":3867,"ĠÐ¿Ð¾Ð»Ñĥ":3868,"ĠÐ¿Ð¾Ð¼Ð½Ð¸":3869,"ĠÐ¿Ð¾ÐºÑĢÑĭ":3870,"ĠÐ¿Ð¾ÑĩÐµÐ¼Ñĥ":3871,"ĠÐ¿Ð¾ÑĥÐ±Ð¸":3872,"ĠÐ¿Ð¾Ð¼Ð½Ñİ":3873,"Ð´Ó¯Ð²ÑĥÐ½":3874,"ĠÐ±Ð¸Ð´ÐµÐ½":3875,"ĠÐ½Ð°Ð²":3876,"ĠÐ½Ð°Ð¼Ð¸":3877,"ĠÐ½Ð°Ð»Ðµ":3878,"ĠÐ½Ð°ÑĢÑı":3879,"ĠÑĤÑĢÐ°":3880,"ĠÑĤÑıÐ½ÐµÑĤ":3881,"Ð½Ð°ÑĤ":3882,"Ð½Ð°ÐºÐ°Ð½Ð½Ð¾":3883,"Ð¼Ð°Ð»ÑĩÐ°":3884,"Ð»Ð¾ÐºÑĤÐ¾":3885,"Ð»Ð¾Ð´Ð½Ð¾":3886,"Ð½Ð¾ÑģÑĤÐ°":3887,"Ð´Ð¸ÑĩÐ°":3888,"ÐµÑĢÐ¼Ðµ":3889,"ÐµÑĢÑģÑĤÑĮ":3890,"Ð¼Ð¾Ð»Ð¾":3891,"Ð¼Ð¾Ð¶Ð½Ð¾":3892,"Ð´ÑıÐ½Ñį":3893,"ÑĤÑĭÐ½ÑĤÑį":3894,"Ð½Ð¸ÑĤÑĮ":3895,"ĠÐ·Ð²Ð°Ð»Ð¸":3896,"ÑĤÑįÑĢÐ³ÑįÐºÑģÑįÐ»":3897,"Ð¿Ð¾ÑĪÐ»Ð¸":3898,"ĠÐ»ÐµÐ½Ð¸":3899,"ĠÐ½ÐµÐ¼Ð½Ð¾Ð¶":3900,"ĠÑĤÐ¾Ð¿Ð¾":3901,"ĠÑĩÐ¾":3902,"ĠÑĩÐµÑĢÐµÐ·":3903,"Ð¼ÑįÐº":3904,"Ð¼ÑįÑĤÑĭÐ½":3905,"Ð¾Ð»Ð»Ð¾":3906,"ÐºÑĥÐ»Ð°":3907,"ÐºÑĥÐºÐ°":3908,"Ð³Ð°Ñİ":3909,"Ð´Ð¾ÑĢÐ¾":3910,"ÑģÐ°ÑĤÑĮ":3911,"ÑĤÐ¸Ð»Ð¸":3912,"Ð³Ð¸ÑĤÑĭÐ½":3913,"ĠÐ³Ð¾ÑĢ":3914,"ÑĩÐ¸Ð¿ÐºÐ°":3915,"ĠÑģÑĤÐ°ÑĢÐ¾":3916,"ĠÑģÑĤÐ°Ð½Ñĥ":3917,"ĠÑĢÐ°ÑĨÐ¸":3918,"ĠÑĢÐ°ÑģÑĤÐµÑĢ":3919,"ĠÐ²Ð¾ÑĪÐ»Ð°":3920,"ĠÐ²Ð¾Ð´Ð¾Ð¹":3921,"ĠÐºÐ¾ÑģÑĤ":3922,"Ð²ÑĥÐ½Ñį":3923,"Ð´ÑĭÑħÐ°":3924,"Ð´ÑĭÐ³Ð¸Ð½":3925,"ÑģÐ¸Ð¼":3926,"ÑģÐ¸ÑĤÑĮ":3927,"ĠÐ´ÐµÐ²Ð¾":3928,"ĠÐ´ÐµÐ¶Ñĥ":3929,"ĠhÑĥÐ»Ñĥ":3930,"Ð»ÑįÑĤÑĤÑį":3931,"ĠÐ±ÑĥÐ´ÐµÑĤÐµ":3932,"Ð²ÑĥÑĤ":3933,"Ð²ÑĥÑĢÑį":3934,"Ð²ÑĥÐ»Ð¸Ð½":3935,"ĠÑģÐ°Ð»Ð¾":3936,"ĠÑģÐ°Ð½ÐºÐ°":3937,"ÑħÐ°ÑĢ":3938,"ĠÐ¼Ð¾Ð½Ð¸Ð½":3939,"ĠÐ¼Ð¾Ð¸Ñħ":3940,"ĠÐ¼Ð¾ÐµÐ³Ð¾":3941,"Ð²Ð¸ÓĪÐ¾":3942,"Ð²Ð¸Ð»Ð°ÑģÑĮ":3943,"ĠÐºÐ°Ð¼":3944,"ĠÐºÐ°Ñİ":3945,"ĠÐºÐ°Ð¼Ñĥ":3946,"ĠÐ·Ð°ÑĢÑĥ":3947,"ĠÐ·Ð°ÑĪÐµÐ»":3948,"ĠÐ·Ð°Ð²Ñı":3949,"ĠÑıÐ½":3950,"ĠÑıÐºÐ¾Ð²":3951,"Ð¶ÐµÑĪÑĮ":3952,"ÑĩÐ¾Ð¼":3953,"Ð¿Ð¾ÑĤÐ¾Ð¼ÑĤÐ¾":3954,"Ð²ÐµÐ´ÑĮ":3955,"ĠÐ¿ÑĢÐ¸Ðµ":3956,"ĠÐ¿ÑĢÐ¸ÐµÑħÐ°":3957,"ĠÐ¿ÑĢÐ¸Ð»ÐµÑĤÐ°":3958,"ĠÐ½Ð¸ÐºÐ¾":3959,"ĠÐ½Ð¸Ð³Ð´Ðµ":3960,"ĠÐ½Ð¸ÐºÐ¾Ð³Ð¾":3961,"Ð±Ð¸ÐºÑį":3962,"ĠÐ´Ð¾ÐºÑĥ":3963,"Ð±Ð°Ð³Ð´Ð°":3964,"ĠÑħÐ¾Ð³Ð´Ð¾":3965,"ĠÑħÐ¾ÑĤÑıÑĤ":3966,"ÑģÑĤÐ°Ð½":3967,"ÑģÑĤÐ²Ñĥ":3968,"ÑĪÐ¸Ð»Ð¸":3969,"ÑĢÑĭÐ±Ð°":3970,"ĠÐ´ÑİÐ´Ó¯":3971,"ĠÑįÐ¼ÑįÑģÑĳ":3972,"ĠÑįÐ¼ÑįÑĩÐ¾":3973,"ĠÑįÐ¼ÑįÐ´ÐµÑĢÑį":3974,"ĠÑįÐ¼ÑįÐ²ÑĢÑį":3975,"Ð·Ð°Ð±Ð¾Ð»":3976,"ĠÐ³ÑĥÐ½Ð´ÐµÓĪÐ¾":3977,"ĠÐ³ÑĥÐ½Ð´ÐµÐ½ÑįÐ»":3978,"ÑĦÐ¸":3979,"ÑĦÐºÐ°":3980,"ÑĤÐ°ÑĢÐ´Ð°":3981,"ÑĤÐ°ÑĢÐ³Ð°":3982,"Ð±ÑĭÐ»Ð¸":3983,"ĠÑħÐ²Ð°":3984,"ĠÐ¾Ð½Ð´Ð°":3985,"ÐºÑĥÐ½Ð´Ð°":3986,"Ð½ÑĭÐ¼Ð¸":3987,"ĠÐ´ÑıÐ»Ð²Ð¸":3988,"ÑıÑĤÑĮÑģÐ¾ÑĤ":3989,"ĠÐ²ÑĭÑģÐºÐ¾":3990,"ĠÑĪÐ¾":3991,"ĠÑĪÑĥ":3992,"ĠhÐ°ÓĪÐ°":3993,"ÓĪÐºÓ£Ñģ":3994,"ÑģÐºÐ°Ð»Ð°":3995,"ÑģÐºÐ°Ð·Ð°Ð»Ð¸":3996,"ĠÐ´Ð°Ð¹":3997,"ĠÐ´Ð°Ð´Ð°":3998,"ĠÐ´Ð°ÑĢÐ¸":3999,"ĠhÑįÐºÓ¯":4000,"ĠhÑįhÑį":4001,"ĠÑĤÑįÑĤÐ¸":4002,"ĠÑĤÑįÑĤÐ¸Ð²":4003,"ĠÐºÐ°ÐºÐ½Ð¸Ð±ÑĥÐ´ÑĮ":4004,"ÐºÓ£Ð»Ð²Ñį":4005,"ĠÑģÐºÐ°Ð¶Ñĥ":4006,"ĠÐ¿ÑĢÐ¾ÐºÐ¾":4007,"ĠÐ¿ÑĢÐ¾Ð´ÑĥÐº":4008,"ĠÐ¿ÑĢÐ¾Ð¼ÑħÐ¾Ð·":4009,"ĠÐ±Ð¾ÑĢÐ¾":4010,"ĠÐ±Ð¾ÑıÑĤÑĮÑģÑı":4011,"ĠhÑĥÑĢÑĥÐ´ÐµÓĪÐ¾":4012,"ĠhÑĥÑĢÑĥÐ²ÑĢÑį":4013,"ĠÑĢÐµÑĩÐºÐµ":4014,"ÐºÑĤÑįÐ½Ñį":4015,"Ð²ÑģÐµÑħ":4016,"Ð¿Ð°Ð½":4017,"Ð¿Ð°Ð»Ð¸":4018,"ÑįÑĢÐ´ÑįÐ»Ð¾":4019,"ĠÐ±Ð°Ð´Ð°":4020,"ĠÐ±Ð°Ð±Ð°":4021,"ĠÐ±Ð°Ð±ÐºÐ°":4022,"ĠÐ²Ð°ÑĢÐ¸":4023,"ÑĪÐ°Ð¼Ð°Ð½":4024,"ĠÐµÑģÑģÐµÐ¹":4025,"ĠhÐ¾Ð³Ð¾ÑĢ":4026,"ĠhÐ¾ÐºÐ¾ÑĢÐ¸":4027,"ĠÐºÑĥÑĢÐ¾":4028,"ÑģÐºÐ¸Ð¹":4029,"ĠÑĤÑĭÐ³Ñį":4030,"ĠÑĢÐ°Ð·Ð¶Ðµ":4031,"ÑīÐµÐ³Ð¾":4032,"ĠÐ³ÑĥÑģÐ¾":4033,"Ð¶Ð°ÑĤÑģÑı":4034,"ĠÐ¾ÑĢÐ¾ÑĢÑĤÑĭÐ½":4035,"ĠÐ½Ð¾ÑĢÐ¼Ð°":4036,"ĠÐ½Ð¾ÑĢÐ¸Ð»ÑĮ":4037,"ĠÑįÑĢÐºÑį":4038,"ĠÑįÑĢÑĤÑĭÐºÓ£":4039,"ĠÐ³Ð°ÑĢÐ°":4040,"hÐ¸ÑģÐ°":4041,"ĠhÑįÐ»ÑįÐ²Ñį":4042,"hÐ°ÐºÑĤÑĭÑĢÐ°":4043,"ĠÐ°ÓĪÐ¸ÐºÐ°":4044,"ĠÐ°ÓĪÐ¸Ð´ÑĥÐº":4045,"ĠÐ°ÓĪÐ¸Ð²ÐºÓ£Ð»":4046,"ĠÐ°ÓĪÐ¸Ð´ÑıÐ¼":4047,"ĠÐ¼ÑĥÐºÑĥ":4048,"ĠÐ¼ÑĥÑĩÐ¸Ð»Ð¸ÑģÑĮ":4049,"ĠÐ¼ÑĥÐºÑĥÑĢÐ°":4050,"Ð»ÑĭÐµ":4051,"ĠÐ»ÐµÐ¶Ð¸ÑĤ":4052,"ĠÐ¶ÐµÐ½Ñĥ":4053,"ĠÐ¶ÐµÐ½Ð¾Ð¹":4054,"ĠÑģÐ¸Ð»Ð°":4055,"ĠÐ»Ð¸ÑģÑĥ":4056,"ĠÐ»ÑĥÑģÐ°Ð»":4057,"ĠÐ¾Ð´Ð½Ð¾":4058,"ĠÑħÐ°Ð²Ð°":4059,"ĠÑħÐ°ÑıÐ»Ñį":4060,"ĠÐ³Ð¸ÑĢÐºÓ¯":4061,"ÑģÐ¸Ð»Ð´Ð°Ð½":4062,"ÑģÐ¸Ð»ÑĩÐ°Ð»":4063,"ÑģÐ¸Ð»ÑĮÐ½Ð¾":4064,"ĠÐ´ÑįÑĢÑį":4065,"Ð½Ð¼ÑįÐ½":4066,"ĠÑģÐµÐ»Ð°":4067,"ĠÑģÐ¿Ñĥ":4068,"ĠÑģÐ¿Ð¸Ð½Ð°":4069,"ĠÑĥÐ»ÐµÑĤÐµ":4070,"Ð¼ÑıÑģÐ¾":4071,"ÑĤÑĤÑįÐ²":4072,"ĠÑģÐ¾Ð±Ð°ÐºÐµ":4073,"ĠÐ²Ð¸Ð´":4074,"ĠÐ²Ð¸Ð¶Ñĥ":4075,"ĠÐ¿ÐµÑĢÐµÑģÑĤÐ°Ð»Ð¸":4076,"ĠÐ¿ÐµÑĢÐµÐ¿ÑĢÐ°Ð²":4077,"ĠÐ·ÐµÐ¼Ð»Ñı":4078,"ĠÐ·ÐµÐ¼Ð»ÐµÐ¹":4079,"ÐºÐ¸Ð»Ð²Ð¸":4080,"ĠÐ´ÑĭÑĢÑĭ":4081,"ĠÐ´ÑĭÐ³Ð¸Ð½":4082,"ĠÐ´ÑĭÒ£Ð½Ó£Ð»Ñį":4083,"Ð¼ÐµÑģÑı":4084,"Ð½ÑĥÓĪÐ°Ð½Ð¼Ð°Ð½":4085,"ĠÑįÑĤÑįÑĢÑį":4086,"ĠÑģÐ¼Ð¾ÑĤÑĢÐµÑĤÑĮ":4087,"ĠÑģÐ¼Ð¾Ð»Ð¾Ð¹":4088,"ĠÑģÐ¼Ð¾ÑĤÑĢÑİ":4089,"ĠÑĢÐ°ÑģÑģÐºÐ°Ð·Ð°Ð»Ð°":4090,"Ð¾ÑĤÐºÑĥÐ´Ð°":4091,"ĠÐ´Ð¸ÐºÐ¾Ð³Ð¾":4092,"ĠÐ´Ð¸Ð³Ð°Ð»Ð¸":4093,"ĠÑĤÑįÐ³ÑįÑĢÑįÐ½":4094,"ĠÑħÑĥÐºÐ¾":4095,"ĠÑħÑĥÐ²ÑĥÐ»":4096,"ĠÐ¾ÑģÐ°Ð»":4097,"ĠÐ¼Ð¸Ð½Ð´ÑĥÐº":4098,"ĠÐ°hÓ£Ð»Ð°":4099,"Ð³Ð¾Ð²Ð¾ÑĢÑıÑĤ":4100,"ĠÐ»Ð°Ð´Ð½Ð¾":4101,"ĠÑĪÐºÐ¾Ð»Ðµ":4102,"ĠÐºÐ»Ð°ÑģÐ¿Ñį":4103,"ÑĤÑĩÐ°Ð½Ð°":4104,"ÑĤÑĩÐ°ÑĢÐ°Ð½":4105,"ĠÐ±Ð¸ÑĢÐ°Ð²Ð°":4106,"ĠÑĤÑĥÐ³ÑįÐ½Ó£":4107,"ĠÐ½Ð¸ÐºÑįÐ½Ñį":4108,"ĠÐ½Ð¸ÐºÑįÑĢÑįÐ½Ð´Ð°":4109,"ÑĬÐµ":4110,"ĠÑģÑĥÑĢÑĥÐ¼":4111,"ĠÑģÑĥÑĢÑĥÑĢÑį":4112,"ĠÑģÑĥÑĢÑĥÑĢÑįÐ½":4113,"ĠÐ°ÑĢÑĩÐ°":4114,"ĠÑħÑĥÑĢÑĥÑĢÑį":4115,"ĠÐ¼Ð°Ð½Ð°Ð²ÑĢÐ°":4116,"ĠÐºÑįÑĤÑįÐ¼ÑįÐ¼Ñį":4117,"ĠÓ£Ð´Ó¯":4118,"ÑĪÑĥÑĢÐ°":4119,"ÑĪÑĥÑİ":4120,"Ð¿ÑĩÑĥÑĤ":4121,"ĠÑģÑĤÐ°ÑĢÑĥÑħÐ¸":4122,"ĠÑĩÐ°ÓĪÐ¸ÑĤ":4123,"ĠÐ²Ð·ÑıÐ»Ð°":4124,"ĠÐ¿Ð¾Ð¹Ð´ÐµÐ¼":4125,"ĠÐ°ÓĪÐ¸Ð»Ð²Ð°Ð½":4126,"ĠÐ¼ÐµÑģÑĤÐ°":4127,"ĠÐ¼ÐµÑĪÐ¾":4128,"ĠÑĥÐ»ÑĥÐºÓ£":4129,"ĠÑĤÑĥÐ½Ð´ÑĢÐ°":4130,"ĠÑĩÐ¸ÑģÑĤÐ¾":4131,"ĠÑĩÐ¸ÑģÑĤÑĭ":4132,"ĠÐ´ÐµÐ²ÑĥÐ²ÐºÓ£Ð»":4133,"ĠÐ´ÐµÐ²ÑĥÑĪÐºÐ¸":4134,"ĠÐ´Ð¾Ð±ÑĭÐ²Ð°Ð»Ð¸":4135,"ĠÐµÐ·Ð´Ð¸Ð»":4136,"ÑģÐ°Ð»Ð´ÑĥÐ½":4137,"ĠÐºÐ¾Ð½ÑĩÐ¸Ð»Ð°ÑģÑĮ":4138,"ÑģÐ¸Ð»Ð¸Ð²ÐºÓ£Ð»":4139,"ĠÐ´ÑĥÐ¼Ð°Ñı":4140,"ĠÐºÐ»Ð°ÑģÑģÐµ":4141,"ĠÑİÑĢÑįÐ½":4142,"Ð½ÑĤÐ°Ð¹":4143,"ĠÐ±Ð¸Ð´ÐµÑĢÑįÐ²":4144,"ĠÐ´ÐµÐ²ÑıÑĤÑĮÑģÐ¾ÑĤ":4145,"Ð¼Ð½Ð¸Ð»":4146,"Ð¿ÑĢÐ¾Ð´ÑĥÐº":4147,"ĠÐ°Ð¼Ð¸Ð½Ð¼Ð¸":4148,"ĠÐ·Ð¸Ð¼Ñĥ":4149,"ĠhÑĥÐ²ÑĥÐ»Ð²ÑįÐ½":4150,"ĠÑģÐ°Ð¼Ð¾Ð»ÐµÑĤ":4151,"ĠÑģÐ°Ð¼ÑĭÐµ":4152,"ĠÑĥÑĩÐ°ÐºÐ°":4153,"ĠÑģÑĤÐ¾ÑĢÐ¾Ð½Ñĭ":4154,"ĠÐ²ÐµÑĢÑĤÐ¾Ð»ÐµÑĤÑĭ":4155,"ĠÑģÑĥÑħÐ¾":4156,"ĠÑįÐ½Ó£Ð¼":4157,"ĠÐ¸ÑĢÐ³Ð¸ÑģÐ¸":4158,"ĠÑĢÐ¾ÑģÐ¾Ð¼Ð°ÑħÑĥ":4159,"Ð´ÑĥÐ»Ó£Ð½":4160,"Ò£Ð¸Ð½Ð°ÐºÐ¸ÑĢ":4161,"Ð¼ÑĥÐ½Ñį":4162,"ĠÐ³ÑĢÑĥÐ·Ñĭ":4163,"ĠhÐ°Ð²Ð°Ð»Ð´ÑıÑĢÐ°Ð½":4164,"Ð³Ð´ÐµÑĤÐ¾":4165,"ĠÐ¸ÑģÐ¿ÑĥÐ³Ð°Ð»":4166,"ĠÐ½Ð°ÑĩÐ¸Ð½Ð°Ð»Ð¸":4167,"Ð³Ð¸ÑĢÐºÑĥ":4168,"Ð¼ÑĥÐ¶ÑĩÐ¸Ð½":4169,"ĠÐ´ÑİÑĢÐ´ÑıÑĢ":4170,"ÓĪÐ½Ð°Ð¼":4171,"ĠhÑĥÑĤÑįÐ»Ð²Ð¸":4172,"ĠÐ¾Ð»Ð´Ð¾Ð²Ð¾":4173,"Ð±Ð°Ð»Ð´Ñĭ":4174,"ĠÐ´ÑıÐ¿ÐºÐ°Ð´Ó¯Ð½":4175,"ĠÑĤÑįÐ¿ÐºÑįhÐ¸Ð½ÑįÐ½":4176,"ĠÑįÐ¼ÑįÐ²ÑĥÐ¿ÐºÓ£Ð»":4177,"ĠÐ°Ð½ÓĪÐ°Ð½Ó£Ð»":4178,"ĠÐ¸Ð½ÑĤÐµÑĢÐ½Ð°ÑĤÑĤÓ¯":4179,"ĠÐ³ÑĥÐ»ÑįÐ»Ð´ÑĥÐ»Ð¾":4180,"ÑģÑĤÑįÐ²":4181,"ĠÐ¿ÑıÑĤÑĮÐ´ÐµÑģÑıÑĤ":4182,"ĠÐ°Ò£Ð°Ð½Ó£":4183,"ĠÐ¿Ð¾ÑĤÐ°Ð¿":4184,"ĠÐ½Ð°ÑĢÐ¾Ð´":4185,"ÑĩÓ£Ð»":4186,"ĠÐ´Ð²Ð°Ð´ÑĨÐ°ÑĤÑĮ":4187,"ĠÐ³Ð»Ð°Ð²":4188,"ĠÑıÐ³Ð¾Ð´Ñĥ":4189,"ĠÑĤÐ¾Ð»Ð³Ð¾ÐºÐ¸":4190,"ĠÐ±ÐµÐ´Ð½ÑĭÐ¹":4191,"ĠÐ½ÑİÓĪÑĥÐ½":4192,"ĠÑįÑģÑįÐ²":4193,"ĠÑĤÐµÐ»ÑıÑĤ":4194,"ĠÐ²ÑĭÑĢÐ¾ÑģÐ»Ð¸":4195,"ĠÐ¿Ð°ÑĢÐ½Ð¸":4196,"ĠÑħÐ°Ð²Ð°Ð»ÑĩÐ°":4197,"ĠÑģÐµÑģÑĤÑĢÑĭ":4198,"ÑįÐ½Ó£Ð¼":4199,"ĠÐ²ÑĢÐ°Ð³":4200,"ĠÑĥÑģÐ»ÑĭÑĪÐ°Ð»":4201,"ĠÐ¿Ð¾ÐºÐ¾Ð¹Ð½Ð°Ñı":4202,"ĠÑĩÐµÑĢÑĤ":4203,"ĠhÐ°Ð²Ð°Ð»Ð¸Ð»ÑĩÐ°":4204,"ĠÐ±ÄĵÐ³Ð°":4205,"ĠÐ´ÐµÐ»ÑıÑĤÑģÑı":4206,"ĠÐ¿Ð¾ÐµÐ´ÐµÐ¼":4207,"ÑĤÑĥÑĢÑĥÐ´Ó¯":4208,"ĠÑģÐ¾Ð±ÑĢÐ°Ð»Ð¸ÑģÑĮ":4209,"ĠÐ´ÑĢÑĥÐ³Ð°Ñı":4210,"ĠÐ±ÑĢÐ°ÑĤÑĮÐµÐ²":4211,"ÑįÑĢÑįÐ³ÑįÑĢÐ¸ÑĤ":4212,"Ð´ÐµÑĤÐµÐ¹":4213,"ĠÐ³ÑįÐ½Ð½Ð¾":4214,"ĠÑĤÐ¸ÑħÐ¾":4215,"ĠÐ´ÐµÐ±Ð´Ð¾":4216,"ĠÐ´ÑıÐ²ÑĥÑĩÐ°":4217,"ĠÑĢÐ°Ð·Ð¾Ð¶":4218,"ĠÑĢÐ°Ð·Ð¾ÑĪÐ»Ð¸ÑģÑĮ":4219,"ĠÑģÑĤÑĢÐµÐ»ÑıÐ¹":4220,"ĠÐ±ÑĥÑģÐ»ÑįÑĢÑį":4221,"Ð´ÑĢÐ°Ð»Ð¸":4222,"ÑĤÐ°Ð¹Ð³Ð°Ð´Ó¯":4223,"ĠÑĥÑģÑĤÐ°Ð²Ð°Ð½":4224,"ĠÑĥÐ¼Ð¸ÑĢÐ°ÑĤÑĮ":4225,"ĠÐºÐ°ÑĢÐ°Ð±Ð¸Ð½Ð¼Ñį":4226,"ĠÐ¸Ð½Ð´Ð¸ÑĩÅįÐ²ÑĥÐ½":4227,"ĠÐ¼ÑĥÐ¶ÑĩÐ¸Ð½Ñĭ":4228,"ĠÑģÑĤÑĢÐ°ÑĪÐ½Ð¾":4229,"ĠÐ°Ð±Ð´ÑĥÐ½Ð´ÑĥÐ»Ð°":4230,"ĠÐ½Ð¾ÑĩÑĮÑİ":4231,"ĠÐ´ÑĭÐ¼Ð¾ÐºÑĥ":4232,"ĠÐ²ÑģÑĤÑĢÐµÑĤÐ¸Ð»Ð¸":4233,"ĠÐºÑĢÐ°ÑģÐ½Ð¾ÑıÑĢ":4234,"ĠhÐ°Ð»Ð³Ð°":4235,"ĠÐ¿Ð¾Ð´Ð°Ð»ÑĮÑĪÐµ":4236,"ĠÑĢÐ°Ð±Ð¾ÑĤÑĭ":4237,"ĠÐ·Ð°Ð±ÑĭÐ»Ð°":4238,"ĠÐ´Ð¾ÑĢÐ¾Ð³Ðµ":4239,"Ð²ÐµÑĢÑĤÐ¾Ð»ÐµÑĤ":4240,"ĠÐ´ÑĢÑĥÐ·ÑĮÑı":4241,"ĠÑĤÐµÐ¿Ð»ÑĥÑİ":4242,"ĠÐ¼Ð¾Ð»Ð¾Ð´ÑĭÐµ":4243,"ĠÐ¿Ð¾ÑĤÐ°Ð¿Ð¾Ð²Ð¾":4244,"ĠÑģÐ¾Ð»Ð´Ð°ÑĤÑĭ":4245,"ĠÐ´Ó£ÑģÐºÓ£":4246,"ĠÑĥÐ´Ð°ÑĢÐ¸Ð»":4247,"ĠÑĥÑİÑĩÑį":4248,"ĠhÐ¾ÓĪÐ¾Ð´Ñĳ":4249,"ĠÐ³Ð°Ð½Ð°Ð»ÑĩÐ¸Ð»":4250,"ĠÐ»ÐµÐ¶Ð°ÑĤ":4251,"ĠÑģÑĤÑĢÐ¾Ð¸Ð»Ð¸":4252,"ĠÐ´ÑĳÑĢÐ¾Ð¼Ð¾":4253,"ĠhÑĥÑİÐºÑĥÐºÐ¾":4254,"Ð¾Ð´Ð½Ð°Ð¶Ð´Ñĭ":4255,"ĠhÐ¸ÓĪÐºÑįÑĢÓ£Ð´ÐµÑĢÑįÐ½":4256,"ĠÐºÑįÑĢÐ³ÑįÐ½":4257,"ĠÐ·Ð²ÐµÑĢÐµÐ¹":4258,"ĠÐ»ÑĭÐ¶Ð°":4259,"ĠÐºÐ°Ð¼ÑĭÑģÑĭ":4260,"ĠÐ·Ð°Ð±ÑĢÐ°Ð»Ð¸":4261,"ĠÐ²Ð°Ð¶ÐµÐ½Ð¾Ðº":4262,"ĠÐ²ÐµÑĢÐ½ÑĥÐ»Ð¸ÑģÑĮ":4263,"ĠÐ¾Ð³ÑĢÐ¾Ð¼Ð½ÑĭÐ¹":4264,"ĠÒ£Ð¾Ð»":4265,"ĠÐ¾Ð±ÐµÐ´":4266,"ĠÑĥÐ·Ð´Ñĥ":4267,"ĠÐ±Ð¸hÐ¸Ð»ÑĤÑį":4268,"ĠÐ½Ð°Ð¿Ð°ÑĢÐ½Ð¸":4269,"ĠÐ·Ð²ÐµÑĢÐ¾ÑĦ":4270,"ĠÐºÐ°Ð¶Ð´Ð¾Ð¼":4271,"ĠÑģÐ¾ÑĢÐ¾ÐºÐ¾Ð²Ð¾Ð¼":4272,"ĠÑħÐ»ÐµÐ±":4273,"ĠhÐ¾ÑĢÐ¸ÐµÐ½":4274,"ĠÑĥÐ»ÐµÑĤÐµÐ»":4275,"ĠÐ±Ð»Ð¸Ð·ÐºÐ¾":4276,"ĠÑģÐµÐ½ÑĤÑıÐ±":4277,"ĠÐ¿Ã¡ÑģÑĤÐ¸":4278,"ĠÐ¸Ð½Ð¾Ð³Ð´Ð°":4279,"ÑĢÐ¾ÑģÐ¾Ð¼Ð°ÑħÐ°":4280,"ĠÐºÐµÐ´ÑĢÐ¾Ð²ÑĭÐµ":4281,"ĠÐ½ÐµÐ¼Ð½Ð¾Ð¶ÐºÐ¾":4282,"ĠÑĢÐ°ÑģÑĤÐµÑĢÑıÐ»ÑģÑı":4283,"ĠhÐ¾Ð³Ð¾ÑĢÐºÓ£":4284,"hÑįÑĢ":4285,"hÐ¾ÑĢÐ¾":4286,"hÑĥÐ½Ð°":4287,"ĠÓĪÐ°Ð½":4288,"Ð°ÑĢ":4289,"Ð°Ð±":4290,"Ð°Ð»Ð°":4291,"Ð¾ÑĢ":4292,"Ð¾Ð½Ðµ":4293,"Ð¾Ð±ÑĢÐ°":4294,"Ð¾Ð¼Ð¾Ð»Ð³Ó£":4295,"Ð¾ÑĤÐµÑħ":4296,"ÑĤÑĥÐ½":4297,"ÑĤÑĤÐ¸":4298,"ÑĤÑĩÐ¸":4299,"ÑĤÄĵ":4300,"ÑĤÑĩÐµ":4301,"ÑĤÐ½ÑįÐ»":4302,"Ð¸Ð²":4303,"Ð¸Ð³":4304,"Ð¸ÓĪÐ¸Ð½":4305,"Ð½Ð´Ð°":4306,"Ð½ÐºÑį":4307,"Ð½Ð´ÐµÑĢÑį":4308,"Ð½Ð´ÐµÓĪÐ¾":4309,"Ð½ÓĪÓ¯ÐºÑĤÐ°":4310,"Ð½ÐµÐ½Ð¸Ðµ":4311,"Ð»Ð»Ð°":4312,"Ð»ÐºÐ°":4313,"Ð»Ð¼Ð¸":4314,"Ð»Ð³Ó£":4315,"Ð»Ð´ÑıÓĪÐ°":4316,"ÑįÐºÓ£":4317,"ÑįÑĤÑĥ":4318,"ÑįÓĪÐºÓ£ÑĤÑĭÐ½":4319,"ÑįÑħÓ£":4320,"ÑįÑĤÑĭÑĢÐºÑį":4321,"ÑĢÐ±Ñį":4322,"ÑĢÓĻ":4323,"ÑĥÑĢÑį":4324,"ÑĥÐ»Ð¾":4325,"ÑĥÑĢÐºÑį":4326,"ÑĥÑĩÐ¸ÑĤÑĮÑģÑı":4327,"ÑĥÐ¼Ð¸ÑĢÐ°":4328,"ÑĥÑĩÐ¸Ð»ÑģÑı":4329,"Ð´ÑĢÐµÐ¹":4330,"ÐºÑĢÑĥ":4331,"ÐºÐºÐ¸Ð½":4332,"ÐºÄģ":4333,"ÐºÑĤÑĥÐ»Ð°":4334,"ÐºÑĤÑįÐ»Ñį":4335,"ÑģÐ½Ð¸":4336,"ÑģÐºÑĥ":4337,"ÑģÑĤÐµ":4338,"ÑģÑĩÐ¾":4339,"ÑģÐ½Ñı":4340,"Ð²Ð»Ð¸":4341,"Ð²Ð³Ñĥ":4342,"Ð²ÑıÑĤ":4343,"Ð¼Ð½Ðµ":4344,"Ð¼Ð¸Ð½Ð°":4345,"ÑıÑģÑĮ":4346,"Ð³Ð»Ð¸":4347,"Ð³ÐµÐ½Ð¸Ñı":4348,"ÑĩÐµÐ½":4349,"ÑĩÐµÑģ":4350,"ÑĤÐ°Ð½":4351,"ÑĤÐ°ÐºÐ¸":4352,"ÑĤÐ°Ð¼Ð¸":4353,"ÑĤÐ°Ð²Ð°ÑĢ":4354,"ÑĤÐ¾Ð¹":4355,"ÑĤÐ¾ÑĢÐ°":4356,"ÑĤÐ¾ÑĩÐºÐ°":4357,"ĠÐ±ÐµÐ½":4358,"ĠÐ±ÑĢÑĥ":4359,"ĠÐ±ÑĢÐ¸Ð»ÑĮ":4360,"ĠÐ±ÑĢÑĭÐ·":4361,"ĠÑģÐ¸Ð½":4362,"ĠÑģÑİ":4363,"ĠÑģÑĢÐµ":4364,"ĠÑģÑĩÐ¸":4365,"ĠÑģÑĤÐµ":4366,"ĠÑģÐ½ÑıÐ»":4367,"Ó£Ð»Ð¾":4368,"ĠÐ½Ð¸Ð»":4369,"ĠÐ¾Ðº":4370,"ĠÐ¾ÐºÐ¸":4371,"ĠÐ¾Ð¿Ð¾":4372,"ĠÐ¾ÑģÐ¾":4373,"ĠÐ¾Ð´ÑıÐ²ÐºÓ£":4374,"ĠÐ¾hÐ¾ÑĤ":4375,"Ð¿Ñı":4376,"Ð¿Ð»Ð¸":4377,"Ð¿Ð»Ð¾":4378,"Ð¿ÑĩÑį":4379,"Ð¿ÑĩÐ¾":4380,"Ð¿Ð¸Ð»Ð¸":4381,"Ð¿Ð´ÐµÑĢÑį":4382,"Ð¿ÑĢÐ¸Ð½":4383,"Ð»Ð¸Ð½Ð°":4384,"Ð»Ð¸Ð²ÐºÓ£Ð»":4385,"Ð»Ð¸Ð»Ñı":4386,"Ð»Ð¸ÑģÐºÓ£":4387,"Ð»Ð¸ÑĦÐºÓ£Ð»":4388,"Ð»Ð¸ÑĤÑģÑı":4389,"Ð±ÐµÑĢÐµ":4390,"Ð±Ð»Ñĥ":4391,"Ð±Ð½Ð¾Ðµ":4392,"Ð±ÑĢÐ¸Ð³Ð°Ð´Ð¸":4393,"ĠÑįÐ½Ñĥ":4394,"ĠÑįÑģÐ¸":4395,"ĠÑįÑĩÐ¾":4396,"ĠÑįÑħÐ¸":4397,"ĠÑįÐ²ÐµÐ½ÐºÐ¸Ð¹":4398,"ĠÑįÐ²ÐµÐ½ÐºÐ¸Ð¹ÑģÐºÐ¸":4399,"ĠÑįÓĪÐºÓ£Ð²ÑĥÐ½":4400,"ĠÑįÐºÑģÑį":4401,"ĠÑįÐ²ÐºÐ¾":4402,"ĠÐ´ÑĢÐ¾":4403,"ĠÐ´Ð¼Ð¸":4404,"ĠÐ´Ð²Ñĥ":4405,"ĠÐ´Ð²ÐµÐ½":4406,"ĠÐ´Ð½ÐµÐ¼":4407,"ÑħÐ½Ñı":4408,"ĠÐ²ÐµÑĤÐµ":4409,"ÓĪÐ°Ð»":4410,"ÓĪÐ½ÐµÐ½":4411,"Ð»Ð°Ð²":4412,"Ð»Ð°ÐºÓ£":4413,"Ð¹Ð´ÐµÑĤ":4414,"Ð´ÐµÐ²":4415,"Ð´ÐµÐºÐ¾":4416,"Ð´ÐµÑĩÐ°":4417,"Ð´ÐµÑģÐ°":4418,"Ð´ÐµÓĪÐºÓ£ÑĤÑĭÐ½":4419,"Ð´ÐµÓĪÐ½ÑįÑĢÑįÐ²":4420,"Ð´ÐµÒ£ÐºÓ£ÑĤÑĭÐ½":4421,"Ð´ÐµÑĢÐ¸Ð»Ð²Ñį":4422,"ÐºÐ°Ð»Ð°":4423,"ÐºÐ°Ð²Ð°":4424,"ÐºÐ°ÑĩÐ°":4425,"ÐºÐ°ÐºÐ¸Ðµ":4426,"ÑĪÑį":4427,"Ð´Ð°Ð²":4428,"Ð´Ð°ÐµÑĤÑģÑı":4429,"Ð¸Ð½ÑįÐ½":4430,"Ð¸Ð½ÑĤÐµÑĢÐ½Ð°":4431,"ÑĢÐ°Ð±Ð¾":4432,"ÑĢÑįÐ½Ñį":4433,"ÑĢÑįÐ´Ñį":4434,"ÑĢÑįÐ¼Ó£":4435,"ĠÐ¸Ð²Ð°":4436,"ĠÐ¸Ð½Ñį":4437,"ĠÐ¸ÑĢÑįÐ½":4438,"ĠÐ¸Ð½Ðµ":4439,"ĠÐ¸Ð´ÐµÑĪÑĮ":4440,"ĠÐ¸Ð³ÑĢÑĥ":4441,"ĠÐ¼ÐµÐ½":4442,"ĠÐ¼Äĵ":4443,"ĠÐ¼Ð¸ÑĢ":4444,"ĠÐ¼ÐµÐ´":4445,"ĠÐ¼Ð¸ÑĤ":4446,"ÑĥÐ½Ñĥ":4447,"ÑĢÐ¾ÑĤ":4448,"ÑĢÐ¾Ð³Ð¾":4449,"ĠÑĤÐ°Ð»Ð°":4450,"ĠÑĤÐ°Ð³Ð°":4451,"ĠÐºÐµÐ¼":4452,"ĠÐºÑįÐ»Ñį":4453,"ĠÐºÐ¾Ð»ÐµÐ½":4454,"ĠÐ°Ð²Ð°":4455,"ĠÐ°ÑĢÑĥ":4456,"ĠÐ°Ð´Ð¸":4457,"ĠÐ°Ð´Ñĭ":4458,"ĠÐ°ÑĢÐ³Ð¸":4459,"ĠÐ°ÑħÐ¸":4460,"ĠÐ°Ð´Ó£":4461,"ĠÐ°Ð½Ð°Ð½":4462,"ĠÐ°Ð±Ð°ÑĩÓ£":4463,"Ð²Ð°ÑĤÐ¾":4464,"Ð²Ð°ÐµÑĪÑĮ":4465,"Ð²Ð°ÑģÐ¸Ð»Ð¸Ð¹":4466,"ĠÑĥÐ´Ð¸":4467,"ĠÑĥÐºÑĥ":4468,"ĠÑĥÐ²Ðµ":4469,"ĠÑĥÑģÐ¿Ðµ":4470,"ĠÑĥÐµÑħÐ°Ð»Ð°":4471,"ĠÑĥÑĩÐ¸Ð»Ð¸ÑģÑĮ":4472,"ĠÑĥÑĩÐµÐ½Ð¸":4473,"ĠÑĥÑģÑĤÐ°Ð»Ð°":4474,"ĠÑĥÐµÐ·Ð¶Ð°Ð»Ð¸":4475,"ĠÑĥÐ»ÐµÑĤÐ°":4476,"ĠÐ³Ó¯":4477,"ĠÐ³Ð¸Ð»":4478,"ĠÐ³ÑĢÐµ":4479,"ĠÐ³Ð½Ð°Ð»Ð¸":4480,"ÑİÑīÐ¸Ðµ":4481,"ÐºÓ£Ð´Ó¯":4482,"ÐµÐ½Ð°":4483,"ÐµÐ½ÑĤÑĮ":4484,"ÐµÐ½Ð½Ð¾":4485,"ÐµÐ½Ð½ÑĭÐ¹":4486,"Ð´ÑĥÐ¼Ð°":4487,"ÑĢÐ¸Ñģ":4488,"ĠhÓ¯":4489,"ĠhÑĥÐ½Ó£":4490,"ĠÐ¿Ð¾ÑĢÐ¾":4491,"ĠÐ¿Ð¾Ð·Ð²Ð°Ð»":4492,"Ð¶Ð½Ñĭ":4493,"Ð¶Ð´ÑĮ":4494,"Ð¶Ð½ÐµÐ½Ð¸Ðµ":4495,"Ð²Ð¾Ðµ":4496,"Ð²Ð¾Ð³Ð¾":4497,"Ð²Ð¾ÑģÑĤ":4498,"Ð²Ð¾Ð»Ñİ":4499,"Ð²Ð¾Ð»ÐºÐ¸":4500,"Ð³Ð¾Ð»Ñį":4501,"Ð³Ð¾Ð´Ð½Ð¾":4502,"Ð´Ó¯Ðº":4503,"ĠÐ±Ð¸Ñģ":4504,"ĠÐ±Ð¸Ð´ÐµÐ¼":4505,"ĠÐ±Ð¸ÑĦÐºÓ£Ð»":4506,"ĠÐ±Ð¸ÑĩÅį":4507,"ĠÐ±Ð¸Ò£ÐºÓ£Ð½":4508,"ĠÐ±Ð¸ÑĪÑĳ":4509,"ĠÐ½Ð°ÑĪÐ»Ð¸":4510,"ĠÐ½Ð°Ð·Ñĭ":4511,"ĠÐ½Ð°ÑĪÑĥ":4512,"ĠÐ½Ð°ÑģÑĤÐ°Ð»Ð°":4513,"ĠÐ½Ð°ÑħÐ¾Ð´Ð¸ÑĤ":4514,"ÑįÐ»ÑįÐ»":4515,"ÑįÐ»ÐºÐ¸":4516,"ĠÑĤÑĢÑĥ":4517,"ĠÑĤÄĵ":4518,"ĠÑĤÐµÑĤÐµ":4519,"ÐºÐ¸Ñģ":4520,"ÐºÐ¸ÑĤÑį":4521,"ÐºÐ¸Ð¼Ð¸":4522,"ÐºÐ¸ÑĤÑĤÑį":4523,"ÑĢÑĥÑİ":4524,"ÑĢÑĥÐºÐ¸":4525,"Ð½Ð°Ñģ":4526,"Ð½Ð°ÑĪÐ°":4527,"Ð½Ð°Ð»Ð¸Ð¼":4528,"Ð½Ð°Ð´ÑĨÐ°":4529,"Ð½Ð°Ð´ÑĨÐ°ÑĤÑĮ":4530,"Ð¼Ð°ÑİÑĤ":4531,"Ð¼Ð°ÐºÑģÐ¸":4532,"Ð»Ð¾Ðµ":4533,"Ð»Ð¾ÐºÐ¸":4534,"Ð½Ð¾Ð²Ð¸":4535,"Ð½Ð¾Ð¿ÑĤÑĭ":4536,"Ð½Ð¾Ð²Ð¸Ð»Ð¸ÑģÑĮ":4537,"Ð´Ð¸Ð¾":4538,"Ð´Ð¸ÑĢÐ°":4539,"Ð´Ð¸ÑĩÐ¾":4540,"Ð´Ð¸ÐºÐ¸Ñħ":4541,"Ð²ÑįÐ²":4542,"Ð²ÑįÑħÐ¸Ð½":4543,"ÑĩÐ°Ð¹":4544,"Ð¼Ð¾Ð½ÑĤÐ°":4545,"Ð´ÑıÑĢÑįÐ½":4546,"Ð´ÑıÐ¼Ó£":4547,"Ð´ÑıÐ¿ÐºÓ£":4548,"Ð´ÑıÐºÐ°Ð»":4549,"Ð´ÑıÑĦÐºÓ£":4550,"Ð´ÑıÒ£ÐºÓ£ÑĦ":4551,"Ð½Ð¸Ð»Ð¸Ð½":4552,"Ð½Ð¸Ð²Ð°ÑİÑĤ":4553,"Ð½Ð¸ÑĨÐµ":4554,"ÑħÐ¾Ð´":4555,"ÑħÐ¾Ð´Ð°":4556,"ÑħÐ¾Ð¶Ñĥ":4557,"ĠÐ·Ð¾":4558,"ÑĤÑįÑĢ":4559,"ÑĤÑįÑĢÑį":4560,"Ð¿Ð¾Ð´Ð°":4561,"Ð¿Ð¾ÑĢÐ¾":4562,"Ð¿Ð¾Ð±ÐµÐ¶Ð°Ð»":4563,"Ð¿Ð¾ÑĤÐ°Ð¿":4564,"ĠÐµÐ»":4565,"ĠÐµÑģÑĤ":4566,"ĠÐµÐ´ÐµÐ¼":4567,"ĠÐ½ÐµÐ¼Ñĥ":4568,"ĠÐ±ÑĭÐ²Ð°ÑİÑĤ":4569,"ÑģÐµÑģÑĤ":4570,"Ð½ÑĥÐ»Ð°ÑģÑĮ":4571,"ĠÑĤÐ¾ÑĢ":4572,"ĠÑĤÐ¾Ð²":4573,"ĠÑĤÐ¾Ð»Ð¸":4574,"ĠÑĤÐ¾Ð¿Ð¸":4575,"ĠÑĤÐ¾ÐºÑĤÐ¾":4576,"ĠÑĤÐ¾ÑĩÐ½Ð¾":4577,"ĠÑĤÐ¾Ð¿ÑĤÑĭ":4578,"ĠÑĤÐ¾Ð·Ð¾Ð²":4579,"Ð¼Ð¸ÑĤ":4580,"Ð¼Ð¸ÐºÑį":4581,"ĠÑĩÐ¾Ðº":4582,"ÓĪÐ°ÐºÐ°":4583,"ÐºÑĥÐ¹":4584,"ÑĢÐµÐ²":4585,"ÑĢÐµÐºÑĤÐ¾":4586,"Ð³Ð°ÑĢÑį":4587,"Ð³Ð°ÑİÑĤ":4588,"Ð³Ð°Ð½Ð°Ð»":4589,"ÐºÑįÐ²Ñį":4590,"ÐºÑįÐºÑį":4591,"Ð´ÑĥÐºÑĤÑĭÐ½":4592,"Ò£Ñĥ":4593,"Ò£Ð³Ñĥ":4594,"Ò£Ð½Ð°Ð¼":4595,"Ò£ÐºÐ¸Ð²ÑĥÐ½":4596,"Ð´Ð¾Ð´Ñĥ":4597,"Ð´Ð¾ÑĩÑĮ":4598,"ÑĤÐ¸Ð»Ð¸ÑģÑĮ":4599,"ĠÐ³Ð¾ÑĢÐµ":4600,"ĠÐ³Ð¾ÑĪÐ¸":4601,"ÑĩÐ¸ÐºÑįÐ»":4602,"ĠÑģÑĤÐ°Ð»Ð¸Ð½":4603,"ĠÑģÑĤÐ°Ð½Ð¾Ð²":4604,"ĠÑĤÑĥÐ³Ð¾":4605,"ĠÑĤÑĥÒ£Ð°":4606,"ĠÑĤÑĥÐ³Ð°Ð½Ó£":4607,"ĠÐ²Ð¾ÑİÑĤ":4608,"ĠÐ²Ð¾Ð¾Ð±":4609,"ĠÐºÐ¾Ð³":4610,"ĠÐºÐ¾ÑĢÐ¾":4611,"ĠÐºÐ¾ÑĢÐ¼Ð¸":4612,"Ð²ÑĥÐ½Ð¼Ñį":4613,"ÑģÐ¸Ð»Ð°":4614,"ÑģÐ¸Ð²ÐºÓ£Ð»":4615,"ÑģÐ¸Ð¿ÐºÐ°":4616,"ÑģÐ¸Ð²Ð°Ñı":4617,"ĠÐ½ÑĥÓĪÐ°":4618,"ÑģÐ¾Ð´Ð¾":4619,"ĠhÑĥÑĢÐºÐ¾":4620,"ĠhÑĥÐ»Ð°ÑĢÑį":4621,"Ð»ÑįÐ»Ð¸Ð¼":4622,"ĠÐ±ÑĥÑĢ":4623,"ĠÐ±ÑĥÑĢÑį":4624,"ĠÐ±ÑĥÐ´Ñį":4625,"ĠÐ±ÑĥÑģÐ¾":4626,"Ð²ÑĥÐ¼":4627,"Ð²ÑĥÑĪÐºÐ¸":4628,"Ð²ÑĥÐ¿ÐºÓ£":4629,"ÑīÐ¾":4630,"ÑīÐ½Ð¸Ðº":4631,"ÑħÐ°Ð½":4632,"ÑħÐ°Ñı":4633,"ÑħÐ°Ð²Ð°Ð»Ð¸":4634,"ĠÑĤÐ°ÑĢÐ³Ð¸ÑĤ":4635,"ÑĤÐµÑģÑĮ":4636,"ÑĤÐµÐ¾ÑħÐ¾":4637,"ĠÐ¼Ð¾ÑĢ":4638,"ĠÐ¼Ð¾ÐµÐ¹":4639,"ĠÐ¼Ð¾hÐ°":4640,"ĠÐ¼Ð¾Ð½Ð¼Ð¸":4641,"ĠÐ¼Ð¾Ð½ÓĪÓ£":4642,"Ð²Ð¸Ð»Ð°":4643,"Ð²Ð¸ÑĨÑĭ":4644,"ĠÐºÐ°Ð·Ð°":4645,"ĠÐºÐ°Ð¿Ñĥ":4646,"ĠÐºÐ°Ð¼Ð½Ð¸":4647,"ĠÐºÐ°Ð½Ð¸ÐºÑĥ":4648,"ĠÐ·Ð°Ð´":4649,"ĠÐ·Ð°Ð»Ð°":4650,"ĠÐ·Ð°ÐºÐ¾":4651,"ĠÐ·Ð°Ð¿Ð°":4652,"ĠÐ·Ð°Ð¼Ðµ":4653,"ĠÐ·Ð°Ð¿Ðµ":4654,"ĠÐ·Ð°Ð½Ð¸Ð¼Ð°":4655,"ĠÐ·Ð°ÐºÐ°Ð½ÑĩÐ¸":4656,"ÑĩÐ¾Ð²":4657,"ĠÐ¿ÑĢÐ¸Ð´Ñĥ":4658,"ĠÐ¿ÑĢÐ¸Ð²Ñĭ":4659,"ĠÐ¿ÑĢÐ¸ÑħÐ¾Ð´Ð¸Ð»":4660,"ĠÐ½Ð¸Ð·Ð¾Ð²":4661,"Ð±Ð¸Ð»Ð°ÑģÑĮ":4662,"ĠÑģÐ¾Ð²ÐµÑĤ":4663,"Ð³ÑįÑĢ":4664,"Ð³ÑįÑģÐ¸Ð½":4665,"ĠÐ´Ð¾Ð³Ð¾":4666,"ĠÐ´Ð¾Ð³Ð¾Ð½":4667,"ĠÐ´Ð¾Ð¶Ð´ÑĮ":4668,"Ð¼ÑĥÑĤ":4669,"Ð¼ÑĥÐ»Ð°":4670,"ĠÑħÐ¾Ð³Ð´Ñĭ":4671,"ĠÑħÐ¾ÑĤÐµÐ»Ð¸":4672,"ĠÑħÐ¾ÑĩÐµÑĤ":4673,"ĠÑħÐ¾Ð»Ð¾Ð´Ð½Ð¾":4674,"Ð±Ð¾Ð³Ð°":4675,"ÑģÑĤÐ°Ð½Ð¾":4676,"ÑģÑĤÐ°ÑĢÐ°Ñı":4677,"ÑįÐ»ÑįÑĤÑĭÐ½":4678,"ÑģÑĤÓ¯":4679,"ÑģÑĤÐ²Ð¾":4680,"ÑĪÐ¸ÑĤ":4681,"ÑĪÐ¸Ð²Ð°ÐµÑĤ":4682,"ÑĢÑĭÐ³Ð½ÑĥÐ»":4683,"ĠÐ´ÑİÐ¸":4684,"ĠÐ´ÑİÐ»":4685,"ĠÐ´ÑİÐ²Ð°":4686,"ĠÐ´ÑİÐ³Ó¯":4687,"ĠÐ´ÑİÐ´Ó¯Ð²ÑįÑĢ":4688,"ĠÐ´ÑİÐ´ÑĥÐºÐ¸Ð½":4689,"ĠÑįÐ¼ÑįÑģÐ¾":4690,"ĠÑįÐ¼ÑįÐ³Ñį":4691,"ĠÑįÐ¼ÑįÐ²ÐºÓ£Ð»":4692,"ĠÑįÐ¼ÑįÐ´ÐµÐ½":4693,"ĠÑįÐ¼ÑįÑĢÑįÐ²ÑĥÐ½":4694,"Ð·Ð°Ñģ":4695,"ÐµÐ½ÑĮÐµ":4696,"Ð±ÑĥÑĢÐ°Ð½":4697,"ÄĵÐ²Ð°":4698,"ĠÐ¾ÑĤÐºÐ°":4699,"ĠÐ¾ÑĤÐ²ÐµÑĢ":4700,"ĠÐ¾ÑĤÐ²ÐµÐ·":4701,"ĠÐ¾ÑĤÐºÑĥÐ´Ð°":4702,"ĠÐ¾ÑĤÑģÑĥ":4703,"ĠÐ¾ÑĤÐ´ÑĭÑħÐ°":4704,"Ð»ÐµÐ´":4705,"Ð»ÐµÐ²":4706,"Ð»ÐµÐ¸Ð¼":4707,"ĠÐ³ÑĥÐ½Ð¼Ð¸":4708,"ĠÐ³ÑĥÐ½Ð´ÐµÑĢÑį":4709,"ÑĦÐºÐ¾":4710,"ÑĦÐºÑį":4711,"ÑĦÐµÑģ":4712,"ÑĤÐ°ÑĢÑĤÑį":4713,"Ð±ÑĭÐ»":4714,"Ð½ÐµÐºÐ¾ÑĤÐ¾ÑĢÑĭ":4715,"Ð½ÐµÑģÐ»Ð¸":4716,"ĠÑħÐ²Ð¾ÑģÑĤ":4717,"Ð»ÑĥÐ²ÑįÑĢ":4718,"Ð³ÑĥÐ»ÑĥÐ²ÑĥÐ½":4719,"ĠÐ¾Ð½Ð¼ÑįÐ»":4720,"ĠÐ°ÓĪÐ¸Ð½":4721,"ĠÐ°ÓĪÐ¼Ð°":4722,"ÐºÑĥÐ½Ð°":4723,"ĠÐ´ÑıÐ´Ñı":4724,"ĠÐ´ÑıÐ»Ð´Ð°":4725,"ÐºÐ¸Ð½Ð´Ð°":4726,"ĠÐ²ÑĭÐ»Ðµ":4727,"ĠÐ²ÑĭÑĢÐ°Ð²":4728,"ĠÐ²ÑĭÑģÑĥ":4729,"ĠÐ²ÑĭÑĤÐ°Ñī":4730,"ĠÐ²ÑĭÑĤÐ°ÑģÐºÐ¸":4731,"Ð¼Ð¾ÐµÐ³Ð¾":4732,"ĠÑĪÐµ":4733,"ĠÑĪÐ»Ð¸":4734,"ĠÑĪÐµÑģ":4735,"ĠÑĪÑĤÐµÐ½":4736,"ĠÑĪÐµÑĢÑģÑĤÑĮ":4737,"ÓĪÑįÑĢÑį":4738,"ÓĪÑįÐ½Ó£":4739,"ĠhÐ°Ð¼Ð½Ó£":4740,"ĠhÐ°ÑıÐ»Ñį":4741,"ÐºÑįÐ»Ð»Ñĥ":4742,"ĠhÑįÓĪÐºÑį":4743,"Ð²Ð°Ð»ÑģÑı":4744,"ÓĪÐ¾ÐºÐ¾ÑĢ":4745,"ĠÐ¼Ð°Ð»Ð¾":4746,"ÑįÐ½Ñĳ":4747,"ĠÑĤÑįÐ¿Ñĥ":4748,"ĠÑĤÑįÑĤÑĭÐ³Ñį":4749,"ĠÐ¼ÑĭÑģ":4750,"ĠÑģÐºÐ°Ð¶Ð¸":4751,"ĠÐ¿ÑĢÐ¾Ñģ":4752,"ĠÐ¿ÑĢÐ¾Ð²ÐµÑĢ":4753,"ĠÐ¿ÑĢÐ¾ÑĪÐµÐ»":4754,"ĠÐ¿ÑĢÐ¾Ð²Ð°Ð»Ð¸":4755,"ĠÐ¿ÑĢÐ¾Ð¼Ñĭ":4756,"ĠÐ¿ÑĢÐ¾ÑĦÐµÑģ":4757,"ÑĩÐµÐ²Ñĭ":4758,"ÑĩÐµÐ²Ð°ÑĤÑĮ":4759,"ĠÐ±Ð¾Ð´Ð¾":4760,"ÑĤÐ°Ð´ÑĥÐºÑĤÐ°":4761,"ÐºÐ¾Ð½ÑĩÑĥ":4762,"ĠhÑĥÑĢÑĥÑģÑĳ":4763,"ĠhÑĥÑĢÑĥÐ²ÑģÐ¾":4764,"ĠÑĢÐµÑĩÑĮ":4765,"ĠÑĢÐµÐ±ÑĢÐ°":4766,"ĠÑĢÐµÐ²Ð¾Ð»Ñİ":4767,"Ð¾Ð½ÐºÑį":4768,"Ð±ÐµÐ´Ðµ":4769,"Ð±ÐµÐ³Ð°":4770,"Ð±ÐµÐ¶Ð°Ð»Ð¸":4771,"Ð¿Ð°ÐµÑĤ":4772,"Ð¿Ð°ÑģÑĤÑĥ":4773,"Ð¿Ð°Ð´Ð°ÐµÑĤ":4774,"ĠÐ±Ð°ÑĢ":4775,"ĠÐ±Ð°ÑĢÐ³Ð¸":4776,"ĠÐ²Ð°Ñģ":4777,"ÓĪÐ½ÑįÑĢÑįÐ½":4778,"ÑĪÐ°Ð¼Ð°":4779,"ĠÐ¸Ð½ÑĩÐ¾":4780,"ĠÐ¸Ð½Ð´ÐµÐ¼":4781,"ĠÐ½ÑĥÓĪÐ°Ð½Ð´ÑĥÐ»Ð°":4782,"ÑģÐ¿ÑĢÑı":4783,"ĠÑħÐ¾ÑĢÐ¾ÑĪÐ¸Ðµ":4784,"ĠÑĤÑĭÐ¿Ð°":4785,"ĠÐ¸Ð·Ð±Ñĥ":4786,"Ð»ÑıÑı":4787,"ÐºÑĤÐ°ÑĢÐ°":4788,"ĠÐ»Ð¾Ð²Ð¸Ð»Ð¸":4789,"ĠÐ»Ð¾Ð¶Ð°ÑĤÑģÑı":4790,"ĠÐ»Ð¾Ð²ÑĥÑĪÐºÐ¸":4791,"ĠÐ¾ÑĢÐ¾ÑĢÐ²Ñį":4792,"ĠÐ¾ÑĢÐ¾ÑĢÐ´ÑĥÐ»Ð°":4793,"ĠÑĩÑĥÐ¼Ð¸Ðº":4794,"ĠÐ½Ð¾Ð½Ð¾Ð¿ÑĤÑĭ":4795,"ÑĩÑĥÐ¼Ð°":4796,"ÑĩÑĥÐ»ÑĥÐº":4797,"ĠÐ±Ð¾Ð»ÑĮÑĪÐ¸Ð¼":4798,"ĠÑģÐ²Ð¾Ðµ":4799,"ĠÐ³Ð°ÑĩÐ°":4800,"ĠÐ³Ð°Ð´Ð°Ð½Ð´Ð°":4801,"ĠhÑįÐ»ÑįÑĤ":4802,"ĠÐ°ÓĪÐ¸ÑĢÐ°Ð½":4803,"ĠÐ°ÓĪÐ¸Ð´ÑıÐ½":4804,"Ð´ÑĮÐ¼Ð¸":4805,"Ð²ÑĭÑĤÐ°Ñī":4806,"ĠÐ¼ÑĥÑĩÐ°":4807,"ĠÐ¼ÑĥÑĩÑĥ":4808,"ĠÐ»ÐµÐ±ÐµÐ´Ðµ":4809,"ĠÑģÐ¸ÓĪÐ¸Ð»Ð³Ñį":4810,"ĠÐ»Ð¸ÑĪ":4811,"ĠÐ¿Ð°Ñģ":4812,"ĠÐ¿Ð°Ð»Ð¾Ðº":4813,"Ò»Ð¸Ð½Ñį":4814,"ÑĩÐ°ÑģÑĤÐ¾Ðº":4815,"ĠÐ¾Ð´Ð½Ð¾Ð³Ð¾":4816,"ĠÐ¾Ð´Ð½Ð¾Ð¼":4817,"Ð¿Ð¸ÑģÑĭÐ²Ð°Ð»Ð¸":4818,"ĠÑħÐ°Ð³Ð´Ð°":4819,"ĠÑħÐ°Ð½ÑĤÐ°Ð¹":4820,"ÑģÐ¸Ð½ÑįÐ½":4821,"Ð½ÑįÐ¼Ð´Ð°":4822,"ÑģÐ¸Ð»ÑĩÐ°":4823,"ĠÑĤÐ¾Ð³Ð´Ð°ÑĤÐ¾":4824,"ĠÐ´ÑįÑĢÑĥ":4825,"ĠÑĤÐµÑħ":4826,"ĠÐ¿Ð¾ÑĤÐ¾Ð¼Ñĥ":4827,"ĠÑĥÐ¼Ðµ":4828,"ĠÑĥÐ¼Ð½Ñį":4829,"hÐ¸Ð½ÑĩÑį":4830,"Ð½Ð¼ÑįÑĢ":4831,"ĠÐ°Ð¼Ð°Ð½Ñı":4832,"ĠÐ°Ð¼Ð°ÑĢÐ¸ÑĤÐ¿Ð¸":4833,"ÑĩÑĤÐ¾Ð±":4834,"ĠÑģÐ¿ÑĢÐ¾":4835,"ĠÑģÐ¿Ð¸Ð½Ñĥ":4836,"Ð¸Ð¼Ó¯":4837,"ĠÐ¾Ð±ÑĢÑĭÐ·":4838,"ĠÑįÐ»ÑįÐºÑį":4839,"Ð·ÑĭÐ²Ð°ÑĤÑĮ":4840,"hÑįÑĢÑį":4841,"Ð´ÑıÐ½ÑįÐ»":4842,"Ð´ÑıÐ½Ð´ÑĥÐº":4843,"Ð¼Ð¸Ð½Ð´Ó¯":4844,"ĠÐ³Ð¸ÑĢÐºÑĥÐ´ÑıÐ½Ð°":4845,"ĠÐ²ÐµÑīÐ°":4846,"ĠÐ½Ð°Ð²ÐµÑĢÑħ":4847,"ÄĵÐºÑĥÐ½Ð°":4848,"ĠÑĢÑĥÐ³Ð°":4849,"ĠÐ²Ð¸Ð´ÐµÐ»Ð¸":4850,"ĠÐ±ÐµÑĢÐµÑģÑĤÑı":4851,"ĠÐ¿ÐµÑĢÐµÐ²Ð¾Ð·Ð¸Ð»Ð¸":4852,"ĠÐ¿ÐµÑĢÐµÐ²Ð¾Ð´":4853,"ÓĪÐ¸Ð»ÑĤÑĭÐ½":4854,"ÑıÐ½ÑĤÑĭ":4855,"ĠÑĩÐµÐ»Ð¾Ð²ÐµÐºÑĥ":4856,"ĠÑģÑĤÐ¾Ð¸ÑĤ":4857,"ĠÑģÑĤÐ¾ÑıÐ»Ð¸":4858,"ÑģÐºÐ¾Ð¼":4859,"ÑģÐºÐ¾Ð²ÑĮÑı":4860,"ĠÑģÐ´ÐµÐ»Ð°Ð¹":4861,"ĠÐ¾ÑģÑĤÐ°Ð»ÑĮÐ½ÑĭÐµ":4862,"ĠÐ±ÐµÐ³Ñĥ":4863,"ĠÐ±ÐµÐ¶Ð°Ð»":4864,"ĠÐ±ÐµÐ¶Ð°ÑĤÑĮ":4865,"ĠÐ°ÑıÐ»Ð°":4866,"ĠÐ°ÑıÐ²ÑĢÑį":4867,"ĠÐ°Ð½Ð´ÑĢÐµÐ¹":4868,"ĠÑĤÐ¾Ð³Ð¾ÑĤ":4869,"ĠÑĤÐ¾Ð³Ð¾Ð¸":4870,"ĠÑģÐ¼Ð¾Ð³Ñĥ":4871,"ĠÑģÐ¼Ð¾Ð³Ð»Ð°":4872,"ĠÑģÐ¼Ð¾Ð¶ÐµÑĪÑĮ":4873,"ĠÑĢÐ°ÑģÑģÐºÐ°Ð·":4874,"ĠÑĢÐ°ÑģÑģÐºÐ°Ð·Ð°ÑĤÑĮ":4875,"ĠÐ´Ð¸ÐºÑĤÑį":4876,"ĠÐ´Ð¸ÑĢÐµÐºÑĤÐ¾":4877,"ĠÐ´Ð¾Ð»Ð¶Ð½Ñĭ":4878,"ĠÑĤÑįÐ³ÑįÑģÐ¸Ð»":4879,"ÑĩÐµÐ¼Ð±Ñĥ":4880,"ĠÐ³Ð¾ÑĢÐ¾Ð»Ð¾":4881,"Ð´ÑįÐ»Ó£":4882,"Ð´ÑįÐ»Ð¾Ð½":4883,"ÑĪÐ°ÑıÐ´Ó¯":4884,"Ð´ÑİÐ³Ð°Ð½Ó£":4885,"ĠÓĪÑįÐ½ÑįÐ´ÐµÐ½Ñį":4886,"ÑĨÐ¸Ñı":4887,"ĠÐ¾ÑģÑĤÐµÐ¾ÑħÐ¾":4888,"ĠÐ»Ð°Ð±Ð°":4889,"ÑģÑĭÐ½":4890,"ĠÑĢÑĭÐ±Ð°Ðº":4891,"ĠÑĢÑĭÐ±Ð°ÑĩÐ¸ÑĤ":4892,"ÑĤÑĩÐ°Ð¼Ð¸":4893,"ÑĤÑĩÐ°Ð²ÐºÓ£":4894,"ĠÐ¼Ð°Ð»ÐµÐ½ÑĮÐºÐ¾":4895,"ĠÐ¼Ð°Ð»ÐµÐ½ÑĮÐºÐ¾Ð¹":4896,"Ð³ÐµÐµÐ²":4897,"Ð³ÑĥÐ½Ñį":4898,"ĠÐ±Ð¸ÑĢÐ°Ð»Ð°":4899,"ĠÐ±Ð¸ÑĢÐ°Ð´Ó¯":4900,"ĠÐ±Ð¸ÑĢÐ°Ð»Ó£":4901,"ĠÑĤÑĥÑĢÑĥÐ´ÑĥÐº":4902,"ĠÑĤÑĥÑĢÑĥÑħÐ°Ð½":4903,"ĠÐ½Ð¸ÐºÑįÑĢÑį":4904,"Ð´Ð¾Ð»Ð±Ð¾":4905,"ÐºÑĥÑĢÐ²Ð¸":4906,"ĠÑħÑĥÑĢÑĥÑģÐ¾":4907,"ĠÐ¼Ð°Ð½Ð°Ð²ÑĥÐ»":4908,"ĠÐºÑįÑĤÑįÐºÐ¾":4909,"ĠÓ£Ð»Ð¾":4910,"Ð¾Ð¹Ð¾Ð¹":4911,"ÑĩÅįÑĤÑĭÐ½":4912,"ĠÑģÑĤÑĢÐµÐ»ÐºÐ¸":4913,"Ð¿ÑĢÐ¸ÑĪÐµÐ»":4914,"ĠÐ±ÑĥÐ»ÑĤÐ°Ð½Ð°":4915,"ĠÐ±Ð°Ð±ÑĥÑĪÐºÐµ":4916,"Ð¾ÑĢÐ¾ÑĢÐ²ÑĥÐ½":4917,"Ð³ÑĢÐ°Ð¼":4918,"ĠÐ¿ÑįÐºÑĤÑĭÑĢÐ¾":4919,"ĠÐ»ÐµÑĤÐ¸ÑĤ":4920,"ĠÐ±Ð°Ð»Ð´ÑĭÑģÐ°":4921,"ĠÐ¸ÑģÐµÑĢÑįÐ½":4922,"ĠÐ¸ÑģÐµÑĦÐºÑį":4923,"ĠÑĢÐµÐ±ÐµÐ½ÐºÐ°":4924,"ĠÑĢÐµÐ±ÐµÐ½ÐºÐ¾Ð¼":4925,"ĠÑĩÐ°ÑģÐ°":4926,"ĠÐ¾Ð³Ð¾ÑĢÐ¾":4927,"ĠÐ´ÐµÑĢÐµÐ²Ð°":4928,"ĠÐ´ÑĥÐ½Ð´ÑįÐ´Ó¯":4929,"ĠÐ¼ÐµÑĢÐ¾Ð¹":4930,"ĠÑĤÑĥÐ½Ð³Ñĥ":4931,"ĠÑģÑĤÐ°ÑĢÑĪÐ¸Ðµ":4932,"ĠÐ´Ð¾Ð±ÑĭÐ²Ð°ÑĤÑĮ":4933,"ĠÐ±Ð¾Ð»ÑĮÑĪÐ¾Ðµ":4934,"ĠÄĵÐºÑĥÐ½Ð¼Ð°Ð»":4935,"ÑĤÑĭÐ»Ð²Ð°":4936,"Ð¶ÐµÐ½Ð°":4937,"ĠÐµÐ·Ð´Ð¸Ð»Ð°":4938,"ÑģÐ¿ÐµÑĨÐ¸Ð°Ð»ÑĮÐ½Ð¾":4939,"ĠÐºÐ¾Ð½ÑĩÐ°ÑİÑĤ":4940,"ĠÐºÐ¾Ð½ÑĤÐ¾ÑĢÐ°":4941,"ĠÐ½Ð¸Ð¼ÓĪÐ°ÐºÐ°":4942,"ĠÐ´ÑĥÐ¼Ð°ÑĤÑĮ":4943,"ĠÐ´ÑĥÐ¼Ð°Ð¸Ð»":4944,"ĠÐºÐ»Ð°ÑģÑģÐ°":4945,"ĠÐºÐ»Ð°ÑģÑģÐ¿Ñį":4946,"ĠÐ±Ð¾Ð»ÐµÐ»":4947,"ĠÐ±Ð¾Ð»ÐµÐ·":4948,"ĠÐ±Ð¾Ð»Ð³Ð¸ÑģÑı":4949,"ÑģÐµÐ»ÐµÐ½":4950,"Ð°Ð¼Ó£Ð¼":4951,"Ð½Ð´Ó¯Ð¸":4952,"ĠÐ¸Ð»ÑĤÑį":4953,"ĠÐ¸Ð»ÐºÑį":4954,"ĠÐ°Ð¼Ð¸Ð½Ð¸Ð½":4955,"ĠÐ°Ð¼Ð¸Ð½Ð½Ñĥ":4956,"ĠÑģÐ°Ð¼Ð¾Ð¼":4957,"ĠÑģÐ°Ð¼ÑĭÐ¼":4958,"ĠÑģÐ°Ð¼ÑĭÑħ":4959,"ĠÑģÐ¾Ð±Ð¸ÑĢÐ°ÑĤÑĮ":4960,"ĠÑĦÐµÐ´Ð¾":4961,"Ð´ÑĨÐ°ÑĤÐ¾Ð³Ð¾":4962,"ÑģÓ£ÑĢ":4963,"ĠÐ³ÑĢÐ¸Ð±Ð¾Ðº":4964,"ĠÐ½Ð°ÑĩÐ°Ð»Ð°":4965,"ÐµÐ·Ð¶Ð°Ñı":4966,"ÑįÐ¼ÑįÑĢÑįÐ²":4967,"ĠÐ½ÑįÐºÓ¯":4968,"ĠÐ½ÑįÐºÐ½Ð¸Ð»":4969,"Ð¿ÐµÑĢÐµÑģÐµÐ»ÐµÐ½":4970,"ĠÑĥÐ²Ð¸Ð´ÐµÑĤÑĮ":4971,"Ð½Ð¸Ð¼Ð¸Ð»":4972,"ĠÑģÐ°ÑĢÑģÐ¸ÐºÐ°Ð½Ð¼Ñį":4973,"Ð½ÑİÑİ":4974,"ĠÑĥÐ±Ð¸ÑĤÑĮ":4975,"Ò£Ð½ÑįÑĢÑįÐ²":4976,"ÐµÐ»ÑĮÐºÐ°":4977,"ĠÐ¸Ð½Ð´ÐµÑĩÐ¾":4978,"ĠÐ·Ð°ÐºÐ¾Ð½ÑĩÐ¸Ð»Ð°":4979,"ĠÐ¿Ð¾Ð¼Ð¾Ð³Ð°ÑĤÑĮ":4980,"ĠÐ¿Ð¾Ð¼Ð¾Ð³Ð°Ð»Ð°":4981,"ĠÐ¿Ð¾Ð¼Ð¾ÑīÐ½Ð¸Ðº":4982,"ÑģÐ¾Ð±Ð°Ðº":4983,"ĠÑĥÐ»Ð³ÑĥÑĩÑį":4984,"Ð½Ð´Ð¸ÑĢÑį":4985,"ÑĥÐ¼ÑĥÐºÐ¾Ð½":4986,"Ð¼ÑĥÐ½Ð´Ó¯":4987,"ĠÐ³ÑĢÑĥÐ·Ð¸Ð»Ð¸":4988,"ÑĤÑĥÐºÐ´Ñį":4989,"Ð½Ð¼ÑĥÑĢÑįÐ½":4990,"ÑĢÐ³ÑįÐ¿ÑĩÑĥ":4991,"ĠÐ¿ÐµÑĤÑĮ":4992,"ĠÐ¿Ð»Ð¾ÑħÐ¾Ð¹":4993,"ĠÐ½Ð°ÑĩÐ¸Ð½Ð°ÐµÐ¼":4994,"Ð¼Ð°ÐºÑĤÐ°Ð»":4995,"ĠÐ±ÑĥÑģÑģÑį":4996,"ĠÑĪÐ°Ð¼Ð°Ð½ÐºÐ°":4997,"Ð½ÑĩÐ°Ð´ÐµÑĢÑįÐ½":4998,"ÑįÑĤÐ¸Ð¼":4999,"ĠÐ±ÐµÐ»ÐºÑĥ":5000,"Ð»Ð¸Ð»Ð³Ð°":5001,"ĠÑįÐºÐ¾Ð½Ð´Ñĥ":5002,"ĠÑĤÑĢÐ¾Ð³Ð°":5003,"ĠÓĪÐ¸Ð½Ð°ÐºÐ¸ÑĢÐ²ÑĥÐ½":5004,"ÑįÑĤÑįÑĢÑįÐ²":5005,"Ð¿ÑĢÐ°Ð²Ð´Ð°":5006,"ĠÐ²ÐµÐ·Ð»Ð¸":5007,"ĠÐ²ÐµÐ·ÐµÑĤ":5008,"Ð´ÐµÑģÑıÑĤÑĮ":5009,"ĠÐ±ÑĥÑĢÑĥÐ¼":5010,"ĠÐ±ÑĥÑĢÑĥÑĢÑįÐ½":5011,"ĠÑħÐ¾Ð´Ð¸Ð»Ð°":5012,"ĠÐ´ÑıÐ¿Ð´Ð°":5013,"ĠÐ´ÑıÐ¿ÐºÐ°Ð»Ð°":5014,"Ð¾ÑħÐ¾ÑĤÐ¸Ð»Ð¸ÑģÑĮ":5015,"ĠÐ¼Ð»Ð°Ð´ÑĪÐ¸Ðµ":5016,"ĠhÑĥÐ»Ð°Ð½Ð¼Ñį":5017,"ĠÐ°Ð½ÓĪÐ°Ð½Ó£Ð´Ó¯":5018,"ĠÑįÐ½Ñĳ":5019,"ĠÐ²Ð¾Ð»ÐºÐ°":5020,"ĠÐ²Ð¾Ð»ÐºÐ¸":5021,"ĠÐ¿ÐµÐ½ÑģÐ¸Ð¸":5022,"ĠÐ¿ÐµÐ½ÑģÐ¸Ñİ":5023,"ĠÐºÑĢÐµÐ¼":5024,"ĠÐºÑĢÐµÑģÑĤ":5025,"ĠÐ´ÑİÐºÑĩÐ°Ð»Ð°":5026,"ĠÐ´ÑİÐºÑĩÐ°Ð´Ó¯":5027,"ĠÐ¸Ð½ÑĤÐµÑĢÐ½Ð°ÑĤ":5028,"Ð±ÑįÐ¹ÓĪÐ¾":5029,"ĠÐ³ÑĥÐ»ÑįÐ»Ð´Ó¯":5030,"ĠÐ°ÑĢÐ¼Ð¸Ñİ":5031,"ÑĤÐ°ÑĢÐ¸ÓĪÐ¸Ð½":5032,"ĠÑģÐµÐ´Ð»Ð¾":5033,"ĠÐ¿Ð°Ð»ÑĮ":5034,"ĠÐ¸Ð¼ÐµÐ½Ð¸":5035,"ĠÐ°Ò£Ð°Ð½Ð¸":5036,"ĠÐ°Ò£Ð°Ð½Ó£Ð²Ñį":5037,"ĠÑĥÐ¹Ð´ÐµÐ¼":5038,"ĠÑĤÄģÐ´Ñĥ":5039,"ĠÐ³Ð¾ÑĤÐ¾Ð²ÑıÑĤ":5040,"ĠÐ·Ð°ÐºÐ»ÐµÐ¸Ð¼":5041,"ĠÐ°Ð¼Ð°ÑģÐºÓ£Ð²ÑįÑĢ":5042,"ĠÐ´ÐµÑĢÐµÐ²Ð½Ðµ":5043,"ĠÐ´ÐµÑĢÐµÐ²Ð½Ñİ":5044,"ĠÐ¸ÑģÐ¿ÑĥÐ³Ð°Ð»Ð¸ÑģÑĮ":5045,"ĠÐ°Ð»ÐµÐºÑģÐµ":5046,"ĠÐ³Ð»Ð°Ð·Ð°":5047,"ĠÐ²Ð¾ÑģÐ¿Ð¸ÑĤÐ°":5048,"ĠÐ¾ÑĤÐ¿ÑĥÑģÐºÐ°":5049,"ĠÐ¾ÑĤÐ¿ÑĥÑģÑĤÐ¸Ð»Ð¸":5050,"ĠÐ³ÑĥÐ½ÑįÐ¼":5051,"ĠÐ´ÑıÐ½ÑĤÐ°ÐºÐ¸":5052,"ĠÑħÐ°Ð²Ð°Ð»Ð¸Ð¼":5053,"ĠÐ¾Ð´ÐµÐ¶Ð´Ñĥ":5054,"ĠÑįÐºÑģÐ¿ÐµÐ´Ð¸ÑĨÐ¸Ñı":5055,"ĠÐ´ÐµÑĢÐ¶Ð°Ð»Ð¸":5056,"ĠÐ´ÐµÐ½ÑĮÐ³Ð¸":5057,"ĠÐ²Ð·ÑıÑĤÑĮ":5058,"ĠÑĤÐ°ÑģÐºÐ°ÐµÐ¼":5059,"ĠÐºÑĢÐ¸ÑĩÐ¸ÑĤ":5060,"ĠÐ°Ð±Ð³Ð°ÑĢÐ°":5061,"ĠÐ°Ð»Ð°Ð³Ñĥ":5062,"Ð½Ð¾Ð²ÑĮÑı":5063,"ÐºÑĥÓĪÐ°ÐºÐ°Ð½":5064,"ĠÐ²ÑĭÑĢÐ¾ÑģÐ»Ð°":5065,"ĠÐ´Ð°Ð²Ð°Ð¹ÑĤÐµ":5066,"ĠhÑįÑĢÐ³Ó£Ð½":5067,"ĠhÑįÑĢÐ³Ó£ÑģÐºÓ£":5068,"ĠÐ¿Ð°ÑĢÐµÐ½Ðµ":5069,"ĠÐ¿Ð°ÑģÑĤÑĥÐºÐ¸Ð»":5070,"ĠÑģÐ¿ÐµÑĨÐ¸Ð°Ð»ÑĮÐ½Ð¾":5071,"ĠÑģÐµÐ¼ÑĮÐ¸":5072,"Ð°Ð¼Ð¸Ð»Ð¸":5073,"ÑĤÄģÐ´ÑĥÐº":5074,"ÑĤÄģÐ»Äģ":5075,"Ð½Ð´ÑĥÐºÐ¿Ð¸":5076,"ĠÐ±ÑĢÐ¸Ð³Ð°Ð´Ð¸ÑĢÐ¾Ð¼":5077,"ĠÐ²ÑĢÐ°Ð³Ð¸":5078,"ĠÐ²Ð¼ÐµÑģÑĤÐ¾":5079,"ĠÐ¿Ð¾ÐºÐ¾Ð¹Ð½ÑĭÐ¹":5080,"ĠÑĪÐºÑĥÑĢÑĭ":5081,"ĠÒ»ÑĥÑĤÑį":5082,"Ð³Ð´Ð¾ÐºÐ¾":5083,"ĠÑģÐ»ÑĥÑĪÐ°":5084,"ĠÑģÐ»ÑĥÑĩÐ¸Ð»Ð¾ÑģÑĮ":5085,"ĠÐ²ÑĤÐ¾ÑĢÐ¾Ð¹":5086,"ĠÐ±Ð¸Ð¼ÑĩÑįÐ»":5087,"ĠÑĤÐµÐ¼Ð½Ð¾":5088,"ĠÐ¾ÑħÐ¾ÑĤÐ½Ð¸ÐºÐ°":5089,"ĠÑĤÑĥÐ½ÓĪÐ°Ð²Ð°":5090,"Ð½Ð´ÑĢÐ¾Ð·":5091,"Ð»Ð´Ó£Ð¼":5092,"ÑĢÐ³Ó¯ÑĤ":5093,"ĠÐ±Ð¸Ð½Ð¾":5094,"ĠÑįÐ´Ð¸ÓĪÑį":5095,"ĠÐ´ÑĥÐ½Ð½ÑįÐ»":5096,"ĠÐ°Ð¼ÑĤÑĭÐ»":5097,"ĠÐ¿Ð¾Ð´Ð¾Ð±Ð½Ð¾Ðµ":5098,"ĠÑĤÑĥÑĢÐ³Ð°":5099,"ĠÑĤÑĥÑĢÑģÐºÐ°Ñı":5100,"ĠÐºÐ¾Ð¼Ð½Ð°":5101,"ĠÐºÐ¾Ð¼Ð¼ÐµÑĢ":5102,"ĠÐ´ÐµÐ±Ð´ÐµÑĢÑį":5103,"ĠÐºÑĥÒ£Ð°ÐºÐ°ÑĢ":5104,"ĠÑĢÐ°Ð·Ð³Ð¾Ð²Ð°ÑĢÐ¸Ð²Ð°ÑĤÑĮ":5105,"ĠÑģÐ²Ð¾Ð¸Ð¼Ð¸":5106,"ĠÑĥÐ»Ð´ÑįÓĪÐ¸Ð»":5107,"ĠÑĢÑĥÐºÐ°Ð²Ð¸ÑĨÑĭ":5108,"ĠÐ²ÐµÑĢÑħÐ¾Ð¼":5109,"ĠÐ¾ÑģÑĤÐ°Ð²ÑĮ":5110,"ĠÐ±Ð¾Ð»Ð¾Ð½Ó£Ð´Ó¯":5111,"ÑĤÑĤÐµÑĢÑį":5112,"ĠÑģÐ»ÑĭÑĪÑĥ":5113,"ĠÑįÐ¼Ð¾Ð½Ð¼Ñĥ":5114,"ĠÐ´Ð»Ð¸Ð½Ð½ÑĭÐ¹":5115,"ĠÐ²ÑģÑıÐºÐ¾Ðµ":5116,"Ð¹ÑĤÐµÑģÑĮ":5117,"ĠÐ¸ÑĢÐ¸Ð½Ð°":5118,"ĠÐºÐ°Ð¿ÐºÐ°Ð½Ñĭ":5119,"ĠÑįÐ¼ÑįÐ½Ð¼ÑĥÑĢÑį":5120,"ĠÐ¾ÑĤÐºÑĢÑĭÑĤÑĮ":5121,"ĠÐ±Ð¾ÑıÐ»Ð¸ÑģÑĮ":5122,"ĠÑĢÐ°ÑģÑģÐ»Ð°":5123,"ĠÑĢÐ°ÑģÑģÐµÑĢ":5124,"ĠÑģÐ¿ÑĢÑıÑĤÐ°":5125,"ĠÑģÐ¿ÑĢÑıÑĤÐ°Ð»":5126,"ĠÑĤÐ°Ð¹Ð¼ÑĥÑĢÑĥ":5127,"ĠÐ¿Ð¾ÑģÐ»ÐµÐ´Ð½Ð¸Ð¹":5128,"ĠÑĤÑįÐ¿ÐºÑįÐ»Ð´ÑįÐ½":5129,"ĠÐ½ÑıÓĪÑĤÐ°":5130,"ĠÐ°Ð±Ð´ÑĥÐ½Ð´ÑĥÐº":5131,"ĠÑģÐ¿ÑĢÐ°ÑĪÐ¸Ð²Ð°ÑĤÑĮ":5132,"ĠÑģÐ¿ÑĢÐ°ÑĪÐ¸Ð²Ð°ÐµÑĤ":5133,"ÑģÐ¸Ð½ÑįÐ²":5134,"Ð¿Ð»ÑĭÐ»Ð¸":5135,"ĠÐºÑĢÐ¸ÐºÐ½ÑĥÐ»":5136,"ĠÐ¿Ð¾Ð´ÑĥÐ¼Ð°Ð»Ð°":5137,"ĠÐ½ÐµÐ²ÐµÑģÑĤ":5138,"ÐµÐ»ÐµÐµÐ»Ðµ":5139,"ĠÐ·Ð°Ð±Ð¾Ð»ÐµÐ»Ð°":5140,"ĠÑıÐºÑĥÑĤÑģÐºÐ°Ð¹":5141,"ĠÐ¾Ð±Ð¼Ð°Ð½ÑĥÐ»Ð°":5142,"ĠÓĪÑįÐ»Ð¸Ð²ÑģÐ¸":5143,"ĠÑģÐ¾Ð²ÑħÐ¾Ð·Ðµ":5144,"ÑģÑĩÑįÐ²ÑĥÐ½":5145,"Ð²ÑĤÐ¾ÑĢÐ°Ñı":5146,"ÑĩÄģÐ²ÑĥÐ½":5147,"ĠÐ¾ÑģÑĤÑĢÐ¾Ð³Ð¾Ð¹":5148,"ĠÑįÑıÐ´Ð°":5149,"Ð´Ð°Ð»ÐµÐºÐ¾":5150,"ĠÑĤÐ°ÑĤÐ¸Ð³Ð°":5151,"ĠÑĥÓĪÑĤÑĥÐ²ÑĥÐ½Ð¼Ð¸":5152,"ÑİÑīÐ¸Ñħ":5153,"ĠÐ¿Ð¾ÑħÐ¾ÑĢÐ¾Ð½Ð¸Ð»Ð¸":5154,"ĠÐ½Ð°ÑĥÑĩÐ¸Ð»":5155,"ĠhÑĥÐºÑĥÐ»Ð¾":5156,"ĠhÑĥÐºÑĥÐ»Ñį":5157,"ĠÐ·Ð°Ð±ÑĭÐ»":5158,"Ð¿Ð°Ð»Ð°ÑĤÐºÐ°":5159,"ĠÐ»Ð¾ÑģÐµÐ½ÐºÐ°":5160,"ĠÐ´ÑĢÑĥÐ·ÐµÐ¹":5161,"ĠÐ¶ÐµÐ½ÑīÐ¸Ð½Ðµ":5162,"ĠÑĢÐ°ÑģÑģÐºÐ°Ð·ÑĭÐ²Ð°ÑĤÑĮ":5163,"Ð³Ð¾Ð²Ð¾ÑĢÐ¸Ð»Ð¸":5164,"ĠÑģÑĤÑĢÐµÐ»ÑıÑĤÑĮ":5165,"ĠÐ¿Ð¾Ð¹Ð¼Ð°Ð»Ð¸":5166,"ĠÐ¿Ð¾Ð¿Ð»ÑĭÐ»Ð¸":5167,"ĠÐ¼Ð¾Ð»Ð¾Ð´ÑĭÑħ":5168,"ÑĢÑĮÐ´Ó¯":5169,"Ð²Ð´Ð²Ð¾ÐµÐ¼":5170,"Ð³ÑįÐ»Ó£":5171,"ĠÐ¾Ð¼ÓĪÐ¾":5172,"ĠÑĥÐ³Ó£ÑģÐºÓ£":5173,"ĠÐ³Ð»ÑĥÑħÐ°":5174,"ĠhÐ¸Ð»ÐºÐ¸":5175,"ĠÐ¿Ð¾Ð»Ð¸Ð³ÑĥÑģÑĤÑĥ":5176,"ĠÐ»ÑĮÐ´Ñĥ":5177,"ÑĢÐµÐ±ÐµÐ½Ð¾Ðº":5178,"ĠÐ²Ð¾ÑģÑĮÐ¼Ð¾Ð¼":5179,"ĠÐ¼Ð¾ÑģÐºÐ²Ð°":5180,"ĠÐ½Ð¸Ð¶Ð½ÐµÐ¹":5181,"ĠÑĢÐ¾Ð´Ð¸ÑĤÐµÐ»Ñı":5182,"ĠÐ»Ð¸ÑģÑĤÐ²ÐµÐ½Ð½Ð¸ÑĨÑĭ":5183,"ĠÑĢÑĥÑģÑģÐºÐ¸Ðµ":5184,"ĠÑĢÑĥÑģÑģÐºÐ¸Ñħ":5185,"ĠÐ½Ð¸ÐºÑįÑĢÑįÐ½Ð´Ñį":5186,"ĠÐ½Ð¸ÐºÑįÑĢÑįÐ½Ð´Ð¾":5187,"ĠÐ²ÑĭÑģÑĤÑĢÐµÐ»Ð¸Ð»Ð°":5188,"ÑģÐ²Ð¾Ð¸":5189,"Ð¼ÐµÐ´Ð²ÐµÐ´ÑĮ":5190,"ĠÑģÐ¿Ð¸ÑĤ":5191,"Ð±ÐµÑĢÐ³":5192,"ĠÐ¸ÑģÐºÐ°ÑĤÑĮ":5193,"ĠÐ¼Ð¾Ð»Ð´Ð°":5194,"ĠÐºÐ°ÐºÐ¾ÐµÑĤÐ¾":5195,"ĠÐ¿ÑĢÐ¸Ð»Ð¸Ð¿Ð»Ð¸":5196,"ĠÐ¾ÑĤÐ¿ÑĢÐ°Ð²Ð»ÑıÐ»Ð¸":5197,"ĠÐ¾ÑĤÐ¿ÑĢÐ°Ð²Ð¸Ð»Ð¸":5198,"ĠÑĪÐµÑģÑĤÑĮÐ´ÐµÑģÑıÑĤ":5199,"ĠÑģÐºÐ°Ð·ÐºÐ°":5200,"ĠÐ´ÐµÑĤÑģÑĤÐ²Ðµ":5201,"ĠÐ¼Ð°Ð»ÑĮÑĩÐ¸Ðº":5202,"ĠÐ¿ÑįÐºÑĤÐ¸":5203,"ĠÐ±Ó¯Ð½Ó£Ð´ÐµÑĢÑį":5204,"ĠÑħÑįÐ³Ð´Ð¸ÑħÑįÑĢÑįÐ½":5205,"ĠÑħÑĢÐ¸ÑģÑĤÐ¸Ð½Ð°":5206,"ĠÑĥÐ¼Ó¯Ð½ÑĥÐ¿ÑĤÑį":5207,"Ð¼Ð»Ð°Ð´ÑĪÐ¸Ð¹":5208,"ĠÑģÑıÑģÐºÓ£":5209,"ĠÐ¾ÐºÐ°Ð·ÑĭÐ²Ð°ÐµÑĤÑģÑı":5210,"ĠÑįÑĳÐºÓ£":5211,"ĠÐ¿ÑĢÐ°Ð²Ð´Ð°":5212,"ÑĪÐµÐ½ÑĮÐºÐ¾":5213,"ĠÐ¸ÐºÐ¾Ð½Ð´ÐµÐ²ÐºÓ£Ð»":5214,"ÑĢÐ¾Ð´Ð¸Ð»Ð°ÑģÑĮ":5215,"ĠÐ¿Ð¾Ð½Ð¸Ð¼Ð°ÑĤÑĮ":5216,"ĠÐ½Ð°Ð·Ð²Ð°Ð½Ð¸Ðµ":5217,"ÐµÑĢÐ¼Ð°Ð´Ó¯":5218,"Ð¿Ð¾ÑģÐ¼Ð¾ÑĤÑĢÐµ":5219,"ĠÑĤÐ¾ÑĢÐ¸Ð»Ð¸Ð½":5220,"ĠÐºÐ°ÑĢÐ¼Ð°Ð½":5221,"ĠÐ·Ð°Ð»Ð°ÑıÐ»Ð¸":5222,"ĠÑıÐºÑĥÑĤÐ¸":5223,"Ð´ÑıÐ½ÑĤÐ°ÐºÓ£":5224,"ĠÐ¿Ð¾ÑģÑĥÐ´Ñĥ":5225,"ĠÐ±Ð¾Ð»ÐµÑı":5226,"ĠÑĦÐµÐ²ÑĢÐ°Ð»Ðµ":5227,"ĠÑģÐ¿ÐµÑĨÐ¿ÐµÑĢÐµÑģÐµÐ»ÐµÐ½":5228,"ĠÐ°Ð»ÐµÐºÑģÐ°Ð½Ð´ÑĢ":5229,"ĠÐ¾Ð±ÑĬÐµÐ´ÐºÐ¸":5230,"Ð°Ð½ÑĤÑĭ":5231,"Ð°ÑĢÐ³Ð¸ÑĪÐ¸Ð»Ð¸":5232,"ĠÐ´ÑįÑĢÓ¯":5233,"ĠÑĤÐ°ÑīÐ¸Ð¼":5234,"ĠÑĥÐ·Ð½Ð°Ð»Ð°":5235,"ĠÐ½Ð°ÑĢÑıÐ´Ð½ÑĭÐµ":5236,"ĠÑĤÐ¾Ð¿Ð¾ÑĢÐ¾Ð¼":5237,"ĠÐ³Ð¾ÑĢÐ½Ð¾ÑģÑĤÐ°":5238,"ĠÑģÑĤÐ°ÑĢÐ¾ÑģÑĤÐ¸":5239,"ĠÐ´ÐµÐ¶ÑĥÑĢÐ¸":5240,"ĠÑģÐ°Ð½ÐºÐ°Ñħ":5241,"ĠÐ·Ð°ÑĢÑĥÐ±ÐºÐ¸":5242,"ĠÐ´Ð°ÑĢÐ¸Ð¼Ð°":5243,"ĠÐ¼ÐµÑĪÐ¾ÑĩÐµÐº":5244,"ĠÑĩÐ¸ÑģÑĤÑĭÐ¹":5245,"ĠÑģÑĥÑħÐ¾Ðµ":5246,"ĠÐ»ÑĭÐ¶Ð°Ñħ":5247,"ĠÐ±ÑĢÑĥÑģ":5248,"ĠÐ±ÑĢÐ¸Ð»ÑĮÑıÐ½ÑĤÑĭ":5249,"ĠÑįÐ²ÐµÐ½ÐºÐ¸Ð¹ÑģÐºÐ¸Ð¹":5250,"ĠÐ´Ð¼Ð¸ÑĤÑĢÐ¸":5251,"ĠÐ´Ð²ÐµÐ½Ð°":5252,"Ð¸Ð½ÑĤÐµÑĢÐ½Ð°ÑĤÑĤÓ¯":5253,"ĠÐ¸Ð²Ð°Ð½Ð¾Ð²Ð¸Ñĩ":5254,"ĠÐ¼ÐµÐ´ÑģÐµÑģÑĤ":5255,"ÐµÐ½ÑĤÑĮÐµÐ²":5256,"ĠÐ½Ð°ÑħÐ¾Ð´Ð¸ÑĤÑģÑı":5257,"ĠÑĤÑĢÑĥÐ´Ð°":5258,"ĠÑĤÄĵÑĤÄĵ":5259,"ĠÑģÑĤÐ°Ð½Ð¾Ð²ÑıÑĤÑģÑı":5260,"ĠÐ²Ð¾Ð¾Ð±ÑīÐµ":5261,"ĠÐ¾ÑĤÑģÑĥÑĤ":5262,"ĠÐ²ÑĭÑĢÐ°Ð²Ð½Ð¸Ð²Ð°ÑİÑĤ":5263,"ĠÑĪÑĤÐµÐ½Ð±ÐµÑĢÐ³":5264,"ĠÑĢÐµÐ²Ð¾Ð»ÑİÑĨÐ¸Ñı":5265,"ĠÐ±ÐµÑĢÐµÑģÑĤÑıÐ½Ð¾Ð¹":5266,"ĠÐ¾ÑģÑĤÐµÐ¾ÑħÐ¾Ð½Ð´ÑĢÐ¾Ð·":5267,"ĠÑĦÐµÐ´Ð¾ÑĢ":5268,"ĠÐ½ÑįÐºÐ½Ð¸Ð»Ð±Ð¸":5269,"ĠÐ°Ð»ÐµÐºÑģÐµÐµÐ²Ð½Ð°":5270,"ĠÐ¿Ð°ÑĢÐµÐ½ÐµÐº":5271,"ĠÓĪÑįÐ»Ð¸Ð²ÑģÐ¸Ð¿ÑĩÑĥ":5272,"ĠÑĢÐ¾Ð´Ð¸ÑĤÐµÐ»ÑıÐ¼Ð¸":5273,"ĠÐ¼ÐµÐ´ÑģÐµÑģÑĤÑĢÐ°":5274,"cÑĤÐ°":5275,"hÐ¸ÑĢ":5276,"Ìģ":5277,"ĠÑĩÐ°Ñģ":5278,"ĠÑĩÐ°Ð»":5279,"ĠÒ£Ð¸Ð½Ð°ÐºÐ¸ÑĢ":5280,"Ð°Ðº":5281,"Ð°Ñħ":5282,"Ð°ÑħÐ°":5283,"Ð°ÐºÐ¸Ð½":5284,"Ð°ÐºÑĤÐ¾":5285,"Ð°ÑħÐ°Ð»":5286,"Ð°ÐºÓ£Ð¼":5287,"Ð°ÑĢÐ¼Ð¸":5288,"Ð¾Ñģ":5289,"Ð¾Ð²Ð¾":5290,"Ð¾Ð³Ð¾":5291,"Ð¾Ð³Ð¾Ð½":5292,"ÑĤÐºÑįÐ»":5293,"ÑĤÑĢÑı":5294,"ÑĤÑĩÐ¸Ð»":5295,"ÑĤÐºÐ°ÑĢ":5296,"ÑĤÑĢÐ¾Ð½":5297,"Ð¸ÑĩÐ°":5298,"Ð¸Ð´ÑĥÐº":5299,"Ð¸ÑĢÑįÐ½":5300,"Ð¸Ð¿ÐºÓ£":5301,"Ð¸ÑģÐµÑĤ":5302,"Ð¸ÑģÑĤÐ°Ð½Ð¾":5303,"Ð½Ð½Ð¾":5304,"Ð½ÑĤÑį":5305,"Ð½Ñĳ":5306,"Ð½Ð´Ñĭ":5307,"Ð½Ð¼Ó£":5308,"Ð½Ð´ÐµÐ½Ñį":5309,"Ð½Ð½ÑĭÐµ":5310,"Ð½Ð¼ÑĥÐ½":5311,"Ð½ÑĩÐµÐ¼Ð±Ñĥ":5312,"Ð»Ð´Ðµ":5313,"Ð»ÑĤÑĭ":5314,"Ð»ÑĢÑį":5315,"Ð»Ð»Ð¾":5316,"Ð»Ð´Ñı":5317,"Ð»Ñĳ":5318,"Ð»ÐµÐ¼":5319,"Ð»ÑıÑĤÑĮ":5320,"Ð»Ð»Ð°Ð½":5321,"Ð»ÓĻ":5322,"Ð»ÑĩÑįÐ»":5323,"Ð»ÐµÐ½Ð¾":5324,"ÐµÑĤÐ¾":5325,"ÐµÑĤÑĭÐ½":5326,"ÐµÐ´Ñĭ":5327,"ÐµÐ³ÑĢÐ°Ð¼":5328,"ÑįÑħ":5329,"ÑįÑĢÑĥ":5330,"ÑįÐ±Ð¾":5331,"ÑįÐ²ÐµÐ½":5332,"ÑįÐ²Ð°Ð½":5333,"ÑįÐ¿ÐºÓ£":5334,"ÑįÑģÓ£":5335,"ÑįÓĪÑįhÓ£":5336,"ÑįÐ²ÐºÐ¾":5337,"ÑįÐ´ÑĭÐ½":5338,"ÑĢÑİ":5339,"ÑĢÐ»Ð¾":5340,"ÑĢÐ¸Ð½Ð°":5341,"ÑĢÐºÐ°Ð½":5342,"ÑĢÐ¸Ð½Ñį":5343,"ÑĢÐºÐ¾ÐºÐ¾":5344,"ÑĢÐ´ÑĥÐºÐ¸Ð½":5345,"ÑĥÐ»Ð¸":5346,"ÑĥÑģÐ¸":5347,"ÑĥÐ»Ñį":5348,"ÑĥÑģÑĤÐ°":5349,"ÑĥÐ¿Ð°Ð»":5350,"ÑĥÐºÑģÑį":5351,"ÑĥÑģÐ¸ÑĤ":5352,"ÑĥÑģÑĤÑį":5353,"ÑĥÑĩÐ¸Ð»Ð°ÑģÑĮ":5354,"ÑĥÑħÐ¾Ð´Ñı":5355,"Ð´ÑĢÑį":5356,"Ð´ÑįÐ»Ñį":5357,"Ð´Äĵ":5358,"Ð´Ð»Ñı":5359,"Ð´ÐºÐ¸Ð¹":5360,"ÐºÐ»Ð¸":5361,"ÐºÑĢÐ¾":5362,"ÐºÐ»Ð¾":5363,"ÐºÑĩÐ°Ð»":5364,"ÐºÑĤÐ¸Ð»":5365,"ÑģÐ¸Ð½Ð°":5366,"ÑģÐ¿Ð°":5367,"ÑģÐºÐ¾Ð¹":5368,"ÑģÑĬ":5369,"ÑģÑģÑĥ":5370,"ÑģÑĤÐµÑĢÐ¸":5371,"Ð²ÑģÑı":5372,"Ð²Ð´Ñį":5373,"Ð²Ð¸Ð½Ð°":5374,"Ð²ÑĢÐ°Ð½":5375,"Ð²Ð¸Ð½Ñĥ":5376,"Ð¼ÐµÐ½ÑĮ":5377,"Ð¼Ð½Ð¸Ð½":5378,"Ð¼ÐµÐ½Ð¸":5379,"ÑĭÐµ":5380,"ÑĭÐ¹":5381,"ÑıÐ½Ñĭ":5382,"ÑıÐ¼Ð°ÑĤ":5383,"Ð³ÑįÐ»Ñį":5384,"Ð³Ð»Ñĥ":5385,"Ð³Ð¸Ð½Ð°":5386,"Ð³Ð»Ñı":5387,"Ð³ÑĢÐ°Ð²":5388,"Ð³Ð´Ó£":5389,"ÑĩÄĵ":5390,"ÑĩÑĮÑı":5391,"ÑĤÐ°Ñı":5392,"ÑĤÐ°Ñħ":5393,"ÑĤÐ°ÑĢÐ¸Ð»Ð²Ñį":5394,"ĠÐ±Ó£":5395,"ĠÑģÓ¯":5396,"ĠÑģÐ¼Ðµ":5397,"ĠÑģÐµÑĢÐ´Ð¸":5398,"ĠÑģÐ½ÑıÐ»Ð¸":5399,"ĠÑģÐ½Ð°ÑĩÐ°Ð»Ð°":5400,"ĠÑģÐ·Ð°Ð´Ð¸":5401,"Ó£Ð²Ñĥ":5402,"ĠÐ¾Ð¸Ð½":5403,"ĠÐ¾Ð½Ñį":5404,"ĠÐ¾Ð¼Ð¸":5405,"ĠÐ¾Ð²ÐºÓ£":5406,"ĠÐ¾Ð±Ð¸":5407,"ĠÐ¾ÐºÑįÐ»":5408,"ĠÐ¾Ð´ÑıÐ¼":5409,"ĠÐ¾ÑĢÑĥÐ¶Ð¸":5410,"Ð¿ÑĥÐ½":5411,"Ð¿ÑĢÑĥ":5412,"Ð¿ÑĤÑĥ":5413,"Ð¿Ð»Ñı":5414,"Ð¿Ð½ÑĥÐ»":5415,"Ð¿ÑĢÐ¾Ð¼":5416,"Ð¿ÐºÑįÐºÑį":5417,"Ð»Ð¸Ñĩ":5418,"Ð»Ð¸Ð»Ð¸":5419,"Ð»Ð¸ÑĤÑį":5420,"Ð»Ð¸Ð²ÐºÓ£":5421,"Ð»Ð¸Ð½Ñĭ":5422,"Ð»Ð¸ÑģÑĭ":5423,"Ð»Ð¸ÓĪÐ½ÑįÑĢÑį":5424,"Ð»Ð¸Ð²ÑĭÐ¹":5425,"Ð±Ð´Ð°":5426,"Ð±Ð¸Ð»":5427,"Ð±ÑĢÐµ":5428,"Ð±Ð»Ñİ":5429,"ĠÑįÐ²":5430,"ĠÑįÑĩÐ°":5431,"ĠÑįÐ²Ð¸":5432,"ĠÑįÑĤÑĭÑĢ":5433,"ĠÑįÑģÐ¸Ð»":5434,"ĠÑįÓĪÐºÓ£Ð½":5435,"ĠÑįÐ´Ó£":5436,"ĠÑįÑĦÐºÓ£":5437,"ĠÑįÒ£ÐºÓ£Ð½":5438,"ĠÑįÐ¼ÑįÐ»":5439,"ĠÑįÓĪÑįÐ½Ó£":5440,"ĠÐ´Ó¯":5441,"ĠÐ´ÐµÐ½":5442,"ĠÐ´ÑĢÐ¾Ð²":5443,"ĠÐ´ÐµÐ½Ðµ":5444,"ÑħÑĤÐ¾":5445,"ÑħÐ¸Ð¼":5446,"ĠÐ²ÑģÑĤÐ°":5447,"ĠÐ²ÑģÑĤÐ°Ð»Ð¸":5448,"ĠÐ¿Ñı":5449,"ĠÐ¿ÑĢÐ°":5450,"ĠÐ¿ÑıÑĤ":5451,"ĠÐ¿Ð»ÐµÐ¼":5452,"ÓĪÑĭ":5453,"ÓĪÐºÐ°":5454,"ÓĪÐºÐ¾":5455,"ÓĪÐºÐ¸":5456,"ÓĪÐ¼Ð¸":5457,"ÓĪÐºÐ¾Ð½":5458,"ÓĪÐ¸Ð»Ð¸Ð½":5459,"Ð»Ð°ÑģÐ°":5460,"Ð»Ð°Ð²ÑįÑĢ":5461,"Ð»Ð°hÐ°":5462,"Ð¹ÐºÐ¾":5463,"Ð¹ÐºÓ£":5464,"Ð¹Ð´Ñı":5465,"Ð¹ÑģÑı":5466,"Ð¹Ð±Ð¸":5467,"Ð´ÐµÐ´":5468,"Ð´ÐµÐ½Ð¾":5469,"Ð´ÐµÐ²Ñĥ":5470,"Ð´ÐµÓĪÐ½Ñį":5471,"Ð´ÐµÓĪÐºÓ£Ð²ÑĥÐ½":5472,"Ð´ÐµÑĦÐºÓ£":5473,"Ð´ÐµÑģÐ¾Ð»":5474,"Ð´ÐµÑĩÐ°Ð²":5475,"Ð´ÐµÒ£Ð½ÑįÑĢÑįÐ²ÑĥÐ½":5476,"Ð´ÐµÒ£Ð½ÑįÐ¼":5477,"ÐºÐ°Ñħ":5478,"ÐºÐ°ÑĤÑĮ":5479,"ÐºÐ°ÐºÑĤÐ¾":5480,"ÑĪÑįÐ½":5481,"Ð´Ð°Ð»Ð¸ÑģÑĮ":5482,"Ð´Ð°ÑĤÑĮÑģÑı":5483,"Ð¸Ð½Ð¸":5484,"Ð¸Ð½Ð¾Ð¹":5485,"Ð¸Ð½Ð¼ÑįÐº":5486,"ÑĢÐ°ÓĪÐ¸Ð»":5487,"ÑĤÑĭÑĤ":5488,"ÑĤÑĭÑĤÑĭÐ½":5489,"ÑĤÑĭÐ¼Ó£":5490,"ÑĤÑĭÑģÑıÑĩÐ°":5491,"ÑĢÑįÑĤ":5492,"ÑĢÑįÐ²Ñį":5493,"ÐºÐ¾Ð¼Ð°":5494,"ÐºÐ¾ÐºÑĥ":5495,"ÐºÐ¾Ð²Ð°Ð»Ð¸":5496,"ÐºÐ¾ÐºÐ¾Ð½":5497,"ÐºÐ¾Ð»Ñĭ":5498,"ÐºÐ¾Ð²Ð°ÑĤÑĮ":5499,"ÐºÐ¾ÑĢÐ²Ñį":5500,"ÐºÐ¾Ð²ÑĭÐµ":5501,"ÐºÐ¾Ð¿Ñĭ":5502,"ÐºÐ¾ÑĩÐµÐ²Ñĭ":5503,"Ð·ÐµÑĤ":5504,"ĠÐ¸Ð»Ð¾":5505,"ĠÐ¸Ð´Ð¸":5506,"ĠÐ¸ÑģÑĳ":5507,"ĠÐ¸ÐºÑĤÑį":5508,"ĠÐ¸Ð´ÐµÐ¼":5509,"ĠÐ¸hÐ¸":5510,"ĠÐ¸Ð»ÑįÐ»":5511,"ĠÐ¸Ð³Ð¸Ð½":5512,"ĠÐ¸Ð»Ð¸Ð¼":5513,"ĠÐ¸Ð¼Ó¯":5514,"ĠÐ¸ÑģÐ¿Ð¾":5515,"ĠÐ¸Ð³Ð°ÑĢ":5516,"ĠÐ¸hÑįÐ»":5517,"ĠÐ¸ÑģÑĩÐ°":5518,"ĠÐ¼ÐµÑĢ":5519,"ĠÐ¼ÑĥÑĢÑĥ":5520,"ĠÐ¼Åį":5521,"ĠÑĤÐ°Ð²":5522,"ĠÑĤÐ°ÑĢÐ°":5523,"ĠÑĤÐ°Ð¼Ð°":5524,"ĠÑĤÐ°Ð³Ó£":5525,"ĠÐºÑĥÐ½":5526,"ĠÐºÐ°Ð»":5527,"ĠÐºÐ»Ñİ":5528,"ĠÐ°Ð½Ð¸":5529,"ĠÐ°ÑĤÑĭÑĢ":5530,"ĠÐ°Ð¹Ð¸":5531,"ĠÐ°Ò£Ð¸Ð»":5532,"ĠÐ°Ò»Ð°":5533,"ĠÐ°Ð¿ÑĢÐµ":5534,"ĠÐ°Ð»Ð¸Ðº":5535,"ĠÐ°Ð²Ð³Ñĥ":5536,"Ð²Ð°Ð²Ð°Ð»":5537,"ĠÑĥÐº":5538,"ĠÑĥÑģ":5539,"ĠÑĥÐ²Ð¾":5540,"ĠÑĥÐ¼Ð°":5541,"ĠÑĥÐ³Ð¸":5542,"ĠÑĥÐºÑĥÐ½":5543,"ĠÑĥÑĩÐµ":5544,"ĠÑĥÑģÐ¿":5545,"ĠÑĥÐµÐ·Ð¶Ð°":5546,"ĠÑĥÑħÐ¾Ð´ÑıÑĤ":5547,"ĠÑĥÐ³Ð»Ð°":5548,"ĠÑĥÑħÐ¾Ð´Ð¸Ð¼":5549,"ĠÑĥÐµÐ´Ó¯":5550,"ĠÑĥÑĢÑĥÐ½":5551,"ĠÑĥÐ³Ð¾Ð´Ð½Ð¾":5552,"ĠÑĥÑĢÐ³ÑįÐ¿ÑĩÑĥ":5553,"ĠÐ³Ð¸ÑĢÐ°":5554,"ĠÐ³Ð»Ð¸Ð½Ñĭ":5555,"ÑİÐºÑĥ":5556,"Ð´ÑĥÑĤÐ¾":5557,"Ð´ÑĥÐºÑĥ":5558,"Ð´ÑĥÐ³Ð°":5559,"Ð´ÑĥÐ²Ð¸":5560,"Ð´ÑĥÑħÑĥ":5561,"Ð´ÑĥÑĢÓ¯":5562,"Ð´ÑĥÐ¹Ó£":5563,"ÑĢÐ¸Ð»Ð¸":5564,"ÑĢÐ¸Ð¹":5565,"ÑĢÐ¸ÑĢÑįÐ½":5566,"ÑĢÐ¸ÑĩÐ°Ð»":5567,"ĠhÐ¾Ð»":5568,"ÑĤÑĮÐµ":5569,"ĠÐ¿Ð¾Ñĩ":5570,"ĠÐ¿Ð¾Ð¿Ð¾":5571,"ĠÐ¿Ð¾ÐºÑĥ":5572,"ĠÐ¿Ð¾ÐµÐ»":5573,"ĠÐ¿Ð¾Ð³Ð¸":5574,"ĠÐ¿Ð¾ÑİÑĤ":5575,"ĠÐ¿Ð¾Ð»ÐµÑĤ":5576,"ĠÐ¿Ð¾ÑįÑĤÐ¾Ð¼Ñĥ":5577,"ĠÐ¿Ð¾ÑģÑĤÐ°Ð²":5578,"ĠÐ¿Ð¾Ð½ÑıÐ»Ð¸":5579,"ĠÐ¿Ð¾Ð½ÑıÐ»":5580,"ĠÐ¿Ð¾Ð¸Ð³ÑĢÐ°":5581,"Ð¶Ð½Ð¸":5582,"Ð²Ð¾Ð»":5583,"Ð²Ð¾Ð´Ð°":5584,"Ð²Ð¾ÑģÐµÐ¼ÑĮ":5585,"Ð³Ð¾Ð»Ð¾":5586,"Ð´Ó¯Ð²":5587,"Ð´Ó¯Ð¹Ð¸":5588,"ĠÐ±Ð¸Ð´":5589,"ĠÐ±Ð¸Ð´Ð°":5590,"ĠÐ±Ð¸ÑĤÑĮ":5591,"ĠÐ±Ð¸ÑģÐµ":5592,"ĠÐ±Ð¸ÓĪÐºÓ£Ð²ÑĥÐ½":5593,"ĠÐ±Ð¸ÑħÑį":5594,"ĠÐ±Ð¸ÑĩÅįÐ½":5595,"ĠÐ±Ð¸ÑīÐ¾":5596,"ĠÐ½Ð°ÑĢ":5597,"ĠÐ½Ð°Ð´":5598,"ĠÐ½Ð°ÑĪÐµ":5599,"ĠÐ½Ð°ÑĪÐ°":5600,"ĠÐ½Ð°ÑħÐ¾Ð´Ð¸":5601,"ĠÐ½Ð°Ð³ÑĢÑĥ":5602,"ĠÐ½Ð°Ð·ÑĭÐ²Ð°Ð»Ð¸":5603,"ĠÐ½Ð°ÑĪÐµÐ³Ð¾":5604,"ĠÐ½Ð°ÑĢÑĤÐ°":5605,"ĠÐ½Ð°Ð·Ð°Ð²ÑĤÑĢÐ°":5606,"ĠÐ½Ð°ÑħÐ¾Ð¶Ñĥ":5607,"ĠÑĤÐµÑĤ":5608,"ĠÑĤÐ¸ÑĢ":5609,"ÐºÐ¸Ð²Ñį":5610,"ÐºÐ¸Ð»Ð¸Ð½":5611,"ÐºÐ¸ÓĪÐ³Ð¸ÑĤ":5612,"ÑĢÑĥÐºÐ¸Ð½":5613,"Ð½Ð°Ð²ÐµÑĢ":5614,"Ð½Ð°ÑĢÐ°Ð½":5615,"Ð½Ð°Ð²Ð»Ð¸":5616,"Ð¼Ð°Ðº":5617,"Ð¼Ð°Ð½Ð°":5618,"Ð¼Ð°ÑĤÐ¸":5619,"Ð¼Ð°ÑĤÐµÑĢÐ¸":5620,"ÐµÑĤÐºÐ¾":5621,"ÐµÑĤÐ²ÐµÑĢ":5622,"Ð½Ð¾Ðº":5623,"Ð½Ð¾ÑĩÑĮ":5624,"Ð½Ð¾ÑĩÐºÐ°":5625,"Ð´Ð¸Ð¸":5626,"Ð´Ð¸Ð¼Ð¾":5627,"Ð´Ð¸ÑĤÑĭÐ½":5628,"Ð´Ð¸ÑĢÑįÐ½":5629,"Ð´Ð¸Ð²Ð¸":5630,"ÑĩÐ°Ð½":5631,"ÑĩÐ°Ð»Ð°":5632,"ÑĩÐ°Ð¼Ð°":5633,"Ð¼Ð¾Ð½":5634,"Ð¼Ð¾ÑĤÑĭÐ½":5635,"Ð¼Ð¾Ð½Ð¸Ð½":5636,"Ð¼Ð¾Ð²Ð°ÑĤÑĮ":5637,"Ð´ÑıÐºÐ°":5638,"Ð´ÑıÐ´Ð°":5639,"Ð´ÑıÑĩÐ°":5640,"Ð´ÑıÑĦÐºÓ£Ð»":5641,"Ð´ÑıÓĪÐºÓ£Ð²ÑĥÐ½":5642,"Ð´ÑıÒ£ÐºÓ£Ð½":5643,"Ð½Ð¸Ð²":5644,"Ð½Ð¸Ð»Ð°":5645,"Ð½Ð¸Ð¹":5646,"Ð½Ð¸ÐµÐ¼":5647,"Ð½Ð¸ÐºÐ¸Ð»":5648,"Ð½Ð¸ÐºÐ°Ðº":5649,"Ð½Ð¸ÐºÑĥÐ´Ð°":5650,"Ð½Ð¸Ò£ÐºÓ£Ð½":5651,"Ð½Ð¸Ð´ÑĭÐ¼":5652,"ÑħÐ¾ÑĤÑĮ":5653,"ÑħÐ¾Ð¼Ð¾":5654,"ÑħÐ¾ÑĤÐµ":5655,"ÑħÐ¾ÑĤÐµÐ»":5656,"ÑħÐ¾ÑĢÑĮÐµ":5657,"Ð½ÑįÐ»Ð°":5658,"Ð½ÑįÐ´Ó¯":5659,"Ð¸Ð»ÑĮ":5660,"Ð¸Ð»Ð¼Ð°ÐºÑĤÐ°":5661,"Ð°Ð»ÑįÑĤÑĭÐ½":5662,"Ð¿Ð¾Ðµ":5663,"Ð¿Ð¾Ñı":5664,"Ð¿Ð¾ÑģÑĤÐ¾":5665,"Ð¿Ð¾ÐµÑħÐ°Ð»":5666,"Ð¿Ð¾ÐµÑħÐ°Ð»Ð°":5667,"Ð¿Ð¾Ð½ÑıÐ»Ð¸":5668,"ĠÐµÐ´Ð°":5669,"ĠÐµÐ»Ðµ":5670,"ĠÐµhÐ¾":5671,"ĠÐµÐ»Ð´Ð¾":5672,"ĠÐµÐ½ÑĩÐµÐ¼Ð±Ñĥ":5673,"ĠÐµÑħÐ¾ÑĢÑĮÐµ":5674,"ĠÐ½ÐµÐ²Ð¾Ð·":5675,"Ð¼Ð¸ÑĤÑį":5676,"Ð¼Ð¸ÑĢÑįÐ½":5677,"Ð¼Ð¸ÑĤÐµ":5678,"ĠÑĩÐµÑĤÐ²ÐµÑĢ":5679,"ÓĪÐ°ÑģÐ°":5680,"Ð¼ÑįÑģ":5681,"Ð¼ÑįÐ¹":5682,"ÐºÑĥÑģÐ°":5683,"ÐºÑĥÑĤÑĤÑį":5684,"ÑĳÑĤÐ¾":5685,"ÑĳÐ¹":5686,"ÑĢÐµÐ²Ð½Ð¾":5687,"ÑĢÐµÐ¼Ð¾Ð½ÑĤÐ°":5688,"Ð³Ð°ÑĢÑĥ":5689,"ÐºÑįÐ½":5690,"ÐºÑįÑĢ":5691,"ÐºÑįÐºÐ¾":5692,"ÐºÑįÐºÐ¾Ð½":5693,"ÐºÑįÑĢÐ³Ñį":5694,"ÐºÑįÓĪÐ¸Ð»Ñį":5695,"Ð´ÑįÐ²Ñį":5696,"Ò£ÑĥÐ½":5697,"Ò£ÐºÑį":5698,"Ò£ÐºÐ¸Ð½":5699,"Ò£ÐºÑįÐ»":5700,"Ð´Ð¾Ð²":5701,"Ð´Ð¾Ñħ":5702,"Ð´Ð¾Ð³Ð½Ð°Ð»":5703,"Ð´Ð¾Ð²Ð¾Ð³Ð¾":5704,"ĠÐ¶Ð¸ÑĢ":5705,"ĠÐ¶Ð´Ð°ÑĤÑĮ":5706,"ÑģÐ°Ð¼Ñĭ":5707,"ÑĤÐ¸Ð¹":5708,"Ð³Ð¸Ðµ":5709,"Ð³Ð¸Ð²":5710,"Ð³Ð¸Ð¼":5711,"Ð³Ð¸Ð»Ð¸Ð¼":5712,"ĠÐ³Ð¾ÑģÑĤÐ¸":5713,"ÑĩÐ¸Ð²":5714,"ÑĩÐ¸ÐºÐ°":5715,"ÑĩÐ¸ÑģÑĤÐ¾":5716,"ÑĩÑįÐ½":5717,"ÑĩÑįÑĢÑį":5718,"ÑĩÑįÐ¼ÐºÐ°":5719,"ĠÑģÑĤÐ°Ð²Ð¸Ð»Ð¸":5720,"ĠÑģÑĤÐ°ÑĢÐ¾Ð¹":5721,"ĠÑģÑĤÐ°Ð½ÑĥÑĤ":5722,"ĠÑģÑĤÐ°ÑĢÑĭÐ¹":5723,"ĠÑĤÑĥÑĢÐ°":5724,"ĠÑĤÑĥÑĢÑį":5725,"ĠÑĤÑĥÑĢÐ¾":5726,"ĠÑĤÑĥÐ³Ð´Ð°":5727,"ĠÑĤÑĥÐ»Ó£":5728,"ĠÑĤÑĥÐ°Ð»ÐµÑĤ":5729,"ĠÑĢÐ°Ð¹":5730,"ĠÑĢÐ°Ð´Ñĥ":5731,"ĠÑĢÐ°ÑģÑĤ":5732,"ÑĤÑĥÐºÑĤÑį":5733,"ÑĤÑĥÐ°Ð»ÐµÑĤ":5734,"ÑĤÑĥÐ»Ð¸ÑģÐºÓ£":5735,"ĠÐ²Ð¾Ð´Ñĭ":5736,"ĠÐ²Ð¾ÑİÑīÐ¸Ñħ":5737,"ĠÐºÐ¾ÑĢ":5738,"ĠÐºÐ¾Ð¼Ð°":5739,"ĠÐºÐ¾ÑģÑĤÐµÑĢ":5740,"ĠÐºÐ¾ÑĩÐµÐ²Ð°Ð»Ð¸":5741,"Ð²ÑĥÐ½Ð´Ð°":5742,"Ð´ÑĭÐ»Ð°":5743,"Ð´ÑĭÐ¼Ðµ":5744,"ÐµÐ¼ÑģÑı":5745,"ÐµÐ¼Ð±Ñĥ":5746,"ÑģÐ¸ÑĦÐºÓ£Ð»":5747,"ÑģÐ¸Ð²ÐºÐ°":5748,"ĠÐ½ÑĥÐ»Ðµ":5749,"ĠÐ´ÐµÐ´":5750,"ÑģÐ¾Ð±Ð¾Ð»":5751,"ÑģÐ¾ÑĢÐ¾Ðº":5752,"ĠhÑĥÑĤÐ°":5753,"ĠhÑĥÒ£ÑĤÑĥ":5754,"Ð»ÑįÐ²ÑįÑĢ":5755,"ĠÐ±ÑĥÑĢÐ°":5756,"ĠÐ±ÑĥÑģÑĳ":5757,"ĠÐ±ÑĥÑĩÐ¾":5758,"ĠÐ±ÑĥÑĢÐ°Ð½":5759,"ĠÐ±ÑĥÑĤÑĤÑį":5760,"Ð²ÑĥÑĢ":5761,"Ð²ÑĥÑĢÐ°":5762,"Ð²ÑĥÑİ":5763,"Ð²ÑĥÑĤÑĤÑį":5764,"Ð²ÑĥÐ¿ÐºÓ£Ð»":5765,"ĠÑģÐ°Ð´Ñĥ":5766,"ĠÑģÐ°Ð²Ð¾":5767,"ĠÑģÐ°Ð½Ð¸":5768,"ĠÑģÐ°Ð¼Ñĥ":5769,"ĠÑģÐ°Ð¼Ð¾Ð¹":5770,"ĠÑģÐ°Ð¿Ñĥ":5771,"ĠÑģÐ°Ð½ÑıÑħ":5772,"ÑīÐ¸Ñħ":5773,"ÑīÐµÐ½Ð¸Ðµ":5774,"ÑīÑĥÑİ":5775,"ÑħÐ°Ð²Ð°Ð»Ð´Ñı":5776,"ĠÑĤÐ°ÑĢÐ´Ð°":5777,"ÑĤÐµÐ²ÑįÑĢ":5778,"ĠÐ¼Ð¾Ð»Ð¸":5779,"ĠÐ¼Ð¾Ð³Ð»Ð°":5780,"ĠÐ¼Ð¾ÑĢÐ¾Ð·":5781,"Ð²Ð¸ÑĤÐµ":5782,"Ð²Ð¸ÑĤÑĮÑģÑı":5783,"ĠÐ·Ð°Ñı":5784,"ĠÐ·Ð°Ð±Ð¸ÑĢÐ°":5785,"ĠÐ·Ð°ÑĩÐµÐ¼":5786,"ĠÐ·Ð°ÑīÐ¸":5787,"ĠÐ·Ð°Ð´Ð¾Ð¼":5788,"ĠÐ·Ð°ÑħÐ¾Ð´ÑıÑĤ":5789,"ĠÐ·Ð°Ð²ÑĤÑĢÐ°":5790,"ĠÐ·Ð°Ð±Ð»Ñĥ":5791,"Ð²ÐµÑģÑĮ":5792,"Ð²ÐµÑīÐ¸":5793,"ĠÐ¿ÑĢÐ¸ÐµÐ¼":5794,"ĠÐ¿ÑĢÐ¸ÐºÐ¾Ð½":5795,"ĠÐ¿ÑĢÐ¸Ð»ÐµÑĤ":5796,"ĠÐ¿ÑĢÐ¸ÐµÐ·Ð¶Ð°":5797,"ĠÐ¿ÑĢÐ¸ÑħÐ¾Ð´ÑıÑĤ":5798,"ĠÐ¿ÑĢÐ¸ÑĩÐ°Ð»Ð¸":5799,"ĠÐ¿ÑĢÐ¸ÐºÐ°Ð½ÑĩÐ¸":5800,"ĠÐ¾Ð»Ð³Ð¾":5801,"ĠÐ½Ð¸ÐºÐ°":5802,"ĠÐ½Ð¸ÐºÑįÐ»":5803,"ĠÐ½Ð¸ÑĩÐµÐ¼":5804,"ĠÐ½Ð¸Ð´ÑĭÐ¼Ðµ":5805,"Ð±Ð¸ÑģÐ¸":5806,"Ð±Ð¸ÑĩÐ¾":5807,"ĠÑģÐ¾Ñģ":5808,"ĠÐ´Ð¾Ð¼Ðµ":5809,"ĠÐ´Ð¾ÐºÑĥÐ´Ð°":5810,"ĠÐ´Ð¾ÑĩÐµÑĢ":5811,"ĠÐ´Ð¾ÓĪÐ¾ÑĤÐ¾":5812,"ĠÐ´Ð¾ÐºÑĤÐ¾ÑĢ":5813,"ĠÐ´Ð¾Ð²Ð¸ÓĪÐ¾":5814,"Ð±Ð°Ð²":5815,"Ð±Ð°ÑĢÐ°":5816,"ĠÑħÐ¾Ð´ÑıÑĤ":5817,"ĠÑħÐ¾ÑĤÐµÐ»":5818,"Ð±Ð¾ÐºÐ¾":5819,"ÑģÑĤÐ°ÑĢÑĭÐ¹":5820,"ÑįÐ»ÑįÐ½":5821,"ÑģÑĤÐ²Ð¸":5822,"ÑģÑĤÑĢÑĭÐ¹":5823,"ÑĪÐ¸Ð¼Ð¸":5824,"ÑĪÐ¸ÑĦ":5825,"ĠÐ´ÑİÐ»Ñį":5826,"ĠÐ´ÑİÐºÐ°ÑĢ":5827,"ĠÐ´ÑİÐ»Ð´Ñį":5828,"ĠÐ´ÑİÑĢÐ²Ñį":5829,"ĠÐ´ÑİÐºÑĩÐ°Ð»":5830,"ĠÑįÐ¼ÑįÑģÐ°":5831,"ĠÑįÐ¼ÑįÑĩÑį":5832,"ĠÑįÐ¼ÑįÐºÑĤÑį":5833,"ĠÑįÐ¼ÑįÑĩÐ¾Ð»":5834,"ĠÑįÐ¼ÑįÓĪÐ½ÑįÑĢÑįÐ²":5835,"ĠÑįÐ¼ÑįÑģÐ¾Ð»":5836,"ĠÑįÐ¼ÑįÑģÑĳÐ»":5837,"ĠÑįÐ¼ÑįÑĩÅįÐ½":5838,"ĠÑįÐ¼ÑįÑĩÅįÑĤÑĭÐ½":5839,"Ð·Ð°ÑİÑĤ":5840,"Ð·Ð°ÑģÑĤÐ°Ð²":5841,"ÐµÐ½ÑĮÑİ":5842,"ÐµÐ½ÑĮÐºÐ¸Ð¹":5843,"Ð±ÑĥÑģ":5844,"Ð±ÑĥÐ±ÐµÐ½":5845,"Ð±ÑĥÑĢÐ´Ñĥ":5846,"ĠÐ¾ÑĤÑĢÐµ":5847,"ĠÐ¾ÑĤÐ²Ð¾Ð·":5848,"ĠÐ¾ÑĤÐ»Ð¸Ñĩ":5849,"Ð»ÐµÑĤÐ¾":5850,"Ð»ÐµÐ¿Ð½ÑĥÐ»":5851,"ĠÐ³ÑĥÐ½Ð´ÐµÐ½":5852,"ÑĦÑģÐ¸":5853,"Ð»ÑĮÑı":5854,"Ð»ÑĮÐµÑĤ":5855,"Ð»ÑĮÐ½Ð¸ÐºÐ°":5856,"ÑĤÐ°ÑĢÐºÐ°":5857,"ÑĤÐ°ÑĢÐ³Ð¸ÑĤ":5858,"ĠÐ²ÑģÐµÐ³Ð¾":5859,"ĠÐ²ÑģÐµÐ¼Ñĥ":5860,"ĠÐ²ÑģÐµÐ²ÑģÐµ":5861,"ĠÐ²ÑģÐµÑĤÐ°ÐºÐ¸":5862,"Ð½ÐµÑĤÑĮ":5863,"Ð½ÐµÑĨ":5864,"ĠÑħÑĥÐ½":5865,"ĠÑħÑĢÐ¾":5866,"ĠÑħÐ°Ð»":5867,"ĠÑħÑĥÐ½Ð°":5868,"Ð³ÑĥÑİ":5869,"Ð³ÑĥÑĢÑĥ":5870,"Ð³ÑĥÐ»Ð´ÑįÐ½":5871,"Ð³ÑĥÐ»ÑĩÐ¾":5872,"ĠÐ¾Ð½Ð¼ÑįÑĢ":5873,"ĠÐ°ÓĪÐ´Ð°":5874,"ĠÐ°ÓĪÐ´Ó¯":5875,"ĠÐ°ÓĪÑĩÐ°":5876,"ĠÐ°ÓĪÐ¼Ð¸":5877,"Ð²ÑįÑĢÑĤÑį":5878,"ÐºÑĥÐ½Ð¸Ð½":5879,"ÐºÑĥÐ½Ð¼Ñį":5880,"ĠÐ²ÑĭÐ·":5881,"ĠÐ²ÑĭÐ¿Ð°Ð»":5882,"ĠÐ²ÑĭÑħÐ¾Ð´Ð¸ÑĤÑĮ":5883,"ĠÑĪÐºÑĥÑĢ":5884,"ĠÑĪÐ¾Ð±":5885,"ĠÑĪÑĥÐ¼":5886,"ÓĪÑįÑĤ":5887,"ÓĪÑįÑĤÑĭÐ½":5888,"ĠhÐ°Ð¼Ð°Ð½":5889,"ĠhÐ°Ð½ÓĪÓ¯ÐºÑĤÐ°":5890,"ÐºÑįÐ»Ð²Ñį":5891,"ÓĪÐºÓ£ÑĦ":5892,"ÑģÐºÐ°Ð´Ó¯":5893,"ĠÐ´Ð°ÑĢ":5894,"ĠÐ´Ð°ÑģÑĤ":5895,"ĠÐ´Ð°Ð²Ð´Ð°":5896,"Ð¸Ð»Ð¸ÑĤÑĩÑį":5897,"Ð²Ð°Ð»Ð´Ð¸ÑĩÐ°":5898,"ÑįÐ½ÑįÐ»":5899,"ÑĥÑĢÑĥÑĢÑįÐ²ÑĥÐ½":5900,"ĠÑĤÑįÐ»Ð¸":5901,"ĠÑĤÑįÑĤÑĭ":5902,"ĠÑĤÑįÐ»Ð¸Ð½":5903,"ĠÑĤÑįÑĢÐ³ÑįÐºÑģÑįÐ»":5904,"Ð²ÐµÑĢÐ½Ñĥ":5905,"ĠÐ¾ÑĢÐ¾ÑĢÐ¾":5906,"ĠÐ¾ÑĢÐ¾Ð»Ð¾":5907,"ĠÐ¾ÑĢÐ¾Ð½Ð¼Ð¸":5908,"ÑĢÐ°Ð½ÐµÐ½":5909,"ĠÐ¼ÑĭÑĤÐ¾":5910,"ĠÐ±Ð¸ÑģÑĳÑĤÑĭÐ½":5911,"ÐºÓ£Ð»Ð²Ð¸":5912,"ĠÐ¿ÑĢÐ¾Ðº":5913,"ĠÐ¿ÑĢÐ¾Ð²Ð¾":5914,"ĠÐ¿ÑĢÐ¾Ð¶Ð¸":5915,"ĠÐ¿ÑĢÐ¾ÑĤÐº":5916,"Ð³Ó£Ð»Ð²ÑįÑĢ":5917,"ÑĩÐµÐ»Ð¾Ð²Ðµ":5918,"ÑĩÐµÑĤÑĭÑĢÐµ":5919,"ÑĤÐ°Ð´ÑĥÐºÑĤÑį":5920,"ÐºÐ¾Ð½ÑĩÑį":5921,"ĠhÑĥÑĢÑĥÑģÐ°":5922,"ĠhÑĥÑĢÑĥÑĢÑįÐ²":5923,"ÐºÑĤÑįÐ´Ó¯":5924,"ÐºÑĤÑįÐ´ÐµÐ½Ñį":5925,"Ð¾Ð½Ð´Ð°":5926,"Ð±ÐµÐ·":5927,"Ð±ÐµÑĢÑĥ":5928,"ÑĤÑĭÑĢÐ³Ð°Ð»":5929,"Ð¼ÑĭÐ»":5930,"ĠÐ²Ð°ÑģÑı":5931,"ÓĪÐ½ÑįÐ²":5932,"ÓĪÐ½ÑįÐ½Ð´Ñį":5933,"ĠÐ¸Ð½Ð´ÑıÐ¼":5934,"ĠÐµÑģÑģÐµ":5935,"ÑĢÑıÐ´":5936,"Ð½ÑıÐ½":5937,"Ð½ÑıÑı":5938,"Ð½ÑıÐ¼Ð¸":5939,"ĠÑĢÐ¾Ñģ":5940,"ĠhÐ¾ÐºÑĤÐ¾":5941,"ĠhÐ¾Ð³Ð´Ð¾":5942,"ĠÐºÑĥÐ»Ð°":5943,"ĠÐºÑĥÑħÐ½Ñı":5944,"ĠÐºÑĥÐ¹ÐºÓ£":5945,"ĠÐ¶Ð¸Ð²Ñı":5946,"ĠÐ¶Ð¸Ð´ÐºÐ¸Ð¹":5947,"ÑĤÑĩÑįÐ²ÐºÓ£Ð»":5948,"ÑĤÑĩÑįÓĪÐºÓ£Ð½":5949,"ÑģÐ¿ÑĢÐ¾ÑģÐ¸Ð»":5950,"ĠÑħÐ¾ÑĢÐ¾ÑĪÐµÐ¹":5951,"ĠÑĤÑĭÐºÑĥ":5952,"ĠÑĢÐ°Ð·Ð²Ðµ":5953,"ĠÑĢÐ°Ð·Ð²ÐµÑĢ":5954,"ĠÑĢÐ°Ð·Ð¼Ðµ":5955,"ĠÑĢÐ°Ð·Ð½ÑĭÐµ":5956,"ÑīÐµÐµ":5957,"ĠÐ³ÑĥÑģÐµ":5958,"ĠÐ³ÑĥÐ»Ñį":5959,"ĠÐ³ÑĥÐ»Ñĥ":5960,"ĠÐ³ÑĥÐºÑįÐ»":5961,"ĠÐ³ÑĥÑıÐ¼Ð°ÑĤ":5962,"hÑĥÐ»Ð°ÐºÓ£Ð»":5963,"hÑĥÐ²ÑĥÐ»Ð¸Ð½":5964,"ÐºÑĤÐ°Ð½":5965,"ÐºÑĤÐ°Ð»Ð¸":5966,"ÐºÑĤÐ°Ð»Ð¸Ð½":5967,"ĠÐ»Ð¾Ð¼Ð°":5968,"ĠÐ»Ð¾ÐºÑĥÑģÐ°":5969,"ĠÐ¾ÑĢÐ¾ÑĢÐ¸Ð½":5970,"ĠÐ¾ÑĢÐ¾ÑĢÐ´Ó¯":5971,"ĠÐ¾ÑĢÐ¾ÑĢÐ²Ð¸":5972,"ĠÐ½Ð¾Ð³Ñĥ":5973,"ÑĩÑĥÑİÑĤ":5974,"ÑĩÑĥÑıÐ»":5975,"ĠÑĢÐ°Ð±Ð¾ÑĤÐ°Ñİ":5976,"ĠÐ±Ð¾Ð»ÑĮÐ½Ð¸ÑĨÐ°":5977,"ĠÐ³Ð°Ð½Ð°":5978,"ĠÐ³Ð°ÑģÐ°":5979,"ĠÐ³Ð°ÑĢÐ°Ð½":5980,"ĠÐ³Ð°Ð³Ð°ÑĢÐ°":5981,"ĠÐ³Ð°Ð³Ð°ÑĢÑĥ":5982,"hÐ¸Ð»Ð°":5983,"hÐ¸ÑģÐµ":5984,"hÐ°Ð½":5985,"hÐ°Ð¼Ð°":5986,"hÐ°Ð²Ð°Ð»Ð´Ñı":5987,"ĠÐ°ÓĪÐ¸Ð²":5988,"ĠÐ°ÓĪÐ¸ÑĩÐ°":5989,"ĠÐ°ÓĪÐ¸Ð²ÐºÓ£":5990,"ĠÐ°ÓĪÐ¸Ð´ÐµÑĢÑįÐ½":5991,"ĠÐ°ÓĪÐ¸Ð²Ð°Ð½":5992,"Ð²ÑĭÐ¼":5993,"Ð·Ð°Ð»ÐµÐ·":5994,"ĠÐ¼ÑĥÐºÐ¾":5995,"ĠÐ¼ÑĥÐ¶Ñĥ":5996,"ĠÐ¼ÑĥÑģÑİ":5997,"Ð»ÑĭÐ¹":5998,"ĠÐ»ÐµÑģÐ¾":5999,"ĠÐ»ÐµÑĩÐ¸ÑĤÑĮ":6000,"ĠÐ¶ÐµÐ½Ñĭ":6001,"ĠÑĢÑĭÐ±Ð¾Ð¹":6002,"ĠÑĢÑĭÐ±Ð°Ð»":6003,"ÐµÐ·Ð´Ð¸Ð¼":6004,"ĠÑģÐ¸Ð´ÐµÐ»Ð°":6005,"ĠÑģÐ¸Ð´ÐµÐ»Ð¸":6006,"ĠÐ»Ð¸Ð¿ÐºÓ£":6007,"ĠÑĢÐ°ÑģÑĤÑĥÑĤ":6008,"ĠÑĢÐ°ÑģÑĪÐ¸ÑĦ":6009,"ĠÐ´ÑĢÑĥÐ¶Ð¸":6010,"ĠÐ¿Ð°Ð»Ð¾":6011,"ĠÐ¿Ð°ÑģÐ»Ð¸":6012,"ĠÐ¿Ð°ÑĤÑĢÐ¾Ð½":6013,"ĠÐ»ÑĥÑĩÐ°":6014,"ĠÐ»ÑĥÑģÐ°":6015,"ĠÐ»ÑĥÑĢÐ³Ð¸":6016,"ĠÐ»ÑĥÐ¿Ð¾ÑĢÐ¾":6017,"ĠÐ½ÑĥÓĪÐ°ÑĢÐ½ÑĥÐ½":6018,"ĠÐ½ÑĥÓĪÐ°ÑĢÐ´ÑĥÐ»Ð°":6019,"Ò»Ó£":6020,"Ò»Ð¸Ð½ÑįÐ½":6021,"Ò»ÑĥÑĢÑĥÑĢÑįÐ²ÑĥÐ½":6022,"Ð¿Ð¸ÑĪÑĥ":6023,"ĠÑħÐ°ÑĢ":6024,"ĠÑħÐ°Ð³Ð´Ð¸":6025,"ÐºÑĤÑĭÐ´ÐµÑĢÑįÐ½":6026,"ÑģÐ¸Ð»Ð´Ð°":6027,"ĠÐ´ÑĥÐ»Ñį":6028,"ĠÐ´ÑĥÐ»Ð¸Ð»Ð³Ð°":6029,"ĠÐ´ÑįÐ³Ð¸Ð½":6030,"ĠÐ´ÑįÒ£ÐºÑį":6031,"ĠÐ´ÐµÑĤÑģÐºÐ¾Ð¼":6032,"ĠÑĥÐ¼ÑĢÐµ":6033,"ĠÑĥÐ¼ÑĥÐ½Ð´Ó¯":6034,"hÐ¸Ð½Ð´ÐµÓĪÐ¾":6035,"hÐ¸Ð½ÓĻ":6036,"ĠÐ°Ð¼Ð°ÑģÐºÐ¸":6037,"ĠÐ°Ð¼Ð°ÑĢÐ´Ñĥ":6038,"ĠÐ°Ð¼Ð°ÑĢÐ³Ó¯ÑĤ":6039,"ĠÐ±ÑįÐµÓĪÐ¸Ð»":6040,"ĠÑģÐµÐ»Ð¾":6041,"ĠÐ»ÑİÐ´ÑĮÐ¼Ð¸":6042,"ĠÑĥÐ»Ð´ÑįÐ»":6043,"ĠÐ¾ÑħÐ¾ÑĤÑĥ":6044,"ĠÐ¾ÑħÐ¾ÑĩÑĥÑģÑĮ":6045,"ĠÐ¾Ð±Ð»Ð°":6046,"ĠÐ¾Ð±Ð¼Ð°Ð½":6047,"ĠÐ¾Ð±ÑĢÐ°Ð·":6048,"ĠÐ¾Ð±Ð´Ð¸ÑĢÐ°":6049,"ĠÑįÐ´Ó¯ÐºÐ°":6050,"ĠÑįÐ»ÑįÐ½":6051,"ĠÑįÐ»ÑįÐ´Ñį":6052,"ĠÐºÑįÓĪÐ¸Ð»Ñį":6053,"ĠÐºÑįÑĢÑįÐ¼Ó£":6054,"ÑĢÐ¸Ð»Ð²Ð°Ð½":6055,"hÑįÐ»Ð¸Ð½":6056,"Ð´ÑıÐ½Ð´Ð¾":6057,"Ð¼Ð¸Ð½Ð¸Ð½":6058,"ĠÐ³Ð¸ÑĢÐºÑĥÐ¼":6059,"ĠÐ³Ð¸ÑĢÐºÑĥÐ´ÑıÐ²ÐºÓ£":6060,"ĠÐ³Ð¸ÑĢÐºÑĥÐ¼Ð°ÑĤ":6061,"ĠÐ²ÐµÑĤÐ¾Ðº":6062,"ĠÑģÐ¾Ð±Ð°ÐºÐ¾Ð¹":6063,"ĠÑĢÑĥÐ±Ð¸ÑĤÑĮ":6064,"ĠÐ²Ð¸Ð²Ð¸":6065,"ĠÐ²Ð¸Ð´ÐµÑĤÑĮ":6066,"ĠÐ±ÐµÑĢÐµÐ³Ð°":6067,"ĠÐ±ÐµÑĢÐµÑģÑĤÐ°":6068,"ĠÐ±ÐµÑĢÐµÑģÑĤÑĥ":6069,"ĠÐ¿ÐµÑĢÐµÑģÑĤÐ°Ð»":6070,"ĠÐ¿ÐµÑĢÐµÐ¿ÑĢÐ°":6071,"ĠÐ¿ÐµÑĢÐµÑĤÐ°ÑģÐºÐ¸":6072,"ĠÐ¿ÐµÑĢÐµÑģÑĤÐ°Ð½ÑĮ":6073,"ĠÐ¿ÐµÑĢÐµÐºÐ¾ÑĩÐµÐ²Ñĭ":6074,"ÓĪÐ¸Ð»Ð²ÑįÑĢ":6075,"ÓĪÐ¸Ð»Ð³ÑįÐ½":6076,"ĠÐ·ÐµÐ¼ÐµÐ»ÑĮ":6077,"ÑıÐ½Ð½Ð¾":6078,"ÑıÐ½ÐºÑĥ":6079,"ÑħÑĥÑİ":6080,"ĠÑĩÐµÐ»Ð¾Ð²ÐµÐºÐ¾Ð¼":6081,"ĠÑģÑĤÐ¾Ñı":6082,"ĠÑģÑĤÐ¾Ð¹Ð±Ð¸":6083,"ĠÑģÑĤÐ¾ÑıÐ½ÐºÑĥ":6084,"ĠÐ²ÐµÑĢÑĪÐ¸Ð½":6085,"ĠÐ¿Ð¾Ð´Ð²Ð¾":6086,"ĠÐ¿Ð¾Ð´ÑĢÐ¾Ñģ":6087,"ĠÐ¿Ð¾Ð´Ð²ÐµÐ»Ð¸":6088,"ĠÐ¿Ð¾Ð´ÑĢÑıÐ´":6089,"ÐºÐ¸Ð»Ð´Ð¸":6090,"ÐºÐ¸Ð»Ð²ÑįÑĢ":6091,"ĠÐ´ÑĭÑģÐºÓ£":6092,"Ð²Ð°ÐµÑĤÑģÑı":6093,"ÑģÐºÐ¾Ð³Ð¾":6094,"ĠÑģÐ´ÐµÐ»Ð°ÑĤÑĮ":6095,"Ð²ÐµÐ·Ð´Ðµ":6096,"ĠÐ±ÑĢÐ°Ð»":6097,"ĠÐ½Ð°ÑģÑĭ":6098,"ĠÐ¶ÐµÐ½ÑīÐ¸Ð½Ñĥ":6099,"ĠÐ±ÐµÐ³Ð°Ð»":6100,"ĠÐ±ÐµÐ³Ð°Ð»Ð°":6101,"ĠÐ±ÐµÑĢÑĥÑĤ":6102,"ĠÐ¸ÑĩÑįÑĤÑĤÑį":6103,"ĠÐ¸ÑĩÑįÑģÐ¸Ð½Ð¸Ð¼":6104,"Ò£ÑįÑħÓ£":6105,"ÑĤÓ¯ÑĢÓ¯":6106,"ĠÐºÐ¾Ð¼Ð¾ÐµÐ´ÑĥÐº":6107,"Ð±Ð¸ÑĢÐ°Ð´Ñĥ":6108,"ĠÑįÑĤÑįÐºÐ¾":6109,"ĠÑįÑĤÑįÄĵ":6110,"ĠÑįÑĤÑįÐºÑįÐ»":6111,"ĠÑįÑĤÑįÐ½Ð´Ñį":6112,"ĠÐ°Ð½ÑĤÐ¸":6113,"ĠÐ°Ð½Ò£Ð°":6114,"ĠÑĤÐ¾Ð³Ð¾ÑĤÑĭÐ½":6115,"ĠÑģÐ¼Ð¾Ð³":6116,"ĠÑģÐ¼Ð¾Ð»Ð°":6117,"ĠÑģÐ¼Ð¾ÑĤÑĢÐµ":6118,"ĠÑģÐ¼Ð¾ÑĤÑĢÑı":6119,"ĠÒ»Ð¸Ð³":6120,"Ð¾Ð½Ð¸ÑĤÐ¾":6121,"ĠÑįÐ¿ÐºÐ¾":6122,"ĠÑįÐ¿ÐºÓ£":6123,"ĠÑįÐ¿ÐºÓ£Ð»":6124,"ĠÐ´Ð¸ÐºÐ¾Ð½ÑĩÑį":6125,"ĠÑĤÑįÐ³ÑįÑĤÑĤÑį":6126,"ĠÑĤÑįÐ³ÑįÑĤÑĤÐµÐ½Ñį":6127,"ĠÐ³Ð¾ÑĢÐ¾ÑĪÐ¸":6128,"ÑħÐ¸ÑĤ":6129,"ÑħÐ¸Ð¹Ð¸":6130,"ĠÑħÑĥÓĪÑĤÑĥ":6131,"ĠÑħÑĥÑĢÐºÐ¾":6132,"Ð°Ð¼Ð°ÑĢÐ¸ÑĤÐ¿Ð¸":6133,"Ð´ÑİÐºÑį":6134,"ÑģÑĤÑĢÐµÑĩÑĥ":6135,"ÑģÑĤÑĢÐµÐ»ÑıÐ»":6136,"ĠÓĪÑįÐ½ÑįÐ¿":6137,"ÑģÑĤÐ¸Ðµ":6138,"ĠÑĥÐ¼ÑĥÐºÑį":6139,"Ð»ÑįÐ»ÑĩÑį":6140,"Ð»ÐµÑĤÐ½Ð¸":6141,"Ð²ÑıÐ»Ð¸ÑĤÑģÑı":6142,"Ð³Ð¸Ð½ÑĤÑĥ":6143,"ĠÐ¼Ð¸Ð½Ð´Ñĥ":6144,"ĠÐ¼Ð¸Ð½Ð½Ð¸":6145,"ĠÐ¼ÑĥÐ½ÓĪÓ£":6146,"ĠÑĤÑĥÐ´Ð°ÑģÑİÐ´Ð°":6147,"ĠÑĪÐºÐ¾Ð»Ñĭ":6148,"ĠÑĪÐºÐ¾Ð»ÑĮÐ½ÑĭÐ¹":6149,"ÑĤÑıÐ½ÑĥÐ»":6150,"ÑģÑĭÐ½ÑįÐ¼":6151,"ĠÑĢÑĭÐ±Ð°ÑĩÑĥ":6152,"ĠÑģÐµÐ¹ÑĩÐ°ÑģÑĤÐ¾":6153,"ĠÐ¼Ð°Ð»ÐµÐ½ÑĮÐºÐ¾Ð³Ð¾":6154,"ĠÐºÐ¸ÑĢÐ°":6155,"Ð»ÑĩÐ°Ð´Ð°":6156,"Ð³ÑĥÐ½Ð´ÐµÑĢÑįÐ½":6157,"Ð³ÑĥÐ½Ð´ÐµÐ½Ñį":6158,"ĠÐ°Ð¼Ó£Ð²Ð°":6159,"hÐ¾ÓĪÐ¾":6160,"hÐ¾Ð»Ð¾ÐºÑĤÐ¾":6161,"ĠÐ±Ð¸ÑĩÑįÐ²":6162,"ĠÐ½Ð¸ÐºÑįÑģÑį":6163,"ĠhÑįÐ³Ð´ÑĭÐ»Ð¾":6164,"ĠhÑįÐ³Ð´ÑĭÐ¼ÑįÐ¼Ñį":6165,"ĠhÑįÐ³Ð´ÑĭÐ³Ð¸ÑĤÑĭÐ½":6166,"Ð´Ð¾Ð»Äģ":6167,"ĠÑįÑĩÑįÐ²ÑĥÐ½":6168,"ĠÑħÑĥÑĢÑĥÑĢÑįÐ²":6169,"ĠÐ±ÑįÐµÐ»Ð´Ó¯":6170,"ĠÐ±ÑįÐµÐ»Ð²Ñį":6171,"ĠÐ±ÑįÐµÐ»Ð±Ñį":6172,"ĠÐ¼Ð°Ð½Ð°ÐºÐ°":6173,"ĠÐ¼Ð°Ð½Ð°ÑģÐ°":6174,"ĠÐºÑįÑĤÑįÐ²Ñį":6175,"ĠÓ£ÑĢÑįÐ½":6176,"ĠÓ£Ð²ÐºÓ£Ð»":6177,"ĠÓ£Ð²ÑģÑĳ":6178,"ÑģÑĤÐ¾Ðº":6179,"ÑģÑĤÐ¾Ð¹":6180,"ĠÑģÑĤÑĢÐµÐ»ÑĮ":6181,"Ð¿ÑĢÐ¸ÐµÑħÐ°Ð»Ð¸":6182,"ĠÐ¼ÑıÐ³":6183,"ĠÐ±ÑĥÐ»ÑĤÐ°Ð´Ð¸":6184,"ĠÐ±ÑĥÐ»ÑĤÐ°Ð²Ð°Ð½":6185,"ĠÐ±Ð°Ð±ÑĥÑĪÐºÑĥ":6186,"ĠÐ±Ð°Ð±ÑĥÑĪÐºÐ¾Ð¹":6187,"ĠÐ¿ÑįÐºÑĤÑĭ":6188,"Ð²Ð°ÑĢÑĮ":6189,"Ð¶ÐµÑĤÑģÑı":6190,"ĠÑģÑĤÐ°ÑĢÑĥÑħÐµ":6191,"ĠÑħÑįÑĢÑį":6192,"ĠÐ±Ð°Ð»Ð´ÑĭÐ¼":6193,"ÑģÑĥÐ³Ð»Ð°Ð½":6194,"Ð±ÑĢÐ°ÑĤ":6195,"ĠÐ¸ÑģÐµÐ´Ðµ":6196,"ĠÐ¸ÑģÐµÐ´ÐµÐ¼Ó£":6197,"ĠÑĢÐµÐ±ÐµÐ½Ð¾":6198,"ĠÑĩÐ°ÓĪÐºÑĥ":6199,"ĠÐ´ÐµÑĢÐµÐ²Ð¾Ð¼":6200,"ĠÐ´ÑĥÐ½Ð´ÑįÐµ":6201,"ĠÐ´ÑĥÐ½Ð´ÑįÓĪ":6202,"ĠÐ°ÓĪÐ¸Ð»ÑĤÑĭÐ½":6203,"ĠÑģÐ¸Ð»ÑĮÐ½ÑĭÐµ":6204,"ĠÑģÐ¸Ð»ÑĮÐ½Ð°Ñı":6205,"hÐ°Ð»Ð³Ð°":6206,"hÐ°Ð»Ð³Ð°ÑĢ":6207,"ÑĤÑĭÐºÓ£Ð¸":6208,"ÑĤÑĭÐºÓ£Ð½":6209,"ĠÑĩÐ¸ÑģÐºÐ¾":6210,"ĠÑģÑĤÐ°ÑĢÑĪÐ¸Ñħ":6211,"ĠÐ´Ð¾Ð±ÑĭÐ»":6212,"ĠÐ´Ð¾Ð±ÑĭÐ»Ð¸":6213,"ĠÐ´Ð¾Ð±ÑĭÑĤÑĮ":6214,"ĠÐ´Ð¾Ð±ÑĭÐ²Ð°ÑİÑĤ":6215,"ĠÄĵÐºÑĥÐ½ÐºÐ°":6216,"ĠÄĵÐºÑĥÐ½Ð´Ð°":6217,"ĠÐ¿ÑĤÐ¸ÑĩÐºÐ°":6218,"ĠÐ¸Ð»Ð¸ÑĤÑĩÑį":6219,"Ð¼Ð°Ð¼Ð°ÑĤ":6220,"ÑĤÑĥÐ³Ð´Ñį":6221,"Ð¿ÑįÑĤÑĭÐ½":6222,"Ð¾Ð»ÐµÐ½ÐµÐ²Ð¾":6223,"ĠÐºÐ¾Ð½ÑĩÐ°":6224,"ĠÐºÐ¾Ð½ÑĩÐ¸Ð»ÑģÑı":6225,"ĠÐ´ÑıÐ²Ó¯":6226,"ĠÐ´ÑıÐ²Ð²Ð°ÑĢ":6227,"ĠÐ¼ÑĥÐ¶ÑĩÐ¸Ð½Ð°":6228,"ĠhÐ¸ÑģÐ¸":6229,"ĠhÐ¸ÓĪÐ¸Ð»Ð³Ñį":6230,"ĠhÐ¸Ð¼ÑĥÐ»Ð°":6231,"ĠhÐ¸ÓĪÐ¸Ð»Ð³ÑįÐ½":6232,"ÑħÐ¾Ð´Ð¸Ð»Ð°":6233,"ĠÐ±Ð°ÐºÐ°Ð¼":6234,"ĠÐ±Ð°ÐºÐ°ÑĢÐ°":6235,"ĠÐ±Ð°ÐºÐ°ÑĩÐ°":6236,"ĠÐ´ÑįÐ³Ð¸Ð»Ð¸":6237,"ÑĤÐºÐ°Ð½ÑįÐ¼":6238,"ÐºÑģÑįÐ²Ñį":6239,"ĠÐ´ÑĥÐ¼Ð°ÐµÑĤ":6240,"ĠÑİÑĢÑį":6241,"ĠÐ±Ó¯ÑĢÑįÐ½":6242,"ĠÐ±Ó¯ÐºÑįÐ»":6243,"ĠÐ±Ð¾Ð»ÑıÑĤ":6244,"ÑģÐµÐ¹ÑĩÐ°ÑģÑĤÐ¾":6245,"Ð°Ð¼Ó£Ð½Ð¸Ð½":6246,"ĠÐ³ÑįÑĢÐ±Ð¸ÑģÐ¸":6247,"ĠÐ·Ð¸Ð¼Ñĭ":6248,"ĠÐ·Ð¸Ð¼Ð¾Ð²":6249,"ÑĨÐµÐ»Ð¸":6250,"Ð´ÑĭÑĤÑĩÐ¸ÐºÑįÐ»":6251,"ĠhÑĥÐ²ÑĥÐ»Ð´Ó¯Ð½":6252,"ĠÑģÐ°Ð¼Ð¾Ð¼Ñĥ":6253,"ĠÑģÐ¾Ð±Ð¸ÑĢÐ°ÐµÑĤ":6254,"ĠÑĦÐ°ÐºÑĤÐ¾":6255,"ĠÐ°ÑĢÐ³Ð¸ÑĪÐ¸Ð¼":6256,"ĠÐ³ÑĢÐ¸Ð±Ñĥ":6257,"ĠÐ½Ð°ÑĩÐ°Ð»Ð°ÑģÑĮ":6258,"ĠÐ½Ð°ÑĩÐ°Ð»ÑĮÐ½Ð¸Ðº":6259,"ÑīÐ°Ñı":6260,"ĠÑģÑĤÐ¾ÑĢÐ¾Ð½Ðµ":6261,"ĠÐ²ÐµÑĢÑĤÐ¾Ð»Ñĳ":6262,"ĠÑĳÑģÐ°Ð»":6263,"ĠÑģÑĥÐ³Ð»Ð°Ð½":6264,"ĠÑģÑĥÑĪÐ¸ÑĤÑĮ":6265,"ĠÐ½ÑįÐºÑį":6266,"ĠÐ½ÑįÐºÑĥÐ½":6267,"ĠÑĥÐ²Ð¸Ð´ÐµÐ»Ð°":6268,"ĠÑĥÐ²Ð¸Ð´ÐµÐ»Ð¸":6269,"Ð½ÑİÓĪÑĥÐ½":6270,"ÑĩÐºÐ°Ð¼Ð¸":6271,"ĠÑįÐ½Ó£Ð½ÑĥÐ½":6272,"ĠÑįÐ½Ó£Ð½Ð¼Ð¸":6273,"ĠÐ¸Ð»Ð°ÑĢÐ°Ð½":6274,"ĠÐ¸Ð»Ð°ÑĤÑĤÑı":6275,"ĠÐ¸Ð»Ð°ÑĤÑĩÐ°Ð¼Ð¸":6276,"ĠÐ¸ÑĢÐ³Ð¸ÑĩÐ¸Ð»":6277,"Ð²Ð°ÑĢÐ¸Ð»Ð°":6278,"ĠÑĥÐ±Ð¸Ð²":6279,"ĠÑĥÐ±Ð¸Ð»Ð°":6280,"ĠÐ¿Ð¾ÐºÐ°Ð·Ð°Ð»Ð°":6281,"ĠÐ¿Ð¾ÐºÐ°Ð·ÑĭÐ²Ð°ÑĤÑĮ":6282,"Ò£Ð½ÑįÐ½Ð´Ñį":6283,"ĠÐ¸Ð½Ð´ÐµÑģÑĳÐ»":6284,"ĠÐ¸Ð½Ð´ÐµÑģÐ°Ð»Ð´ÑĥÐ½":6285,"ĠÑĢÐ¾ÑģÐ¾Ð¼Ð°Ñħ":6286,"ĠÑĢÐ¾ÑģÐ¾Ð¼Ð°ÑħÐ¸":6287,"ĠÐ½ÑĥÐ»Ð³Ó£ÑĢÑįÐ²":6288,"ĠÐ½ÑĥÐ»Ð³Ó£ÑĩÅįÐ²ÑĥÐ½":6289,"ĠÐ¼Ó¯Ð´Ó¯":6290,"ĠÐ¼Ó¯Ð»Ó£":6291,"ÑĢÐ¾Ð²ÐºÐµ":6292,"ĠÐ·Ð°ÐºÐ¾Ð½ÑĩÐ¸Ð»Ð¸":6293,"ĠÐ·Ð°ÐºÐ¾Ð½ÑĩÐ¸Ð»Ð¸ÑģÑĮ":6294,"ĠÐ¿Ð¾ÑģÐ¼Ð¾ÑĤÑĢÐ¸":6295,"Ð¸ÑĤÑĤÑı":6296,"Ð¸ÑĩÑįÐ¼":6297,"Ð»Ð´ÑĭÑĢÑįÐ½":6298,"ĠÐ¿Ð¾Ð»Ð¼ÐµÑģÑı":6299,"ĠÐ¿Ð¾Ð¼Ð¾Ð³Ð°Ð»":6300,"ĠÐ¿Ð¾Ð¼Ð¾Ð³Ð°Ð»Ð¸":6301,"ĠÑĤÐ¾Ð»ÐºÐ¾":6302,"ĠÐ½ÑĥÒ£Ð°Ð½Ð¼ÑįÐ½":6303,"ĠÑĥÐ»Ð³ÑĥÑĢ":6304,"ÑĤÑĢÐ¸Ð´ÑĨÐ°ÑĤÑĮ":6305,"ÐºÑĤÑįÐ»Ð²Ñį":6306,"ĠÐ½ÑıÐ½ÑĩÐ¸ÑĤ":6307,"ĠÑįÐºÑĥÐ½Ð´Ð°":6308,"ĠÑįÐºÑĥÐ½Ð¼Ð°":6309,"ÑĤÑĥÐºÐ´Ð¾":6310,"ÑħÐ¸Ð½Ðµ":6311,"ÑħÐ¸Ð½Ð´ÐµÐ¼":6312,"ĠÐ¿ÐµÐ»Ð¸":6313,"ĠÐ¿Ð»Ð¾ÑħÐ°Ñı":6314,"ĠÑĥÐ±ÐµÐ¶Ð°Ð»Ð¸":6315,"ĠÑĥÐ±ÐµÐ¶Ð°Ð»Ð°":6316,"ĠÐ¿Ð¾Ð¿ÑĢÐ°":6317,"ĠÐ±ÑĥÑģÑģÑįÐ»":6318,"ĠÐ´ÑıÐ²Ð°ÐºÑģÐ¸":6319,"ĠÐ²ÑĭÑģÑĤÑĢÐµÐ»":6320,"ĠÄĵÐºÑĥÐºÐ°":6321,"ĠÅįÐ´ÑįÐ½":6322,"Ð¾Ð²ÑģÑıÐ½":6323,"ÑįÑĤÐ¸ÑĢÐºÑį":6324,"ĠÐ±ÐµÐ»ÐºÐ°":6325,"ĠÑįÐºÐ¾Ð½Ð´Ð°Ð´ÑĥÐº":6326,"ĠÑįÐ½Ð¸Ð½Ð¸Ð½":6327,"ĠÐ¿Ð»Ð°ÑĪÐºÐ¸":6328,"ĠÐ¿Ð»Ð°ÐºÐ°ÑĤÑĮ":6329,"ĠÐ¿Ð»Ð°ÑħÐ¸Ð½Ðµ":6330,"ÓĪÐ½Ð°ÐºÐ°Ð»Ð´Ñĥ":6331,"ĠhÑĥÑĤÑįÐ»Ð²Ð¾Ð½":6332,"ĠÓĪÐ¸Ð½Ð°ÐºÐ¸ÑĢÐ´Ð¸":6333,"ĠÓĪÐ¸Ð½Ð°ÐºÐ¸ÑĢÐ²Ñį":6334,"ĠÑĪÐ¸Ð»Ð°":6335,"ÑįÑĤÑįÐ¼":6336,"ÑĤÐ°ÑĢÐ¸ÑĤÑĤÐ°":6337,"Ð±Ð°Ð»Ð´Ñį":6338,"ĠÐ²ÐµÑģÐ¿Ð¸":6339,"ĠÐ²ÐµÐ·ÑĥÑĤ":6340,"ĠÐ°hÐ°ÐºÑĤÑįÐ´Ðµ":6341,"ĠÐ°hÐ°ÑĤÐºÐ°Ð½":6342,"Ð³Ð¾ÑĢÐ¾Ð´ÑĮ":6343,"ÑģÐµÐ¼ÑĮÑı":6344,"ĠÐ²Ð¾Ð·Ð´ÑĥÑħÑĥ":6345,"ĠÐºÐ¾Ð»Ð¾ÑĤÑĥ":6346,"ĠÐ´ÑıÐ¿ÐºÑĥ":6347,"ĠÐ´ÑıÐ¿ÐºÐ°ÑĤÐºÓ£":6348,"ĠÐ´ÑıÐ¿ÐºÐ°Ð»Ó£Ð½":6349,"Ð¾ÑħÐ¾ÑĤ":6350,"Ð¾ÑħÐ¾ÑĩÑĥÑģÑĮ":6351,"ÑĤÐ°ÑĢÐ°Ð²Ñį":6352,"ĠÐ¼Ð»Ð°Ð´ÑĪÐ¸Ñħ":6353,"ĠhÄĵÐºÓ£":6354,"ĠhÄĵÐºÑĤÐ°ÐºÐ°":6355,"ĠÐ½Ð°ÑĪÐ¸Ñħ":6356,"ĠÐ³Ð¾Ð»Ð¾Ð²":6357,"ĠÐ³Ð¾Ð»Ð¾Ð²Ñĥ":6358,"ĠhÑĥÑİÐºÓ¯Ð½":6359,"ĠhÑĥÑİÐºÓ¯ÑĢ":6360,"ĠÐ¼Ð¾Ð»Ð¾Ð´Ð¾Ð¹":6361,"ĠÑıÓĪÑĥÑĢÑį":6362,"ĠÑıÓĪÑĥÐ´ÑıÑĢÐ°Ð½":6363,"ĠÑıÓĪÑĥÐ´ÑıÐ²ÐºÓ£Ð»":6364,"ĠÐ¿ÑĢÐ¸Ð²ÑıÐ·Ð°Ð»":6365,"ĠÐ¿ÑĢÐ¸Ð²ÑıÐ·ÑĭÐ²Ð°Ð»Ð¸":6366,"ĠÑįÐ¼ÑįÐ²ÑĥÐ²ÐºÓ£":6367,"ĠÑĩÑĥÐ¼Ð°Ð¼":6368,"ĠÓĪÐ¸Ð½Ð°ÐºÐ¸Ð½Ð¼Ñį":6369,"ĠÐ³ÑįÑĢÐ±Ó£ÑģÓ£":6370,"ĠÒ£ÑįÐ¿ÐºÑįÐºÑį":6371,"Ð´ÑĢÑĥÐ³Ð¸Ðµ":6372,"ĠÐ¿ÐµÐ½ÑģÐ¸Ð¾Ð½ÐµÑĢ":6373,"ĠÐ¿ÐµÐ½ÑģÐ¸Ð¾Ð½Ðµ":6374,"ĠÑĥÑĩÐ¸ÑĤÑĩÑį":6375,"ĠÐ³Ð¾Ð³Ð¾Ð´ÑĳÑĢÐ¾":6376,"ĠÐ³Ð¾Ð³Ð¾Ð´ÐµÐºÐ¾":6377,"ĠÐ´ÑİÐºÑĩÐ°ÐºÐ°":6378,"ĠÑĢÑĥÐ¶ÑĮÐµÐ¼":6379,"Ð°ÓĪÐ¸Ð»Ð°":6380,"ÑģÑĤÑįÐ½":6381,"ÑĤÐ°ÑĢÐ¸Ò£Ó£":6382,"ĠÐ¿Ð°Ð»ÐºÑĥ":6383,"ĠÑĥÐ¹Ð´ÐµÑĪÑĮ":6384,"ĠhÑĥÐ½Ð°ÑĤ":6385,"ĠÐ¿Ð¾ÑĤÐ°ÐºÑĥÐ¹":6386,"ĠÐ¿Ð¾ÑģÐµÐ»ÐºÐ°":6387,"ĠÑĤÄģÐ»Ó£":6388,"ĠÐ³Ð¾ÑĤÐ¾Ð²Ð¸":6389,"ĠÐ³Ð¾ÑĤÐ¾Ð²ÑĭÐµ":6390,"ĠÐ³ÑĥÐ½Ð¸ÓĪÐºÓ£Ð½":6391,"hÑĥÐ»Ð°Ð½Ð¼Ñį":6392,"ĠÐ¸ÑģÐ¿ÑĥÐ³Ð°Ð²ÑĪÐ¸ÑģÑĮ":6393,"Ð±Ð¾Ð»ÑĮÑĪÐ°Ñı":6394,"ĠÑįÐ²ÐµÐ½Ðº":6395,"Ð´ÐµÑĢÓ£Ð²ÑįÐ½":6396,"Ð´ÐµÑĢÓ£Ð²ÑįÑĤÑĭÐ½":6397,"ÐºÐ¾Ð»Ð¾ÐºÐ¾Ð»ÑĮ":6398,"ĠÐ¸Ð³ÑĢÐ°Ð»Ð¸":6399,"ĠÐ°Ð»ÐµÐº":6400,"ĠÑĥÐ´ÑıÐ»Ó£Ð½":6401,"ĠÐ³ÑĥÑĢÑĥÑħÐ¸Ð»":6402,"ÑĤÑįÐ³ÑįÐºÑįÐ»":6403,"ĠÑģÑĤÐ°ÑĢÐ¸ÐºÐ°":6404,"ĠÑģÑĤÐ°ÑĢÐ¸ÐºÐ¸":6405,"ĠÑģÑĤÐ°ÑĢÐ¸ÐºÐ¾Ð¼":6406,"ĠÐ²Ð¾ÑģÐ¿Ð¸ÑĤÐ°Ð»Ð°":6407,"ĠÑģÐ°Ð¼Ð°Ñı":6408,"ĠÐ¾ÑĤÐ¿ÑĥÑģÑĤÐ¸":6409,"ĠÑĥÑĩÐ°Ð¼Ð¸Ð»Ð°":6410,"ĠÑĥÑĩÐ°Ð¼Ð¸Ð´Ó¯":6411,"ĠÑĤÐ¾Ð»Ð³Ð¾ÐºÓ£":6412,"ĠÑģÐ¾Ð»Ð½ÑĨÐµ":6413,"ĠÐ½ÑİÒ£ÑĥÐ½":6414,"ĠÑįÐ²Ó£Ð²ÑĥÐ½Ñį":6415,"ĠÐ´ÐµÑĢÐ¶Ð°":6416,"ĠÐ°Ð»Ð°Ð³Ó¯":6417,"ĠÑĤÐµÐ»ÐµÐ³ÑĢÐ°Ð¼":6418,"Ð½Ð°ÑĩÐ°Ð»ÑĮÐ½Ð¸Ðº":6419,"ÑħÐ¾Ð½ÑĮÐºÐ¾":6420,"ĠÑĪÐ°Ð¼Ð°Ð½Ñĭ":6421,"ĠÐ¿Ð°ÑĢÐµÐ½ÑĮ":6422,"ĠÐ¿Ð°ÑģÑĤÑĥÐº":6423,"ĠÑħÐ°Ð²Ð°Ð»Ð´Ð°":6424,"ĠÑģÐ¿ÐµÑĨÐ¸Ð°Ð»":6425,"Ð¶ÐµÐ½ÑīÐ¸Ð½Ð°":6426,"ĠÐ½ÑĥÒ£Ð°Ð½Ð¼Ð°Ð½":6427,"ĠÐ±ÑĢÐ¸Ð³Ð°Ð´Ð¸ÑĢ":6428,"ĠÑįÓĪÑįhÓ£Ð½":6429,"ĠÑįÓĪÑįhÓ£ÑĤÑĭÐ½":6430,"ĠÐ²ÑĢÐ°Ñĩ":6431,"ĠÐ¸Ð»ÑįÐ´ÑĭÑĤ":6432,"ĠÐ¼ÐµÑģÑĤÐµ":6433,"ĠÑĥÑģÐ»ÑĭÑĪÐ°Ð»Ð¸":6434,"ĠÐ¿Ð¾ÐºÐ¾Ð¹Ð½Ð¾Ð¹":6435,"ĠÑĤÑĢÐµÑĤÑĮ":6436,"ĠÑĩÐµÑĢÑĤÑĥ":6437,"ĠhÐ°Ð¼Ð°hÐ°Ð»":6438,"ĠÑĤÐµÑĩÐµÐ½Ð¸Ðµ":6439,"ĠÑĪÐºÐ¾Ð»Ð°Ð»Ð°":6440,"ĠÑĪÐºÐ¾Ð»Ð°Ð´Ó¯":6441,"ĠÐ¿ÑĢÐ¸Ð½ÐµÑģÑĤÐ¸":6442,"Ð°Ð¼Ð¸Ð½Ð¼Ð¸":6443,"Ð¾Ð´Ð½Ð¾Ð³Ð¾":6444,"Ð»Ð´ÑĥÐºÑĤÑĭÐ½":6445,"Ð²ÐºÐ°Ð½Ñį":6446,"ĠÐ±ÑįÐ»ÑįÐ´ÐµÒ£ÐºÓ£ÑĦ":6447,"ĠÐ±ÑĥÐ½Ó£Ð»Ð»Ñį":6448,"ĠÐ±ÑĥÐ½Ó£ÓĪÐ½ÑįÐºÑįÐ»":6449,"ĠÑģÑĭÐ½Ð¾Ð¼":6450,"ĠÑģÑĭÐ½Ð¾Ð²ÑĮÑı":6451,"ĠÑģÐ½ÐµÐ³Ð¾Ð¼":6452,"Ð¿Ð»Ð°ÑĩÐ°":6453,"ĠÐ´ÐµÐ»ÑģÑı":6454,"ĠÐ²ÑĤÐ¾ÑĢÐ¸":6455,"ĠÐ¸ÑģÑįÑĢÑį":6456,"ĠÐ¼Ð¸ÐºÑĩÐ°":6457,"ĠÐ°ÑĢÐ°ÐºÑĥ":6458,"ĠÐ¿Ð¾ÐµÐ´ÐµÑĤ":6459,"ĠÑģÑĤÐ°Ð²ÑıÑĤ":6460,"ĠÑģÐ¾Ð²hÐ¾Ð·":6461,"ĠÑģÐ¾Ð±ÑĢÐ°Ð»Ð¸":6462,"ĠÐ¾ÑĢÐ¾Ð½Ð¼Ð¾":6463,"ĠÐ¾ÑħÐ¾ÑĤÐ½Ð¸Ðº":6464,"ĠÐ¾ÑħÐ¾ÑĤÐ½Ð¸ÐºÐ¾Ð¼":6465,"ĠÐ¾Ð³Ð½Ñı":6466,"ÐºÐ¾Ð¼Ð¾ÐµÐ¼Ð¸":6467,"ĠÐ¿Ð¾ÑıÐ²Ð¸Ð»Ð¸ÑģÑĮ":6468,"ĠÐ¿Ð¾ÑıÐ²Ð¸Ð»Ð°ÑģÑĮ":6469,"ĠÐ¿Ð¾Ð´Ð¾Ð¶":6470,"ĠÑĤÐ¸ÑħÐ¾Ð½ÑĮÐºÐ¾":6471,"ÑĤÑĥÐ³ÑįÐ½Ó£Ð²Ñį":6472,"ĠhÑĥÑĤÑįÐ²":6473,"ĠÑĢÐ°Ð·Ð³Ð¾Ð²Ð°ÑĢÐ¸Ð²Ð°ÐµÑĤ":6474,"ĠÑħÐ°Ð²Ð°Ð»Ð´ÑıÑģÐ°":6475,"ĠÑĢÑĥÐºÐ°Ð²":6476,"ĠÑĢÑĥÐºÐ°Ð¼Ð¸":6477,"ĠÐ²ÐµÑĢÑħÐ¾Ð²ÑĭÑħ":6478,"ĠÐ¾ÑģÑĤÐ°Ð²Ð»Ñı":6479,"ĠÐ¸ÑĩÑįÑĤÑĩÑįÐ¼":6480,"ĠÐ¼ÐµÑģÑıÑĨÐµ":6481,"ĠÑĥÐ»ÑĥÐºÓ£Ð»Ð²Ñį":6482,"ĠÑģÐ²Ð°Ð´ÑĮÐ±Ñĥ":6483,"ĠÑĥÐ¿ÐºÐ°ÑĤÐ¿Ð°":6484,"ÑįhÓ£ÐºÐ¾":6485,"ÐºÐ»Ð°Ð´Ñĭ":6486,"ĠÑģÐ´Ð°Ð²Ð°":6487,"ĠÐ¾Ð¼Ð¾Ð»Ð³Ó£Ð½ÑįÐ½":6488,"Ð¿ÐµÑĪÐºÐ¾Ð¼":6489,"ĠÐ´Ð»Ð¸Ð½Ð½ÑĭÐµ":6490,"ĠÐ²Ð¿ÐµÑĢÐµÐ´Ð¸":6491,"ĠÐ¸ÑĢÐºÑĥÑĤ":6492,"ĠÑĥÑĤÐ¾Ð½ÑĥÐ»":6493,"ĠÑĥÐ¼Ð¸ÑĢÐ°Ð»Ð¸":6494,"ĠÐ½Ð°Ð¹Ð´ÐµÑĪÑĮ":6495,"ĠÐ´ÐµÐ²ÑĥÐ»Ð´Ð¾":6496,"ĠÐ´ÐµÐ²ÑĥÐ»Ð´ÐµÓĪÐ¾":6497,"ĠÐ²ÑĭÑĢÐ°ÑģÑĤ":6498,"ĠÐ±Ð¾ÑıÐ»Ð°ÑģÑĮ":6499,"ĠÑħÑĥÑĤÑįÑı":6500,"ĠÐ½ÑıÓĪÑĤÐ°Ð»":6501,"ĠÐ½ÑıÓĪÑĤÐ°Ð»Ð°":6502,"ĠÑģÑĤÑĢÐ°ÑĪÐ½ÑĭÐ¹":6503,"ĠÒ£ÑįÐ½ÑįÐ²Ñĥ":6504,"ĠÐ·Ð°ÐºÑĢÐ¸ÑĩÐ°Ð»Ð°":6505,"ĠÐ¶ÐµÐ»ÐµÐ·Ð¾Ð¼":6506,"ĠÑģÑĬÐµ":6507,"ĠÐ¾Ð´ÑıÐ½Ð´Ñį":6508,"ĠÐ¿ÐµÑĢÐ²ÑĭÐ¹":6509,"ĠÐºÑĢÐ¸ÐºÐ½ÑĥÐ»Ð°":6510,"ĠÑĥÑĤÑĢÐ¾Ð¼":6511,"Ð´ÑįÐ³Ð¸Ð²Ñĥ":6512,"ĠhÑĥÐºÑĤÑĭÐ»Ð»ÑįÐ½":6513,"ĠÑģÐ°Ð´Ð¸Ðº":6514,"ĠÑģÐ°Ð´Ð¸ÐºÑĤÓ¯":6515,"ĠÑĤÐ°ÑĢÐ³Ð°ÑģÐ¸Ð½":6516,"ĠÑıÐºÑĥÑĤÑģÐºÐµ":6517,"ĠÐ´ÑİÐ»Ð¾ÑģÐºÐ¸":6518,"ĠÐ´ÑİÐ²ÑĥÐ´ÐµÑĢÑįÐ½":6519,"Ð±ÑĥÐ»ÑĤÐ°Ð½Ð°":6520,"Ð½ÑĭÐ¼Ð´Ð°Ð²Ð½Ð¾":6521,"ĠÑĪÑĥÑĢÑĥÓĪÐ½ÑįÑĢÑįÐ²":6522,"ÑįÐ½Ð¸Ð½Ð¼Ð¸":6523,"ĠÐ±Ð¾ÑĢÓ£ÑĢÑį":6524,"ĠhÑĥÑĢÑĥÐ¿ÑģÑĳÐ»":6525,"ĠÐ¾Ð±Ð¼Ð°Ð½Ñĭ":6526,"ĠÐ¸ÑĢÑįÐºÑģÑįÐ²Ð¾Ð½":6527,"ÑĤÑĤÑıÐ½Ð°":6528,"ÑĩÄģÐ½":6529,"ĠÐ¾ÑĩÐ°Ð³":6530,"ĠÐ²ÑģÐ¿Ð¾Ð¼Ð¸Ð½Ð°":6531,"ĠÐ°ÐºÑĩÑĥ":6532,"ĠÐ°ÐºÐ½Ð¸Ð»Ð¸Ð½":6533,"ĠÐ°Ð¼Ð¸Ð¼":6534,"ĠÑĥÑģÐ¸ÑĤÑĩÐ°":6535,"ĠÐ³ÄĵÐ»Ð°":6536,"ÑİÑīÐ¸Ð¼":6537,"ĠÐ¿Ð¾Ð´Ð°ÑĢÐ¾Ðº":6538,"ĠÐ±Ð¸Ò£ÑįÑħÐ¸Ð¹Ð¸":6539,"ĠÑĤÐ²Ð¾Ñı":6540,"ĠÐ³Ð¾Ð½ÑıÐ»Ð°":6541,"Ð²ÑĥÐ½Ð°Ð¸":6542,"ĠÐºÐ°ÐºÐ¾Ð¹Ð½Ð¸Ð±ÑĥÐ´ÑĮ":6543,"ĠÑģÐ¾ÑģÐµÐ´ÑıÐ¼":6544,"ĠÑģÐ¾ÑģÐµÐ´ÑıÐ¼Ð¸":6545,"ĠÐ´Ð¾ÑĢÐ¾Ð³Ñĥ":6546,"Ð²ÐµÑĢÑĤÐ¾Ð»ÐµÑĤÑĭ":6547,"ĠÐ»Ð¾ÑģÐµÐ½Ð¾Ðº":6548,"ĠÑĤÐµÐ¿Ð»Ð¾":6549,"ĠÑģÐµÐ²ÐµÑĢÐ½Ð°Ð¹":6550,"ĠÐ¶ÐµÐ½ÑīÐ¸Ð½Ð¾Ð¹":6551,"ĠÑĢÐ°ÑģÑģÐºÐ°Ð·ÑĭÐ²Ð°Ð»":6552,"ĠÑģÑĤÑĢÐµÐ»ÐºÐ¾Ð²":6553,"ĠÑįÐ²ÑįÐ½ÐºÓ£Ð»":6554,"ĠÑĥÐ»ÑĥÐ¼Ó£ÑĩÐ¾":6555,"ĠÄĵÐºÑĥÑĢÐ²Ð°Ð»":6556,"ĠÑįÑĢÑĥÐ¿ÑĩÑĥÑĤ":6557,"ĠÐ¿Ð¾ÑĤÐ°Ð¿Ð¾Ð²Ð°":6558,"hÄĵÓĪÐ°Ð½":6559,"ÑĥÐ»ÑĥÐºÓ£":6560,"ÑĥÐ»ÑĥÐ¼Ó£":6561,"Ð²Ð´Ð¾Ð»ÑĮ":6562,"ĠÑģÐ²ÐµÑĤÐ»Ð¾":6563,"ĠÑįhÐ¸ÐºÐ¾Ð½":6564,"ĠÐ¿Ð¸ÑģÐ°Ð»Ð¸":6565,"ĠÐ¸ÑģÐµÑĤÑĤÐµÐ½Ñį":6566,"ĠÑĤÐ°ÑĢÐ¸Ð»Ð²Ð°":6567,"ĠÑĥÑĢÑįÐ³Ñį":6568,"ĠÑĥÐ³ÑĥÑĩÐ°":6569,"ĠÐ³ÑĢÐ°Ð¼Ð¾ÑĤÐ°":6570,"ĠÐ³ÑĢÐ°Ð¼Ð¾ÑĤÑĭ":6571,"ÑĢÐ¸ÐºÑĤÐ°ÑĤÑĭÐ½":6572,"ĠhÐ¸Ð»Ð±Ð°ÑĢÐ°":6573,"ĠÐ¿Ð¾Ð»Ð¸Ð³ÑĥÑģÐµ":6574,"ĠÐ½Ð°ÑģÐ°Ð¶Ð¸Ð²Ð°Ð»":6575,"Ð´ÑıÒ£Ð°Ñģ":6576,"Ð¸Ð»ÑįÐ´ÑĭÑĤÑĩÐ¸ÐºÑįÐ»":6577,"ĠÑĩÐ¸ÑĢÐ¸Ð½Ð´Ð°":6578,"ĠÑĩÐ¸ÑĢÐ¸Ð½Ð´Ñĥ":6579,"Ð¾Ð»Ð´Ð¾Ð»Ð²Ð¾":6580,"Ð¾Ð»Ð´Ð¾Ð»Ð±Ð¾":6581,"ÑĢÐµÐ±ÐµÐ½ÐºÐ°":6582,"ĠÑĤÑĥÐºÑĤÑĭÑĢÑįÐ½":6583,"Ð»ÑįÐ²ÑģÑĭ":6584,"ĠÐ¼Ð¾ÑģÐºÐ²Ñĭ":6585,"ĠÐ±ÑįÑĳÐ´Ð°":6586,"ĠÑĤÑįÐ²Ð»Ð¾":6587,"Ð½ÑıÐ¼Ð°Ð¿ÑĩÑĥ":6588,"hÑĥÐ²ÑĥÐ»Ð²ÑįÐ½":6589,"hÑĥÐ²ÑĥÐ»Ð±ÑįÐ½":6590,"ĠÐ¶ÐµÐ½Ð¸h":6591,"ĠÐ´ÑĥÐ»Ð¸Ð½Ð¼Ð°Ð½":6592,"ĠÐ´Ð¾Ð»Ð±Ð¾Ð½Ó£":6593,"ĠÐ´Ð¾Ð»Ð±Ð¾Ð½Ó£Ð²Ñį":6594,"ÑĬÑıÐºÐ»Ð°":6595,"ĠÐ¿ÑĢÐ¸Ð½Ð¾ÑģÐ¸ÑĤ":6596,"ĠÑĤÐ°ÑĢÐ¸ÓĪÐ¼Ð¸":6597,"ĠÑĤÐ°ÑĢÐ¸ÓĪÐ¸Ð»Ð¸Ð½":6598,"ĠÑįÐ½ÑĤÑĭÐ»Ð²Ð¸":6599,"ĠÐ¿Ð°Ð»Ð°ÑĤÐºÐµ":6600,"ĠÐ¿Ð°Ð»Ð°ÑĤÐºÐ°Ð»":6601,"ĠÐ²Ð¾ÑģÐ¿Ð¸ÑĤÑĭÐ²Ð°ÑĤÑĮ":6602,"ĠÐºÐ¸Ð»Ð¾Ð¼ÐµÑĤÑĢ":6603,"ĠÐºÐ¸Ð»Ð¾Ð¼ÐµÑĤÑĢÐ¾Ð²":6604,"ÑįÑıÐ´Ð°":6605,"Ð²Ð·ÑıÐ»Ð°":6606,"ĠÑģÐ»Ð¾Ð²Ð°":6607,"ĠÑģÐ¿Ð¸ÑĪÑĮ":6608,"ĠÐ¾Ð±Ð¾Ð´ÑĢÐ°Ð»Ð¸":6609,"Ð¿ÐµÐ½ÑģÐ¸Ð¾Ð½ÐµÑĢ":6610,"Ð»Ð¸ÑģÐ¸Ð²ÐºÓ£Ð»":6611,"ĠÑįÐ¼ÑĥÐºÐ¸Ð½":6612,"ĠÑįÐ¼ÑĥÐ³Ð´Ñį":6613,"ĠÐ²Ð°Ð»Ðµ":6614,"ĠÐ²ÑģÑĤÑĢÐµÑĩÐ°Ð»":6615,"ĠÐ²ÑģÑĤÑĢÐµÑĩÐ°Ð»Ð¸":6616,"ĠÐ°Ð¹Ð´Ð°":6617,"ĠÐ°ÐºÐ¸Ð½Ð¸Ð½":6618,"ĠÑĥÐ³Ð´Ñĥ":6619,"ĠÐ¿Ð¾Ð²ÐµÑģÐ¸Ð»":6620,"Ð½Ð°ÑĢÐ¾Ð´":6621,"Ð»Ð¾Ð´ÐºÑĥ":6622,"Ð½Ð¾Ð³Ð¸Ðµ":6623,"Ð°Ð»Ð±Ð°ÑĢÐ°Ð½":6624,"Ð¿Ð¾ÐºÐ¾Ð¹Ð½ÑĭÐ¹":6625,"Ð¿Ð¾ÐºÐ¾Ð¹Ð½Ð°Ñı":6626,"ÑģÐ°Ð´Ð¸ÑģÑĮ":6627,"ĠÑĤÑĥÓĪÐ°Ð²Ð°":6628,"ĠÐºÐ°ÐºÐ¸ÐµÑĤÐ¾":6629,"ĠÐ¾Ð»ÑĢÐ¾Ð¼Ó£":6630,"ÑģÑĤÐ°ÑĢÑĪÐ¸Ð¹":6631,"ĠÐ´ÑĥÐ´Ð¸Ð½ÐºÐµ":6632,"ĠÐ´ÐµÑĤÑģÑĤÐ²Ð°":6633,"ĠÐ°Ð¼Ð°ÐºÐ°Ð²":6634,"ĠÐ±ÐµÑĢÐµÑģÑĤÑıÐ½ÐºÐ¸":6635,"ĠÐ±ÐµÑĢÐµÑģÑĤÑıÐ½ÐºÑĥ":6636,"ĠÐ½Ð°ÑģÑĤÑĥÐ¿Ð°ÐµÑĤ":6637,"ĠÐ±ÐµÐ³Ð°Ñı":6638,"ĠÑħÑĥÑİÐºÓ¯Ð½":6639,"ĠÐ¿ÑįÐºÑĤÑĭÑĢ":6640,"ĠÐ±Ó¯Ð½Ó£Ð´ÐµÑĢÐ¸Ð»Ð²Ñį":6641,"ĠÐ°Ð´Ð¸Ð»Ð¸ÑĤÑĩÐ°ÑĦÐºÓ£":6642,"ĠÐ½ÐµÐºÑįÓĪÐ´ÑįÐ´Ó¯":6643,"ĠÐ²Ð¾Ð·ÑĮÐ¼":6644,"ĠÐºÐ¾Ð»Ð¾ÐºÐ¾Ð»ÑĮÑĩÐ¸Ðº":6645,"ĠÑĥÑĩÐ¸ÑĤÐµÐ»ÑĮÐ½Ð¸ÑĨÐ°":6646,"ĠÒ»Ð°Ð²Ð°Ð»Ð´Ñį":6647,"ĠÐ´ÐµÑĢÐµÐ²ÑĮÑıÑħ":6648,"ĠÐ²Ð·ÑĢÐ¾ÑģÐ»ÑĭÐµ":6649,"ĠÑĤÐ°Ð¹Ð¼ÑĥÑĢÐ°Ð»Ð°":6650,"ĠÐ¾Ð¿ÑĭÑĤ":6651,"Ð¿ÑĢÑıÐ¼Ð¾":6652,"ĠÑįÑģÓ£ÐºÐ¾":6653,"ÐºÐ°Ð¿ÐºÐ°Ð½Ñĭ":6654,"ĠÐ¸Ð½Ó£Ð³Ñį":6655,"ĠÐ¼ÐµÑĤÑĢÐ¾Ð²":6656,"ĠÐ¿Ð¾ÑģÑĤÑĢÐ¾Ð¸ÑĤÑĮ":6657,"ÑĩÐ°ÑĤÑĤÑĭ":6658,"Ð¾Ð»ÐµÐ½ÑıÐ¼Ð¸":6659,"ĠÐºÐ°ÐºÑĥÑİÑĤÐ¾":6660,"ĠÐ·Ð°Ð¹ÑĨÐµÐ²":6661,"ĠÐ¾Ð»Ð´Ð¾Ð»Ð²Ð¾":6662,"ĠÐ½Ð¸Ð¼Ð¾ÐºÐ¸Ð»Ð´Ó¯Ð²ÑįÑĢ":6663,"Ð»ÑĮÐ½Ð¸ÐºÐ¸":6664,"Ð»ÑĥÑģÐ°Ð´Ð¸ÑĤ":6665,"Ð»ÑĥÑģÐ°Ð´ÑĭÑĤ":6666,"ĠÑĢÐµÐ±ÑıÑĤÐ¸ÑĪÐºÐ¸":6667,"Ð¸ÑĢÐ³Ð¸ÑĩÓ£Ð»":6668,"ĠÐ´ÑįÐ³ÑĢÑį":6669,"ĠÐ¼ÑĥÐ½Ð´ÑĥÐºÐ°ÑĢ":6670,"ĠÑģÑĥÑĢÑĥÐ¿Ð´ÐµÐ¼":6671,"ĠÑįÐ²ÑįÓĪÐºÓ£Ð»":6672,"ĠÑĩÐ°ÑģÐ¾Ð²Ð½Ñı":6673,"ĠÑĤÑĥÐ½Ð´ÑĢÑĭ":6674,"ĠÑģÑĤÄģÐ´Ð¾Ð»Äģ":6675,"ĠÐ¾Ð±ÑĢÐ°Ð´Ð¾Ð²Ð°Ð»Ð¸ÑģÑĮ":6676,"ĠÐ¿ÑĢÐ¸Ð²ÑıÐ·Ð°Ð½Ñĭ":6677,"ĠÐ½ÑİÑĤÑįÑĤ":6678,"ĠÐ±Ð¸Ð¼ÑĩÑįÐ²":6679,"ĠÑĤÑıÐ¶ÐµÐ»Ð¾Ðµ":6680,"ĠÐ²ÑĭÐ´ÐµÐ»ÑĭÐ²Ð°ÑİÑĤ":6681,"ĠÐ²Ð¾Ð»Ð¾ÑĩÐ¸ÑĤÑģÑı":6682,"Ð¸ÑģÐ¿ÑĥÐ³Ð°":6683,"Ð¼Ð´ÑįÑĤÑĭÐ½":6684,"Ð³ÑĢÐ¸Ð±Ñĭ":6685,"ĠÑģÓ£ÑĤÐ°":6686,"ĠÐ¾ÓĪÐ¾ÐºÑĤÐ¾":6687,"ĠÐ¾Ð¶Ð¸Ð»Ð°":6688,"ĠÐ¾ÓĪÐ½Ð¾ÐºÐ¾ÑĢ":6689,"ĠÑįÑĢÐ°ÐºÐ°":6690,"ĠÐ²ÐµÑĤÐºÐ¸":6691,"ĠÐ¿Ð¸Ð½Ð°ÑĤÑĮ":6692,"Ð·Ð²ÐµÐ½ÑıÑĤ":6693,"ĠÐ¸Ð´ÑĥÐºÐ¿ÑįÐ»":6694,"ĠÐ°ÑĤÐ¸ÑĢÐºÐ°":6695,"ĠÐ°hÓ¯ÑĢÐ°":6696,"ĠÐ¿Ð¾Ð²Ð¾Ð´Ñĥ":6697,"ĠÐ½Ð°Ð²ÑģÑĤÑĢÐµÑĩÑĥ":6698,"ĠÐ½Ð°Ð»ÐµÐ´ÑĮ":6699,"ĠÐ»ÐµÐ½Ð¸ÑĤÑĮÑģÑı":6700,"Ð¾Ð»Ð»Ð¾Ð¼Ð¾":6701,"ĠÐºÐ¾ÑģÑĤÑĢÑĥ":6702,"ĠÐºÐ°Ð¼Ð½ÑıÑħ":6703,"ĠÐºÐ°Ð¼ÑĥÑģÑĭ":6704,"ĠÑıÐ½Ð²Ð°ÑĢÑĮ":6705,"ĠÐ¿ÑĢÐ¸ÐµÐ´ÐµÑĤ":6706,"ĠÐ¿ÑĢÐ¸ÐµÑħÐ°ÑĤÑĮ":6707,"Ð·Ð°Ð±Ð¾Ð»ÐµÐ»":6708,"ĠÐ²ÑĭÑģÐºÐ¾ÑĩÐ¸Ð»":6709,"ĠÐ¿ÑĢÐ¾ÐºÐ¾Ð¿":6710,"ĠÐºÑĥÑĢÐ¾Ð¿Ð°":6711,"ĠÑĢÐ°Ð·Ð¶ÐµÑĩÑĮ":6712,"ĠÐ¼ÑĥÐºÑĥÑĢÐ°ÑģÐ°":6713,"ĠÐ¿ÐµÑĢÐµÐ¿ÑĢÐ°Ð²Ð»ÑıÑĤÑĮÑģÑı":6714,"ĠÑħÑĥÐºÐ¾ÑĤ":6715,"ĠÑĤÑĥÐ³ÑįÐ½Ó£Ð´Ó¯":6716,"Ð¿ÑĢÐ¾Ð´ÑĥÐºÑĤÐ¾Ð²":6717,"ĠÐ¸ÑģÐ¿ÑĥÐ³Ð°Ð»ÑģÑı":6718,"ĠÐ±ÄĵÐ³Ð°ÑģÐ¸":6719,"ĠÑĢÐ°Ð·Ð¾Ð¶Ð³Ð»Ð°":6720,"ĠhÐ¾ÓĪÐ¾Ð´ÑĳÐ½Ð¾":6721,"ĠÐ·Ð²ÐµÑĢÐ¾ÑĦÐµÑĢÐ¼Ðµ":6722,"ĠÑģÐµÐ½ÑĤÑıÐ±ÑĢÐµ":6723,"ĠÐ±ÐµÐ½Ð·Ð¸Ð½":6724,"ĠÐ¾ÐºÑĤÑıÐ±":6725,"Ð¿ÑĢÐ¸Ð½ÐµÑģ":6726,"Ð±ÑĢÐ¸Ð³Ð°Ð´Ð¸ÑĢ":6727,"ĠÐ´Ð²ÑĥÑħ":6728,"ĠÐ²ÐµÑĤÐµÑĢÐ°Ð½":6729,"Ð´Ð°Ð²Ð½ÑĭÐ¼Ð´Ð°Ð²Ð½Ð¾":6730,"ĠÐ¼ÐµÐ½ÑıÑĤÑĮ":6731,"ĠÐºÐ¾Ð»ÐµÐ½Ð¾":6732,"ĠÐ°Ð²Ð°Ð´Ñĭ":6733,"ĠÑĥÐ²ÐµÐ´ÐµÐ¼":6734,"ĠÑĤÐµÑĤÐµÐµ":6735,"Ð¼Ð°ÐºÑģÐ¸Ð¼":6736,"Ð³Ð°Ð½Ð°Ð»ÑĩÐ¸Ð»":6737,"ĠÐºÐ¾Ð³ÑĤÐ¸":6738,"ĠÐ¼Ð¾hÐ°Ð´Ó¯":6739,"ĠÐºÐ°Ð·Ð°Ñħ":6740,"ĠÐ¿ÑĢÐ¸Ð²ÑĭÐºÐ»Ð¸":6741,"ĠÐ½Ð¸Ð·Ð¾Ð²ÑĮÐµÐ²":6742,"ĠÐ¾ÑĤÐ²ÐµÑĢÑģÑĤÐ¸Ðµ":6743,"ĠÐ¾ÑĤÐºÑĥÐ´Ð°ÑĤÐ¾":6744,"Ð½ÐµÐºÐ¾ÑĤÐ¾ÑĢÑĭÐµ":6745,"ĠÐ¿ÑĢÐ¾Ð²ÐµÑĢÑıÑĤÑĮ":6746,"ĠÐ±Ð°ÑĢÐ³Ð¸Ð´Ð°":6747,"ÐºÑĤÐ°ÑĢÐ°Ð½Ð¸Ð¼":6748,"ĠÐ»ÐµÐ±ÐµÐ´ÐµÐ²Ð¾Ð¹":6749,"ĠÑħÐ°Ð½ÑĤÐ°Ð¹ÑģÐºÐ¾Ðµ":6750,"ĠÐ´ÑįÑĢÑĥÐ¼ÐºÐ¸":6751,"ĠÐ²ÐµÑīÐ°Ð¼Ð¸":6752,"ĠÐ´Ð¸ÑĢÐµÐºÑĤÐ¾ÑĢÐ¾Ð¼":6753,"ĠÐ»Ð°Ð±Ð°Ð·":6754,"ĠÐ´ÑĥÐ¼Ð°Ð¸Ð»ÑĩÐ°":6755,"ĠÐ¿Ð°Ð»ÑĮÐ¼Ð¾Ð¹":6756,"ĠÐ°Ò£Ð°Ð½Ð¸ÑģÐ¸":6757,"ĠÑĤÐµÐ¼Ð½Ð¾ÑĤÐµ":6758,"ĠÐ¾ÑħÐ¾ÑĤÐ½Ð¸ÐºÐ°Ð¼":6759,"ĠÐ´ÑĥÐ½Ð½ÑįÐ»Ð´ÑĥÐº":6760,"ĠÐºÐ¾Ð¼Ð½Ð°ÑĤÐ°":6761,"ĠÐºÐ¾Ð¼Ð¼ÐµÑĢÑģÐ°Ð½":6762,"ĠÐ¾ÑģÑĤÐ°Ð²ÑĮÑĤÐµ":6763,"ĠÑĢÐ°ÑģÑģÐµÑĢÐ´Ð¸Ð»ÑģÑı":6764,"ĠÐ½ÐµÐ²ÐµÑģÑĤÐºÐ°":6765,"Ð¿Ð°Ð»Ð°ÑĤÐºÐ°Ð»Ð°":6766,"ĠÐ¼Ð¾ÑģÐºÐ²Ð°Ð´ÑĥÐº":6767,"ĠÐ±ÑĢÑĥÑģÐ½Ð¸ÐºÐ°":6768,"ĠÑĤÄĵÑĤÄĵÐ´Ó¯":6769,"ĠÐ¾ÑĤÑģÑĥÑĤÑģÑĤÐ²Ñĥ":6770,"Ð¾ÑģÐµÐ½ÑĮÑİ":6771,"Ð¾Ð³Ð¾Ð½ÑĮ":6772,"ÑįÐ²ÐµÐ½ÐºÐ¸":6773,"ÑģÑĤÐµÑĢÐ¸ÑĨÐ°":6774,"Ð³Ð»ÑĥÑħÐ°":6775,"ĠÐ¾Ð±Ð¸Ð¶Ð°":6776,"ĠÑįÑģÐ¸Ð»Ñį":6777,"ĠÐ¸ÑģÐ¿Ð¾Ð»":6778,"ĠÑĤÐ°Ð³Ó£ÐºÑĤÐ°":6779,"Ð³Ð¾Ð»Ð¾Ð²Ñĥ":6780,"ĠÐ½Ð°ÑĢÑĤÐ°Ñħ":6781,"ĠÐ½Ð°ÑħÐ¾Ð¶ÑĥÑģÑĮ":6782,"ĠÑĤÐ¸ÑĢÐ³Ð°Ð½Ó£":6783,"Ð½Ð°Ð²ÐµÑĢÐ½Ð¾Ðµ":6784,"Ð½Ð¾ÑĩÑĮÑİ":6785,"ĠÐµhÐ¾ÑĢÑĮÐµ":6786,"ĠÐµÐ»Ð´Ð¾Ð³Ð¸ÑĢ":6787,"ĠÐ½ÐµÐ²Ð¾Ð·Ð¼Ð¾Ð¶Ð½Ð¾":6788,"ÑģÐ°Ð¼ÑĭÐ¹":6789,"ĠhÑĥÒ£ÑĤÑĥÐ»Ð´ÑĥÐº":6790,"ĠÑģÐ°Ð¼ÑĥÑİ":6791,"ĠÑģÐ°Ð¿ÑĥÑıÐ½Ñĭ":6792,"ĠÐ·Ð°ÑīÐ¸ÑīÐ°":6793,"ĠÐ·Ð°Ð±Ð»ÑĥÐ´Ð¸Ð»ÑģÑı":6794,"ĠÑĢÑĭÐ±Ð°Ð»ÐºÐ°":6795,"ĠÑĢÐ°ÑģÑĪÐ¸ÑĦÑĢÐ¾Ð²ÐºÐµ":6796,"ĠÐ½ÑĥÓĪÐ°ÑĢÐ½ÑĥÐ½ÑĤÑĭÐ½":6797,"ĠÐ¾Ð±ÑĢÐ°Ð·Ð¾Ð¼":6798,"ĠÐ¾Ð±Ð´Ð¸ÑĢÐ°ÑĤÑĮ":6799,"ĠÐ¿ÐµÑĢÐµÑĤÐ°ÑģÐºÐ¸Ð²Ð°ÐµÑĤ":6800,"ĠÓ£Ð²ÑģÑĳÐ²Ð¾":6801,"ĠÐ¿Ð¾Ð»Ð¼ÐµÑģÑıÑĨÐ°":6802,"ÐºÐ¾Ð»Ð¾ÐºÐ¾Ð»ÑĮÑĩÐ¸Ðº":6803,"ĠÑĤÐµÐ»ÐµÐ³ÑĢÐ°Ð¼Ð¼Ñĥ":6804,"ĠÑģÐ¿ÐµÑĨÐ¸Ð°Ð»ÑĮ":6805,"hÎ":6806,"hÐ¸Ð»Ð¸":6807,"hÑĥÐ½Ó£":6808,"ĠÑĢÐ¸":6809,"ĠÑĤÑĭÐ½":6810,"ĠÄģ":6811,"ĠÑĨÐµÐ»Ð¸":6812,"Ð°ÑĪ":6813,"Ð°ÓĪÐ°":6814,"Ð°ÑĢÐ°Ð½":6815,"Ð°Ò£Ð°":6816,"Ð°ÑĩÐ¸Ð½":6817,"Ð°Ð½Ð°Ð½":6818,"Ð°Ð»Ð¸Ðº":6819,"Ð°Ð±Ð°ÑĩÓ£":6820,"Ð°Ó£Ð²Ñĥ":6821,"Ð¾Ð¿":6822,"Ð¾Ð´Ðµ":6823,"Ð¾Ñĳ":6824,"Ð¾ÑĤÐµ":6825,"Ð¾Ð±Ñĭ":6826,"Ð¾ÐºÐ¸Ð½":6827,"Ð¾ÑĢÐ¸ÑĤ":6828,"Ð¾Ð²ÐµÑĤ":6829,"Ð¾ÑģÐ»Ð¾":6830,"Ð¾Ð³Ð´Ð¾ÐºÐ¾":6831,"ÑĤÐ³":6832,"ÑĤÑĩ":6833,"ÑĤÐ»Ð°":6834,"ÑĤÑİ":6835,"ÑĤÐ½Ð°":6836,"ÑĤÐ¼Ñį":6837,"ÑĤÑĳ":6838,"ÑĤÐºÐ¸Ð½":6839,"ÑĤÐ½ÑĭÐ¹":6840,"ÑĤÐ½ÑĭÐµ":6841,"ÑĤÐ²Ð¾Ð¹":6842,"ÑĤÑĩÐ¾Ð»":6843,"ÑĤÐ½Ð°Ð»":6844,"ÑĤÐ¼Ó¯":6845,"ÑĤÑĤÑĭÐºÐ¸":6846,"ÑĤÑıÐ½ÐµÑĤ":6847,"ÑĤÐ¿Ð°Ð½":6848,"Ð¸Ð´Ñĥ":6849,"Ð¸Ñĳ":6850,"Ð¸ÑĤÑĩÑį":6851,"Ð¸ÑĪÑĮ":6852,"Ð¸Ð²Ð°Ð½":6853,"Ð¸ÑīÐ¸":6854,"Ð¸Ð´ÑĥÑĤ":6855,"Ð¸hÑįÐ»":6856,"Ð¸Ð²Ð´Ð°":6857,"Ð½Ó¯":6858,"Ð½Ð³Ð¾":6859,"Ð½Ð½Ð¸":6860,"Ð½ÐµÐ½ÑĮ":6861,"Ð½ÑıÑĤÑĮ":6862,"Ð½ÓĪÑį":6863,"Ð½ÑıÑĤ":6864,"Ð½Ð´ÐµÐ¼":6865,"Ð½ÐºÐ¾Ð¹":6866,"Ð½ÑĤÐ¸Ð½":6867,"Ð½ÑĤÑı":6868,"Ð½ÑĤÑĭÐºÓ£":6869,"Ð½Ð²ÑįÐ½":6870,"Ð½ÓĪÑĥ":6871,"Ð½ÐµÐ»ÑĮ":6872,"Ð½Ò£Ó£":6873,"Ð½ÓĪÐ¸Ñģ":6874,"Ð»ÑĥÐ½":6875,"Ð»ÐµÐ½":6876,"Ð»Ð¼Ð°":6877,"Ð»Ð³Ð°":6878,"Ð»Ð±Ð¸":6879,"Ð»Ð±Ð¾":6880,"Ð»Ð²Ð°Ð½":6881,"Ð»Ð´ÐµÓĪÐ¾":6882,"Ð»Ð´Ó¯Ð½":6883,"Ð»Ð»ÐµÑĤ":6884,"Ð»Ð´ÑĥÐ½":6885,"Ð»ÑĥÐ½Ð°":6886,"Ð»Ð²Ð¾Ð½":6887,"Ð»Ð´Ó¯ÑĤÑĭÐ½":6888,"Ð»Ð´ÐµÐ¼Ð¸":6889,"ÐµÑħ":6890,"ÐµÑģÐ¸":6891,"ÐµÐ²Ð¸":6892,"ÐµÐ·Ð°":6893,"ÐµhÑį":6894,"ÐµÐºÐ°Ðº":6895,"ÐµÐ´ÑĥÑĤ":6896,"ÐµÐºÑĥÐ½Ñį":6897,"ÑįÐº":6898,"ÑįÐ´Ðµ":6899,"ÑįÐ´Ð¸":6900,"ÑįÐ½Ñį":6901,"ÑįÑģÐµ":6902,"ÑįÑģÐ¾":6903,"ÑįÄĵ":6904,"ÑįÑģÑį":6905,"ÑįÐ´ÐµÓĪÐ¾":6906,"ÑįÑĦÐºÓ£Ð»":6907,"ÑįÐ´Ó£":6908,"ÑįÓĪÐºÓ£Ð²ÑĥÐ½":6909,"ÑįÑģÑįÐ»":6910,"ÑįÐºÑįÐ»Ð´Ñĥ":6911,"ÑįÓĪÐ½ÑįÐ¼":6912,"ÑįÓĪÐ½ÑįÐºÑįÐ»":6913,"ÑįÐ²ÐºÑį":6914,"ÑįÐ²ÑĥÐ½Ð°Ð¸":6915,"ÑĢÐµÐ½":6916,"ÑĢÑĤÑį":6917,"ÑĢÐ´ÑĥÐº":6918,"ÑĢÐ²ÑĥÐ½":6919,"ÑĢÄĵ":6920,"ÑĢÐ¿Ð°":6921,"ÑĢÐ²Ð°ÑĤÑĭÐ½":6922,"ÑĢÐ´Ó¯ÑĤÑĭÐ½":6923,"ÑĢÐ´ÑĥÐ»Ó£":6924,"ÑĢÐ¿Ð»Ð°":6925,"ÑĢÑĤÑĭÐºÐ¸Ð½":6926,"ÑĢÐµÐ½ÑĮÐµ":6927,"ÑĥÑĢÐ°":6928,"ÑĥÐºÑĥ":6929,"ÑĥÐ»Ó£":6930,"ÑĥÐ²ÑįÑĢ":6931,"ÑĥÐ³Ó£":6932,"ÑĥÑĪÐ»Ð¸":6933,"ÑĥÐ»Ð´Ñį":6934,"ÑĥÐ¼Ó¯":6935,"ÑĥÐ»Ð»Ñį":6936,"ÑĥÑĩÐ¸Ð»Ð¸ÑģÑĮ":6937,"ÑĥÑģÐ»Ñĭ":6938,"ÑĥÐ¼ÐµÑĢ":6939,"ÑĥÑİÑĤÑģÑı":6940,"ÑĥÐ´Ð¸Ð¾":6941,"ÑĥÑĩÐ°ÑģÑĤÐ¾Ðº":6942,"Ð´Ð»Ð¸":6943,"Ð´ÐºÐ°":6944,"Ð´ÐºÑĥ":6945,"Ð´Ð»Ðµ":6946,"Ð´Ð½Ðµ":6947,"Ð´Ð¸Ð½Ð°":6948,"Ð´Ð¸Ð½Ñį":6949,"Ð´ÑĢÐ°Ð²":6950,"Ð´ÑĨÐµ":6951,"Ð´Ð³Ð°ÑĢ":6952,"ÐºÐºÐ¾":6953,"ÐºÐ½Ð¾":6954,"ÐºÐ½Ñį":6955,"ÐºÑĤÐ¸":6956,"ÐºÑģÐ¾":6957,"ÐºÐ»Ñį":6958,"ÐºÐ¸Ð½Ð°":6959,"ÐºÑģÐ¸Ð½":6960,"ÐºÐ½ÑĥÐ»":6961,"ÐºÑĤÓ£":6962,"ÐºÑĢÐ¸ÑĩÐ°Ð»":6963,"ÑģÑįÐ»Ñį":6964,"ÑģÐºÑįÐ»":6965,"ÑģÑģÑį":6966,"ÑģÑĩÐ°Ñģ":6967,"ÑģÐ¼Ðµ":6968,"ÑģÐ²ÐµÑĤ":6969,"ÑģÑĩÐ¾Ð»":6970,"ÑģÐ·Ð°Ð´Ð¸":6971,"ÑģÑĢÐ°Ð·Ñĥ":6972,"Ð²ÐºÐ¸":6973,"Ð²ÑģÐ°":6974,"Ð²Ð»Ñı":6975,"Ð²Ð½Ð¾Ðµ":6976,"Ð²ÑĢÐ¸Ð»":6977,"Ð²Ð´ÐµÓĪÐ¾":6978,"Ð²ÑĪÐ°Ñı":6979,"Ð²ÑĢÐ°Ð·":6980,"Ð²ÑģÑĤÐ°Ð»":6981,"Ð²ÑĪÐ¸Ðµ":6982,"Ð²ÑĮÑİ":6983,"Ð²Ð¼ÐµÑģ":6984,"Ð²ÑģÑĤÑĢÐµÑĤ":6985,"Ð²ÑĪÐµÐ³Ð¾":6986,"Ð²ÑģÐ°Ð´Ð°":6987,"Ð²Ð³ÐµÐ½Ð¸Ñı":6988,"Ð¼ÐºÐ¾":6989,"Ð¼ÐºÓ£":6990,"Ð¼ÐµÐ½":6991,"Ð¼Ð½Ñį":6992,"Ð¼Ð¼Ñį":6993,"Ð¼ÑģÑı":6994,"Ð¼Äĵ":6995,"Ð¼ÓĻ":6996,"Ð¼Ð¼ÑįÐ»":6997,"Ð¼Ð½Ó¯":6998,"ÑĭÐº":6999,"ÑĭÑĤÐ°":7000,"ÑıÐ³Ð¾":7001,"ÑıÐ²Ð¸":7002,"ÑıÐ·Ð°":7003,"ÑıÐ»Ð¸ÑģÑĮ":7004,"ÑıÐ²Ð°ÑĢ":7005,"ÑıÐ²ÑįÐ»":7006,"Ð³ÑĢÑį":7007,"Ð³ÑĢÐ¾":7008,"Ð³Ð½Ð°":7009,"Ð³Ð»Ð¾":7010,"Ð³Ð½Ð¸":7011,"Ð³Ð´ÑįÐ»Ñį":7012,"Ñĩo":7013,"ÑĩÓ¯":7014,"ÑĩÐºÐ¾Ð¼":7015,"ÑĩÐ½Ð°Ñı":7016,"ÑĩÐµÑĤÑģÑı":7017,"ÑĩÇĿ":7018,"ÑĤÐ°Ñİ":7019,"ÑĤÐ°Ð»Ñĥ":7020,"ÑĤÐ°Ð²ÑįÑĢ":7021,"ÑĤÐ°ÑİÑĤ":7022,"ÑĤÐ°ÐºÑĤÑį":7023,"ÑĤÐ°Ð¿Ð°":7024,"ÑĤÐ°hÐ¸":7025,"ÑĤÐ°ÐºÐ¾Ð¹":7026,"ÑĤÐ°ÑīÐ¸":7027,"ÑĤÐ°ÐºÐ°Ñı":7028,"ÑĤÐ°ÐºÐ¸Ðµ":7029,"ÑĤÐ°ÐºÐ¸Ð¼":7030,"ÑĤÐ°ÑıÐ»Ð°":7031,"ÑĤÐ¾Ð»Ð¸":7032,"ÑĤÐ¾Ð²Ð°":7033,"ÑĤÐ¾ÑĢÐ¸":7034,"ÑĤÐ¾Ð»Ó£":7035,"ÑĤÐ¾ÑĩÐ½Ð¾":7036,"ÑĤÐ¾Ð»Ó£Ð½":7037,"ÑĤÐ¾Ð¿Ñĭ":7038,"ÑĤÐ¾Ð¿Ð¾ÑĢ":7039,"ÑĤÐ¾Ð»Ð³Ð¾":7040,"ĠÐ±Ñİ":7041,"ĠÐ±ÐµÐ»ÑĮ":7042,"ĠÐ±ÑĢÐ¸Ð³Ð°":7043,"ÑĮÐµÑĤ":7044,"ÑĮÐµÐ¹":7045,"ÑĮÑİÑĤ":7046,"ÑĮÐ¸Ð½Ñĭ":7047,"ĠÑģÐ»Ð°":7048,"ĠÑģÑĢÑĥ":7049,"ĠÑģÐºÑĥ":7050,"ĠÑģÐ¶Ðµ":7051,"ĠÑģÐ¼Ñĥ":7052,"ĠÑģÐºÐ¾Ð½":7053,"ĠÑģÐ¾Ð»ÑĮ":7054,"ĠÑģÐ¸Ð½Ñį":7055,"ĠÑģÐ²Ð°ÑĢ":7056,"ĠÑģÐ¸ÑĢÐ¸Ð½":7057,"ĠÑģÐºÐ»Ð¾":7058,"ĠÑģÐºÐ»Ð°Ð´Ñĭ":7059,"Ó£Ð»":7060,"Ó£Ð»Ð°":7061,"Ó£ÐºÐ¾":7062,"Ó£Ð´Ó¯":7063,"Ó£Ð»Ñį":7064,"Ó£Ð³Ð¸ÑĤ":7065,"ĠÐ½Ñĭ":7066,"ĠÐ½Ñĳ":7067,"ĠÐ½Äģ":7068,"ĠÐ½ÑĥÐ½Ñĥ":7069,"ĠÐ½ÑįÐ»ÐºÐ¸":7070,"ĠÐ¾ÑĢÐµ":7071,"ĠÐ¾ÑĩÐ¾":7072,"ĠÐ¾ÑĪÐ¸":7073,"ĠÐ¾ÓĪÐºÓ£ÑĤÑĭÐ½":7074,"ĠÐ¾ÑħÐ¸":7075,"ĠÐ¾hÐ¾":7076,"ĠÐ¾Ð³ÑĢÐ°":7077,"ĠÐ¾Ð¹Ð¸":7078,"ĠÐ¾ÓĪÐºÓ£Ð²ÑĥÐ½":7079,"ĠÐ¾ÑĩÐºÐ°":7080,"ĠÐ¾Ð´ÐµÐ»Ð¸":7081,"ĠÐ¾ÓĪÐ½ÑįÑĢÑį":7082,"ĠÐ¾ÐºÐ¾Ð»Ð¾":7083,"ĠÐ¾ÑĩÐºÐ¸":7084,"ĠÐ¾Ð¿ÐºÐ¾":7085,"ĠÐ¾ÑĢÐ»Ð¾":7086,"ĠÐ¾ÑģÑĤÑĢÑĭÐ¹":7087,"Ð¿Ð´Ð°":7088,"Ð¿ÑĤÐµ":7089,"Ð¿ÑıÑĤ":7090,"Ð¿ÐºÐ¸Ðµ":7091,"Ð¿Ð»Ð¾Ð¼":7092,"Ð¿ÑĮÑİÑĤ":7093,"Ð»Ð¸Ñģ":7094,"Ð»Ð¸ÓĪ":7095,"Ð»Ð¸ÐºÐ°":7096,"Ð»Ð¸Ð¼Ð°":7097,"Ð»Ð¸Ð½Ñĥ":7098,"Ð»Ð¸Ð³Ð°":7099,"Ð»Ð¸ÐºÑį":7100,"Ð»Ð¸Ð±Ð¾":7101,"Ð»Ð¸ÑĤÑĤÑį":7102,"Ð»Ð¸Ð»ÑĩÐ°":7103,"Ð»Ð¸Ò£ÐºÓ£Ð²":7104,"Ð±ÑĥÐ½":7105,"Ð±ÑĢÐ¾":7106,"Ð±ÐµÑĤ":7107,"Ð±Ð´Ñı":7108,"Ð±Ð³Ñį":7109,"Ð±Äĵ":7110,"Ð±ÑıÑĤ":7111,"Ð±Ð´ÐµÐ¼":7112,"Ð±ÐµÐ»ÑĮÐºÐ°":7113,"ĠÑįÐ´Ðµ":7114,"ĠÑįÑħÐ¾":7115,"ĠÑįÐ³Ð¸":7116,"ĠÑįÑģÐ¾":7117,"ĠÑįÑģÑĳ":7118,"ĠÑįÐ²Ñĥ":7119,"ĠÑįÐºÑįÐ»":7120,"ĠÑįÐ´ÑıÐ¼":7121,"ĠÑįÐ´ÐµÓĪÐ¾":7122,"ĠÑįÑĤÑĭÑĢÐºÐ°":7123,"ĠÑįÑĩÐ¾Ð»":7124,"ĠÑįÐ²ÑĢÑįÐ½":7125,"ĠÑįÑĤÐ½Ð¾":7126,"ĠÑįÐ»Ð±Ð°":7127,"ĠÑįÐ»ÑĤÑĭÐ½":7128,"ĠÑįÐºÐ¾Ð»Ð¾":7129,"ĠÑįÐºÑģÐµ":7130,"ĠÑįÒ£Ð½ÑįÐ¼":7131,"ĠÑįÓĪÐºÓ£Ð²":7132,"ĠÑįÐ´ÑıÐ½Ð´Ñį":7133,"ĠÑįÓĪÐºÓ£Ñģ":7134,"ĠÑįÐ´Ð³Ð°ÑĢ":7135,"ĠÐ´ÑĢÐ°":7136,"ĠÐ´ÑįÐ»":7137,"ĠÐ´Ð½Ð¸":7138,"ĠÐ´Ð¸Ð»":7139,"ĠÐ´ÑĢÐµ":7140,"ÑħÐ»Ð°":7141,"ÑħÑĥÐ½":7142,"ÑħÐ¸Ð½Ð°":7143,"ÑħÐ½ÑĥÐ»":7144,"ĠÐ²Ð»Ð°":7145,"ĠÐ²ÑĢÑį":7146,"ĠÐ²ÐµÑĢÐµ":7147,"ĠÐ²Ð»Ðµ":7148,"ĠÐ²Äģ":7149,"ĠÐ²ÑĮÑİ":7150,"ĠÐ²ÑģÑĤÐ°Ð»Ð°":7151,"ĠÐ²ÑģÑĤÐ°Ð²":7152,"ĠÐ²Ð±Ð»Ð¸":7153,"ĠÐ²Ð´Ð°Ð»Ðµ":7154,"ĠÐ²Ð¿ÑĢÐµ":7155,"ĠÐ²ÑħÐ¾Ð´Ð°":7156,"ĠÐ²Ð¿Ð°Ð´Ð°ÐµÑĤ":7157,"ĠÐ²Ð¸Ð»ÑĮ":7158,"ĠÐ¿ÐµÐ»":7159,"ĠÐ¿ÑĤÑĥ":7160,"ĠÐ¿ÑĢÑĭ":7161,"ĠÐ¿Ð»Ðµ":7162,"ĠÐ¿Ð¸Ñħ":7163,"ĠÐ¿Ð½ÑĥÐ»":7164,"ĠÐ¿ÐµÐ½Ð¸Ñı":7165,"ĠÐ¿ÑĢÐ¸Ð½Ð°":7166,"ÓĪÐ³Ð¸":7167,"ÓĪÑįÐ»Ñį":7168,"ÓĪÐºÐ¸Ð½":7169,"ÓĪÑĤÑįÐ»":7170,"ÓĪÐºÐ¸Ð»":7171,"Ð»Ð°Ð¼Ð¸":7172,"Ð»Ð°Ð´ÑıÓĪÐ°":7173,"Ð¹Ð»Ð¾":7174,"Ð¹Ð³Ñĥ":7175,"Ð¹ÑĨÐµÐ²":7176,"Ð´ÐµÐ±":7177,"Ð´ÐµÑĢÐ°":7178,"Ð´ÐµÑĢÐ¾":7179,"Ð´ÐµÐ½Ð°":7180,"Ð´ÐµÐ½Ð¸":7181,"Ð´ÐµÑĢÐµ":7182,"Ð´ÐµÐ¼Ñĥ":7183,"Ð´ÐµÐ²ÑģÐµ":7184,"Ð´ÐµÐ´ÐµÐ¼":7185,"Ð´ÐµÐ½ÑĮ":7186,"Ð´ÐµÑĢÐ¸Ð»":7187,"Ð´ÐµÐ´ÐµÓĪÐ¾":7188,"Ð´ÐµÐ¶Ñĥ":7189,"Ð´ÐµÐ³Ð¸Ð½":7190,"Ð´ÐµÐ¿ÐºÓ£":7191,"Ð´ÐµÒ£ÐºÓ£Ð½":7192,"Ð´ÐµÓĪÐ½ÑįÐ¼":7193,"Ð´ÐµÓĪÐ½ÑįÑĢÑįÐ²ÑĥÐ½":7194,"Ð´ÐµÓĪÐ¾Ð»":7195,"Ð´ÐµÐ²ÑģÐ¾":7196,"Ð´ÐµÐ²ÐºÐ¸Ð»":7197,"Ð´ÐµÐµÑĨ":7198,"ÐºÐ°Ð¼":7199,"ÐºÐ°Ð»Ð¸":7200,"ÐºÐ°Ð¹":7201,"ÐºÐ°ÑĢÑį":7202,"ÐºÐ°Ð·":7203,"ÐºÐ°Ð½Ðµ":7204,"ÐºÐ°ÐºÐ¸Ð½":7205,"ÐºÐ°ÑİÑĤ":7206,"ÐºÐ°Ð¼Ñĭ":7207,"ÐºÐ°Ð¿ÐºÐ°Ð½":7208,"ÐºÐ°Ð·ÑĭÐ²Ð°Ð»Ð¸":7209,"ÑĪÑı":7210,"ÑĪÑįÐ»":7211,"ÑĪÐ»Ð¾":7212,"ÑĪÐºÐ°Ð½":7213,"ÑĪÐµÑĤÑģÑı":7214,"ÑĪÐµÐ½Ð½Ð¾":7215,"Ð´Ð°ÑĤ":7216,"Ð´Ð°Ð¿":7217,"Ð´Ð°Ð´Ð°":7218,"Ð´Ð°Ð´Ð¸":7219,"Ð´Ð°Ð»Ð´Ð°":7220,"Ð´Ð°ÐºÑįÐ»Ð´Ñĥ":7221,"Ð´Ð°ÑİÑĤÑģÑı":7222,"Ð¸Ð½Ð¾":7223,"Ð¸Ð½Ðµ":7224,"Ð¸Ð½Ð´Ðµ":7225,"Ð¸Ð½Ð´Ð°":7226,"Ð¸Ð½Ð´Ó¯":7227,"Ð¸Ð½Ð´Ð¸":7228,"Ð¸Ð½ÑģÑĤÐ¸":7229,"ÑĢÐ°Ñħ":7230,"ÑĢÐ°Ð²Ð°":7231,"ÑĢÐ°ÐºÐ¸":7232,"ÑĢÐ°ÑĩÐ¸":7233,"ÑĢÐ°Ð¿Ð°Ð»":7234,"ÑĢÐ°Ð½Ð¸Ð»":7235,"ÑĢÐ°Ð»Ð³Ñį":7236,"ÑĤÑĭÐ²Ð°":7237,"ÑĤÑĭÐ¼Ð°":7238,"ÑĤÑĭÐ²Ð°ÑĤÑĮ":7239,"ÑĤÑĭÐ¼Ð°ÑĤ":7240,"ÑĤÑĭÐ»ÑįÐ²ÑįÑĢ":7241,"ÑĢÑįÐµ":7242,"ÑĢÑįÐ»Ð¾":7243,"ÐºÐ¾ÑĢÐ¾":7244,"ÐºÐ¾Ð²Ð¾":7245,"ÐºÐ¾Ð½Ð¾":7246,"ÐºÐ¾ÑģÑĤ":7247,"ÐºÐ¾Ð¼Ñĭ":7248,"ÐºÐ¾Ð½ÑįÐ½":7249,"ÐºÐ¾Ð½ÐµÑĨ":7250,"ÐºÐ¾ÑĩÑĥÑİÑĤ":7251,"ÐºÐ¾Ð¾Ð¿":7252,"Ð·Ñĥ":7253,"Ð·ÐµÐ½":7254,"Ð·Ð½Ð¸":7255,"Ð·ÑĢÐµ":7256,"Ð·Ð²Ðµ":7257,"Ð·ÑĮÑı":7258,"Ð·ÐµÐ»Ð¸":7259,"ĠÐ¸ÐºÑį":7260,"ĠÐ¸ÐµÐ»":7261,"ĠÐ¸Ñī":7262,"ĠÐ¸Ð²Ð¸":7263,"ĠÐ¸ÐºÑįÐ»":7264,"ĠÐ¸Ð²Ð°Ð½":7265,"ĠÐ¸ÑģÐºÐ¾":7266,"ĠÐ¸Ð¼Ðµ":7267,"ĠÐ¸Ð´ÐµÓĪÐ¾":7268,"ĠÐ¸ÐºÐ¾Ð½ÑįÐ¼":7269,"ĠÐ¸ÑģÑĩÑį":7270,"ĠÐ¸ÑĤÐ°Ð»Ð¸":7271,"ĠÐ¼Ð¼":7272,"ĠÐ¼ÐµÐ»":7273,"ĠÐ¼Ð¸Ð»Ð¸":7274,"ĠÐ¼ÑįÑĢ":7275,"ĠÐ¼Ð½ÐµÑĤ":7276,"ĠÐ¼ÐµÑĤÐµ":7277,"ĠÐ¼ÐµÐ»ÑĮÐºÐ°":7278,"ÑĥÐ½Ñı":7279,"ÑĥÐ½Ð¸Ð»Ð¸":7280,"ÑĢÐ¾Ð½Ð¸":7281,"ÑĢÐ¾ÑģÑĤ":7282,"ÑĢÐ¾Ð²Ð½Ð¾":7283,"ÑĢÐ¾Ð´Ð¸Ð»ÑģÑı":7284,"ÑĢÐ¾Ð½Ð¸Ð»Ð¸":7285,"ĠÑĤÐ°Ñģ":7286,"ĠÑĤÐ°Ð±":7287,"ĠÑĤÐ°ÑĤÑĭ":7288,"ĠÑĤÐ°Ð²Ð°":7289,"ĠÑĤÐ°Ð²Ñį":7290,"ĠÑĤÐ°Ð»Ó£":7291,"ĠÑĤÐ°hÐ¸":7292,"ĠÑĤÐ°ÐºÐ¸Ð¼":7293,"ĠÑĤÐ°ÑģÑĤÑı":7294,"ĠÑĤÐ°ÑīÐ¸ÑĤ":7295,"ĠÑĤÐ°Ð½ÑĩÐ°Ð´ÐµÑĢÑįÐ½":7296,"ĠÑĤÐ°Ð»ÑĮÐ½Ð¸ÐºÐ°":7297,"ĠÐºÑĢÑĭ":7298,"ĠÐºÐ»ÐµÑĤ":7299,"ĠÐºÐ¸Ð»Ñį":7300,"ĠÐ°Ó£":7301,"ĠÐ°Ñħ":7302,"ĠÐ°Ð´Ñį":7303,"ĠÐ°Ð²Ñĥ":7304,"ĠÐ°ÑıÑĤÑĮ":7305,"ĠÐ°ÑĢÐ°Ð½":7306,"ĠÐ°Ð³Ó£":7307,"ĠÐ°Ð¼Ð°Ð½":7308,"ĠÐ°Ð³Ð¸Ð»":7309,"ĠÐ°ÑħÐ°Ð»":7310,"ĠÐ°Ð´ÐµÐ»Ð¸":7311,"ĠÐ°ÑĥÐ´Ð¸Ð¾":7312,"Ð²Ð°ÑĤ":7313,"Ð²Ð°Ð²":7314,"Ð²Ð°Ð¼":7315,"Ð²Ð°Ð´Ð°":7316,"Ð²Ð°ÑĢÑĥ":7317,"Ð²Ð°Ð»Ðµ":7318,"Ð²Ð°Ð»Ð°ÑģÑĮ":7319,"Ð²Ð°ÑĤÑĤÑį":7320,"Ð²Ð°Ð»Ð¾Ð¼":7321,"ĠÑĥÐ¸":7322,"ĠÑĥÐ²Ð°":7323,"ĠÑĥÑĢÐ¸":7324,"ĠÑĥÑĤÑį":7325,"ĠÑĥÐ³Ð°":7326,"ĠÑĥÐ´Ñĭ":7327,"ĠÑĥÑİÑĤ":7328,"ĠÑĥÐ¿Ð°":7329,"ĠÑĥÐ¿Ñĥ":7330,"ĠÑĥÐ±Ð¸ÑĢÐ°":7331,"ĠÑĥÑħÐ¸":7332,"ĠÑĥÑĤÐºÐ°":7333,"ĠÑĥÐ¼Ð¾Ð»":7334,"ĠÑĥÐ²Ð¾Ð·Ð¸Ð»Ð¸":7335,"ĠÑĥÐ³Ð¾Ð²Ð°ÑĢÐ¸":7336,"ĠÑĥÑĤÑĢÐ°":7337,"ĠÑĥÑħÐ¾Ð´Ð¸ÑĤ":7338,"ĠÑĥÐ²ÐµÐ»":7339,"ĠÑĥÐ¿Ð°Ð»Ð°":7340,"ĠÑĥÑħÐ¾Ð´Ð¸ÑĤÑĮ":7341,"ĠÑĥÐ¿Ð¾Ð»":7342,"ĠÑĥÑĩÐ°ÑģÑĤÐ¾Ðº":7343,"ĠÑĥÐ¿Ð»ÑĭÐ»Ð¸":7344,"ĠÑĥÑĢÐ¸Ð½Ñį":7345,"ĠÑĥÐ´ÑĥÑĢÓ¯":7346,"ĠÑĥÑĩÑĥÑıÐ»":7347,"ĠÐ³Ð½Ð°":7348,"ĠÐ³Ð½Ð¸":7349,"ĠÐ³Ð¾Ð»":7350,"ĠÐ³Ð²Ð°ÑĢ":7351,"ĠÐ³Ð½Ð°Ð»":7352,"ÑİÐ¶":7353,"ÑİÑĢÑįÐ½":7354,"ÑİÑĢÑįÐ½Ð´Ð°":7355,"ÑİÑĢÑĮ":7356,"ÐºÓ£Ð½":7357,"ÐºÓ£ÑĢÐ°":7358,"ÐºÓ£ÑĢÑįÐ½":7359,"ÐµÐ½ÑĥÐ½":7360,"ÐµÐ½Ð´Ð°Ð½":7361,"ÐµÐ½ÑĤÐ¸Ð¹":7362,"ÐµÐ½ÑĤÐ³":7363,"ÐµÐ½Ð¸Ð½Ð´Ó¯":7364,"Ð´ÑĥÑĢ":7365,"Ð´ÑĥÐ»Ð¸":7366,"Ð´ÑĥÐºÐ°":7367,"Ð´ÑĥÐ¶":7368,"Ð´ÑĥÐ»Ñį":7369,"Ð´ÑĥÐ»Ð¸Ð½":7370,"Ð´ÑĥÐºÐ¾Ð²":7371,"Ð´ÑĥÑĩÐ¸Ð»Ð¸":7372,"ÑĢÐ¸Ñĥ":7373,"ÑĢÐ¸Ð²":7374,"ÑĢÐ¸ÐºÐ°":7375,"ÑĢÐ¸Ð´Ð°":7376,"ÑĢÐ¸ÑĢÑį":7377,"ÑĢÐ¸ÑĤÑĮ":7378,"ÑĢÐ¸ÑĤÑĭÐ½":7379,"ÑĢÐ¸ÐºÑĥ":7380,"ĠhÐ¸ÑĢ":7381,"ĠhÓĻ":7382,"ĠhÑįÐ»ÑįÐ»":7383,"ĠhÐ¸Ð¼Ó¯":7384,"ĠÐ¿Ð¾Ð·":7385,"ĠÐ¿Ð¾ÑģÐ¾":7386,"ĠÐ¿Ð¾ÑģÑĤÐ°":7387,"ĠÐ¿Ð¾Ð»Ðµ":7388,"ĠÐ¿Ð¾Ð½Ðµ":7389,"ĠÐ¿Ð¾Ð²ÐµÑĢ":7390,"ĠÐ¿Ð¾Ð¶Ð°":7391,"ĠÐ¿Ð¾ÐµÑħÐ°":7392,"ĠÐ¿Ð¾ÑĨÐ°":7393,"ĠÐ¿Ð¾Ð²ÐµÐ·":7394,"ĠÐ¿Ð¾Ð²Ð°ÑĢ":7395,"ĠÐ¿Ð¾Ð¿ÑĢÐ¾":7396,"ĠÐ¿Ð¾Ð´Ð¾Ð¹":7397,"ĠÐ¿Ð¾Ð²ÑĤÐ¾":7398,"ĠÐ¿Ð¾Ð²ÐµÐ»":7399,"ĠÐ¿Ð¾Ð½Ð¸Ð¼Ð°":7400,"ĠÐ¿Ð¾Ð±Ð¾Ð»ÑĮÑĪÐµ":7401,"ĠÐ¿Ð¾ÐºÐ¾ÑĢÐ¼Ð¸":7402,"ĠÐ¿Ð¾ÑĥÐ¼Ð¸ÑĢÐ°":7403,"ĠÐ¿Ð¾Ð¸ÑīÐ¸":7404,"Ð¶ÐºÐ°":7405,"Ð¶Ð´Ð°":7406,"Ð¶Ð¶":7407,"Ð¶ÐºÐ¸":7408,"Ð¶Ð¾Ðº":7409,"Ð¶Ð´ÑĥÑĤ":7410,"Ð¶ÐµÐ»Ñĭ":7411,"Ð¶Ð´Ð°Ð»Ð¸":7412,"Ð²Ð¾Ð´Ðµ":7413,"Ð²Ð¾ÑģÑĮ":7414,"Ð²Ð¾ÑĤÑĥ":7415,"Ð²Ð¾ÑĪÐµÐ»":7416,"Ð²Ð¾ÑģÐ¿Ð¸":7417,"Ð²Ð¾Ð¶Ð´Ð°Ð»Ð¸":7418,"Ð³Ð¾Ð´":7419,"Ð³Ð¾Ð³Ð¾":7420,"Ð³Ð¾ÑĢÐµ":7421,"Ð³Ð¾Ð¼Ñĥ":7422,"Ð³Ð¾Ð½ÑıÐ»Ð¸":7423,"Ð³Ð¾ÑĪÐ°ÑıÐ´Ó¯":7424,"Ð³Ð¾ÑĢÐ¸Ð¹":7425,"Ð´Ó¯ÑĤÑį":7426,"Ð´Ó¯ÐºÑį":7427,"Ð´Ó¯Ð´Ñį":7428,"Ð´Ó¯Ð²Ð¸":7429,"Ð´Ó¯Ð¹Ó£":7430,"ĠÐ±Ð¸Ñĩ":7431,"ĠÐ±Ð¸Ð³Ð¾":7432,"ĠÐ±Ð¸Ð¼Ð¸":7433,"ĠÐ±Ð¸Ð´Ñį":7434,"ĠÐ±Ð¸ÑĪÐ¾":7435,"ĠÐ±Ð¸Ð´ÐµÓĪÐ¾":7436,"ĠÐ±Ð¸Ð»Ð´Ñį":7437,"ĠÐ±Ð¸Ð¿ÐºÓ£":7438,"ĠÐ±Ð¸ÑģÐ°Ð»":7439,"ĠÐ±Ð¸ÑģÐµÐ»":7440,"ĠÐ±Ð¸ÑĩÅįÐ²ÑĥÐ½":7441,"ĠÐ±Ð¸Ð±Ð»Ð¸":7442,"ĠÐ±Ð¸ÑĢÐ¾ÐºÐ¸Ð½":7443,"ĠÐ±Ð¸ÑħÐ¸Ð¼":7444,"ĠÐ±Ð¸hÎ":7445,"ĠÐ±Ð¸Ð²ÐºÐ¸":7446,"ĠÐ±Ð¸ÓĪÐºÐ¸Ð½":7447,"ĠÐ½Ð°Ð½":7448,"ĠÐ½Ð°Ð´Ð°":7449,"ĠÐ½Ð°Ð»Ð¾":7450,"ĠÐ½Ð°Ð²Ðµ":7451,"ĠÐ½Ð°Ð²Ð°Ð»Ð¸":7452,"ĠÐ½Ð°Ð´ÐµÐ»Ð°":7453,"ĠÐ½Ð°Ð´ÐµÐ½":7454,"ĠÐ½Ð°ÑĪÐ»Ð°":7455,"ĠÐ½Ð°ÑĩÐ¸Ð½":7456,"ĠÐ½Ð°Ð»ÐµÑĤ":7457,"ĠÐ½Ð°Ð¿ÑĢÐ¸":7458,"ĠÐ½Ð°Ð¿ÑĢÐ¾":7459,"ĠÐ½Ð°Ð´ÐµÐ¹":7460,"ĠÐ½Ð°Ð¸Ð»Ð°":7461,"ĠÐ½Ð°ÑĤÐº":7462,"ĠÐ½Ð°Ð³ÑĢÐµ":7463,"ĠÐ½Ð°ÐºÐ¾ÑĢÐ¼Ð¸":7464,"ĠÐ½Ð°Ð¾Ð±Ð¾":7465,"ĠÐ½Ð°Ð¿Ð¸ÑģÑĭÐ²Ð°Ð»Ð¸":7466,"ĠÐ½Ð°Ð»ÑĮÐµÑĤ":7467,"ĠÐ½Ð°Ð»Ð¸Ð¼Ð°":7468,"ĠÐ½Ð°Ð²Ð°Ð»Ð¾Ð¼":7469,"ÑįÐ»Ó£":7470,"ÑįÐ»Ð²Ð¾":7471,"ÑįÐ»Ð´Ñį":7472,"ÑįÐ»ÑĩÑį":7473,"ÑįÐ»Ð³Ñį":7474,"ÑįÐ»Ð´ÑĥÐ½":7475,"ĠÑĤÐµÑĢ":7476,"ĠÑĤÑįÐ»ÐºÐ¸":7477,"ĠÑĤÑĢÐµÐ½":7478,"ĠÑĤÑİÑĢÑĮ":7479,"ÐºÐ¸ÑĢÐ°":7480,"ÐºÐ¸Ð´Ñĭ":7481,"ÐºÐ¸ÑģÐ¸Ð»":7482,"ÐºÐ¸ÑģÐ»Ð¾":7483,"ÑĢÑĥÐ³":7484,"ÑĢÑĥÑĢÑįÐ½":7485,"ÑĢÑĥÐ¼Ñĥ":7486,"Ð½Ð°Ñħ":7487,"Ð½Ð°Ð¸Ð»":7488,"Ð½Ð°Ð´ÑĥÐº":7489,"Ð½Ð°ÑĪÐ¸":7490,"Ð½Ð°ÑĪÐµÐ»":7491,"Ð½Ð°ÑĩÐ°Ð»":7492,"Ð½Ð°ÑĩÐ¸Ð½Ð°":7493,"Ð½Ð°Ð·Ð°Ð²ÑĤÑĢÐ°":7494,"Ð½Ð°ÑĪÐµÐ¼Ñĥ":7495,"Ð½Ð°ÐºÐ¾Ð½ÐµÑĨ":7496,"Ð¼Ð°Ð»Ð¾":7497,"Ð¼Ð°ÑĤÑĭÐ½":7498,"Ð¼Ð°Ð»ÑĮ":7499,"Ð¼Ð°Ð³Ð°Ð·Ð¸Ð½":7500,"Ð¼Ð°Ð¶ÐµÐ¼":7501,"Ð»Ð¾ÑĤ":7502,"Ð»Ð¾Ð³Ð¸ÑĢ":7503,"Ð»Ð¾Ð¶Ð½ÐµÐ½Ð¸Ðµ":7504,"ÐµÑĤÐºÐ¾Ð½":7505,"ÐµÑĤÑĩÅįÐ²ÑĥÐ½":7506,"Ð½Ð¾Ñİ":7507,"Ð½Ð¾Ð¼Ð¾":7508,"Ð½Ð¾Ð³Ð°":7509,"Ð½Ð¾Ð²Ðµ":7510,"Ð½Ð¾Ð»ÑĮ":7511,"Ð½Ð¾Ð½ÑĥÐ½":7512,"Ð½Ð¾Ð¼Ðµ":7513,"Ð½Ð¾Ð²Ð½Ð¾":7514,"Ð½Ð¾ÑĢÐ¼Ð°":7515,"Ð½Ð¾Ð½Ð¾Ð½":7516,"Ð´Ð¸Ð²":7517,"Ð´Ð¸ÑĢÑį":7518,"Ð´Ð¸ÑĤÑĮ":7519,"Ð´Ð¸ÑĤÐµ":7520,"Ð´Ð¸ÑĦ":7521,"Ð´Ð¸ÑģÑį":7522,"Ð´Ð¸ÐºÐ¾Ð³Ð¾":7523,"Ð´Ð¸ÑĩÅįÐ²ÑĥÐ½":7524,"ÐµÑĢÐ²Ð°":7525,"ÐµÑĢÑĭÑħ":7526,"Ð²ÑįÐ´Ð°":7527,"Ð²ÑįÐºÑį":7528,"Ð²ÑįÐ´Ð¾":7529,"ÑĩÐ°Ð´Ð°":7530,"ÑĩÐ°Ð»Ð¾":7531,"ÑĩÐ°ÑģÐ¾Ð²":7532,"ÑĩÐ°ÐµÑĤÑģÑı":7533,"Ð¼Ð¾ÑĤ":7534,"Ð¼Ð¾Ðº":7535,"Ð¼Ð¾ÑĤÐ¾":7536,"Ð¼Ð¾Ð³Ð¾":7537,"Ð¼Ð¾ÐºÑĥ":7538,"Ð¼Ð¾Ð³Ð°":7539,"Ð¼Ð¾Ð»ÐµÑĤ":7540,"Ð¼Ð¾Ð²Ð¸Ñĩ":7541,"Ð¼Ð¾ÑĢÑĤÑĭÐ½":7542,"Ð¼Ð¾ÐºÑĤÓ¯":7543,"Ð´ÑıÑģ":7544,"Ð´ÑıÐ²Ð°":7545,"Ð´ÑıÐ²Ð¸":7546,"Ð´ÑıÓĪÐ°Ð½":7547,"Ð´ÑıÑĢÓ£":7548,"Ð´ÑıÓĪÐºÓ£Ð½":7549,"Ð´ÑıÐ»Ð´Ó¯":7550,"Ð´ÑıÐ»Ð´Ð°":7551,"Ð´ÑıÐ²Ð¸ÑĤ":7552,"Ð´ÑıÓĪÐ½Ð°Ð¼":7553,"Ð´ÑıÒ£Ð½Ð°Ð¼":7554,"Ð½Ð¸Ñģ":7555,"Ð½Ð¸ÐºÐ¸":7556,"Ð½Ð¸ÑĨ":7557,"Ð½Ð¸Ð²ÐºÓ£":7558,"Ð½Ð¸ÑĪÑĮ":7559,"Ð½Ð¸ÐºÐ¾Ð³Ð´Ð°":7560,"Ð½Ð¸ÓĪÐºÓ£Ð½":7561,"Ð½Ð¸ÑĦÐºÓ£Ð»":7562,"Ð½Ð¸Ð»Ð¸Ð¼":7563,"Ð½Ð¸ÑĤÐºÐ°":7564,"Ð½Ð¸ÓĪÐ½ÑįÑĢÑį":7565,"Ð½Ð¸Ð³Ð´Ðµ":7566,"Ð½Ð¸ÓĪÐ½ÑįÐ¼":7567,"Ð½Ð¸ÐºÐ¾Ð»ÑĮ":7568,"Ð½Ð¸ÑĨÑĥ":7569,"ÑħÐ¾Ð¼":7570,"Ð½ÑįÐ²":7571,"Ð½ÑįÐ¼Ð°":7572,"Ð½ÑįÐ²ÐºÓ£Ð»":7573,"Ð½ÑįÑĢÑįÐ²ÑĥÐ½":7574,"Ð½ÑįÐºÑĥÐ½Ñį":7575,"Ð½ÑįÐºÑĥÑĢÐ²Ð¸":7576,"ĠÐ·Ð´Ð¾":7577,"ĠÐ·Ð²Ñĥ":7578,"ĠÐ·Ð¸Ð¼":7579,"ĠÐ·Ð²ÐµÐ·":7580,"ĠÐ·Ð´ÑĢÐ°Ð²":7581,"ÑĤÑįÐ²":7582,"ÑĤÑįÐ´Ðµ":7583,"ÑĤÑįÑĤÑĭ":7584,"ÑĤÑįÐ´ÐµÑĢÑį":7585,"ÑĤÑįÑģÑį":7586,"Ð¸Ð»Ñı":7587,"Ð¸Ð»Ð´Ð°":7588,"Ð°Ð»ÐºÐ¾":7589,"Ð¿Ð¾Ð¿":7590,"Ð¿Ð¾Ð¼Ð¾":7591,"Ð¿Ð¾Ð´Ð¾":7592,"Ð¿Ð¾ÑģÑĥ":7593,"Ð¿Ð¾Ð¿Ð°Ð»":7594,"Ð¿Ð¾ÑħÐ²Ð°":7595,"Ð¿Ð¾ÑĥÐ±Ð¸":7596,"Ð¿Ð¾Ð¶Ð½Ð¸":7597,"ĠÐ»Ñį":7598,"ĠÐ»Ð¸Ð½":7599,"ĠÐ»ÐµÐ½ÑĮ":7600,"ĠÐ»Ð¸Ð»Ñı":7601,"ĠÐµÑĢ":7602,"ĠÐµÐ»Ð°":7603,"ĠÐµÐºÐ¾":7604,"ĠÐµÐ´ÐµÑĤ":7605,"ĠÐµÐ´ÑĥÑĤ":7606,"ĠÐµÐ´Ð¸Ð¼":7607,"ĠÐµÑĦÐ¸":7608,"ĠÐµÐ²Ð³ÐµÐ½Ð¸Ñı":7609,"ĠÐµÐ´Ð¸ÑĤÐµ":7610,"ĠÐ½ÐµÐ¾":7611,"ĠÐ½ÐµÐ´Ðµ":7612,"ĠÐ½ÐµÐºÑįÐ»":7613,"ĠÐ½ÐµÐºÑĥÐ´Ð°":7614,"ĠÐ½ÐµÐ¼Ð½Ð¾Ð³Ð¾":7615,"ĠÐ½ÐµÑģÑĩÐ°Ñģ":7616,"ĠÐ±ÑĭÐº":7617,"ĠÐ±ÑĭÐ²Ð°Ð»Ð¸":7618,"ĠÐ±ÑĭÑģÑĤÑĢÐµ":7619,"ÑģÐµÐ»Ð¾":7620,"ÑģÐµÐ´ÐµÑĢÑį":7621,"Ð½ÑĥÑĤÑĮÑģÑı":7622,"ĠÑĤÐ¾Ð¼":7623,"ĠÑĤÐ¾Ð²Ñĥ":7624,"ĠÑĤÐ¾Ð½Ñı":7625,"ĠÑĤÐ¾Ð´Ñĳ":7626,"ĠÑĤÐ¾Ð²Ð°ÑĢÐ¸":7627,"Ð¼Ð¸Ñı":7628,"Ð¼Ð¸Ð»Ð°":7629,"Ð¼Ð¸ÐºÐ¸":7630,"Ð¼Ð¸Ð¼ÐµÑģÑı":7631,"ĠÑĩÐ¾Ð»":7632,"ĠÑĩÐµÐ¼Ñĥ":7633,"ÓĪÐ°ÑĤ":7634,"ÓĪÐ°Ð²Ð°Ð½":7635,"Ð¼ÑįÐ¼Ð¾":7636,"Ð¼ÑįÐ´Ð¸ÑģÑį":7637,"Ð¾Ð»Ð³Ó£":7638,"ÐºÑĥÑĤÐ¾":7639,"ÐºÑĥÐºÐ¾":7640,"ÐºÑĥÐ»Ñį":7641,"ÐºÑĥÐºÐ¾Ð½":7642,"ÐºÑĥÒ£Ð°":7643,"ÐºÑĥÑĢÐ¸Ð»":7644,"ÐºÑĥÐ»Ð²Ñį":7645,"ÐºÑĥÐ¼Ð°Ð»Ð°":7646,"ÑĳÐ½":7647,"ÑĳÑģÐ°Ð»":7648,"ÑģÑıÑĢÐ²Ñį":7649,"ÑĢÐµÐº":7650,"ÑĢÐµÑı":7651,"ÑĢÐµÐ²Ð½Ñĥ":7652,"ÑĢÐµÐ±ÑıÑĤÐ¸":7653,"ÑĢÐµÐ´ÐºÐ°":7654,"Ð³Ð°ÑĤ":7655,"Ð³Ð°Ñı":7656,"Ð³Ð°Ð´Ð°":7657,"Ð³Ð°Ð²Ð°":7658,"Ð³Ð°Ð½Ñı":7659,"Ð³Ð°ÐºÑģÐ°":7660,"Ð³Ð°ÑģÓ£":7661,"Ð³Ð°Ð½Ð°ÑĤ":7662,"Ð³Ð°ÐºÐ°ÐºÐ¸Ð½":7663,"ÐºÑįÐ´Ó¯":7664,"ÐºÑįÐ³Ñį":7665,"ÐºÑįÐ½Ð´Ñį":7666,"ÐºÑįÓĪÐ´Ñį":7667,"Ð´ÑįÑģÐ°":7668,"Ð´ÑįÒ£ÐºÓ£Ð½":7669,"Ð´ÑįÑĢÓ¯":7670,"Ð´ÑĥÐºÐºÐ°":7671,"Ò£Ð´Ð°":7672,"Ò£Ð¸Ñħ":7673,"Ò£ÐºÐ¸ÑĤÑĭÐ½":7674,"Ò£ÐºÄģ":7675,"Ð´Ð¾Ð¼Ð°":7676,"Ð´Ð¾Ð¼Ð¾":7677,"Ð´Ð¾ÑĪÐµÐ»":7678,"Ð´Ð¾ÑģÑĤÐ¸":7679,"Ð´Ð¾Ð²Ð°Ð»Ð¸ÑģÑĮ":7680,"Ð´Ð¾ÑĩÐºÐ¸":7681,"Ð´Ð¾Ð±ÑĥÐ´ÐµÑĪÑĮ":7682,"Ð´Ð¾ÐºÑĤÐ¾ÑĢ":7683,"Ð´Ð¾Ð²Ð¸ÓĪÐ¾":7684,"Ð´Ð¾ÐµÐ´Ñĭ":7685,"Ð´Ð¾ÑĩÐºÐ°Ð¼Ð¸":7686,"Ð´Ð¾ÑĤÐºÐ¸Ð½":7687,"ÑģÑĮÐ¼Ð°":7688,"ĠÐ¶Ð´Ð°Ð»Ð¸":7689,"ĠÐ¶Ð´Ð°Ð»Ð°":7690,"ĠÐ¶Ð°Ð»ÐºÐ¾":7691,"ÑģÐ°Ð»Ð°":7692,"ÑģÐ°Ð½Ð¾":7693,"ÑģÐ°Ð»Ð°Ð½":7694,"ÑģÐ°ÐºÐ¸ÑĤ":7695,"ÑģÐ°Ð´ÑıÑģÐ°":7696,"ÑģÐ°Ð¼Ð¾Ð»ÐµÑĤ":7697,"ÑĤÐ¸Ñģ":7698,"ÑĤÐ¸Ð»Ð°":7699,"ÑĤÐ¸ÑĢÐ°":7700,"ÑĤÐ¸ÑĤÑĮ":7701,"ÑĤÐ¸ÑģÑĤ":7702,"ÑĤÐ¸ÑĤÑĮÑģÑı":7703,"ÑĤÐ¸Ð´ÐµÑģÑı":7704,"ÑĨÐºÐ¸Ñħ":7705,"ÑĨÐµÐ»Ñĭ":7706,"ÐµÐ»ÑıÐ½":7707,"ÐµÐ»ÑĥÑİÑĤÑģÑı":7708,"Ð³Ð¸ÑĢÐ°":7709,"Ð³Ð¸ÑĩÐ¾":7710,"Ð³Ð¸ÑģÐ¸Ð½":7711,"Ð³Ð¸Ð´Ð¾ÑĤÐºÐ¸Ð½":7712,"ĠÐ³Ð¾ÑĢÑĥ":7713,"ĠÐ³Ð¾ÑĢÑı":7714,"ĠÐ³Ð¾Ð½ÑıÐ»Ð¸":7715,"ĠÐ³Ð¾ÑĪÐ°ÑıÐ´Ó¯":7716,"ÑĩÐ¸Ðµ":7717,"ÑĩÐ¸ÑĩÐ°":7718,"ÑĩÐ¸Ð¼Ð¸":7719,"ÑĩÐ¸ÑĩÐ¸Ð»":7720,"ÑĩÐ¸ÐºÐ¸Ð»":7721,"ÑĩÐ¸ÐºÐ¾Ð¼":7722,"ÑĩÐ¸ÐºÐ°Ð¼Ð¸":7723,"ÑĩÑįÐ¼":7724,"ÑĩÑįÐ²ÑĥÐ½":7725,"ÑĩÑįÐºÑįÐ»":7726,"ĠÑģÑĤÐ°Ð´Ð°":7727,"ĠÑģÑĤÐ°ÑĢÑĭ":7728,"ĠÑģÑĤÐ°Ð½ÐºÐ°":7729,"ĠÑģÑĤÐ°Ð½Ð¾Ð²Ð¸":7730,"Ð³Ð´Ð°ÑĤ":7731,"ÑĢÑįÐ½Ð½Ñį":7732,"ÑĢÑįÐ½Ð´Ñį":7733,"ĠÑĤÑĥÐ³Ð°":7734,"ĠÑĤÑĥÑĤÑĥ":7735,"ĠÑĤÑĥÐ³ÑĥÐ½":7736,"ĠÑĤÑĥÑħÐ°ÑĢ":7737,"ĠÑĤÑĥÐ°Ð»ÑįÑĤÑĭÐ½":7738,"ĠÑĢÐ°Ð·Ð°":7739,"ĠÑĢÐ°ÑģÑĤÑı":7740,"ĠÑĢÐ°Ð½Ð¸ÑĤÑĮ":7741,"ĠÑĢÐ°Ð´Ð¸Ð¾":7742,"ĠÑĢÐ°ÑģÐ¿ÑĢÑı":7743,"ĠÑįÑĤÐ¾Ð½":7744,"ÑĤÑĥÑİ":7745,"ÑĤÑĥÐ³Ð´Ð°":7746,"ÑĤÑĥÑģÐ¸":7747,"ÑĤÑĥÐ»Ó£":7748,"ÑĤÑĥÐºÑĤÑĭ":7749,"ÑĤÑĥÐ´ÐµÐ½Ñį":7750,"ÑĤÑĥÐ»Äģ":7751,"ĠÐ²Ð¾Ðµ":7752,"ĠÐ²Ð¾Ñı":7753,"ĠÐ²Ð¾ÑĪÐµÐ»":7754,"ĠÐ²Ð¾Ð´Ð¸Ð»":7755,"ĠÐ²Ð¾Ð½Ñİ":7756,"ĠÐ²Ð¾ÑģÐµÐ¼":7757,"ĠÐ²Ð¾ÐµÐ½Ð½ÑĭÐ¹":7758,"ĠÐ²Ð¾ÑģÑĤÐ¾Ðº":7759,"ĠÐºÐ¾Ð¼Ð¾":7760,"ĠÐºÐ¾Ð¼Ñĥ":7761,"ĠÐºÐ¾ÑĢÑı":7762,"ĠÐºÐ¾Ð»Ð°Ð½":7763,"ĠÐºÐ¾ÑģÐ¸Ð»":7764,"ĠÐºÐ¾ÑĢÐ¾Ñģ":7765,"ĠÐºÐ¾ÑģÐ¾Ð»":7766,"ĠÐºÐ¾Ð¿Ð°ÑĤÑĮ":7767,"ĠÐºÐ¾ÑĩÐºÑĥ":7768,"ĠÐºÐ¾ÐºÐ¾Ð»":7769,"ĠÐºÐ¾ÑģÑĤÐµ":7770,"ĠÐºÐ¾ÑĩÐµÐ²Ð°ÑĤÑĮ":7771,"ĠÐºÐ¾ÐµÐºÐ°Ðº":7772,"Ð²ÑĥÐ½Ð¼Ð¸":7773,"Ð²ÑĥÐ½Ð¼ÑįÑĢ":7774,"Ð´ÑĭÐ»Ð¸":7775,"Ð´ÑĭÐ²Ð°ÐµÑĤ":7776,"Ð´ÑĭÐ»Ð²Ñį":7777,"Ð´ÑĭÐ¼Ð¾ÐºÑĥ":7778,"ÑģÐ¸ÐºÐ°":7779,"ÑģÐ¸ÑĢÑį":7780,"ÑģÐ¸Ð´Ñı":7781,"ÑģÐ¸ÑĤÑį":7782,"ÑģÐ¸ÑĨ":7783,"ÑģÐ¸Ð±Ð¸":7784,"ÑģÐ¸Ð±Ð¾":7785,"ÑģÐ¸Ð´ÐµÐ»Ð°":7786,"ÑģÐ¸Ð´ÑıÑĤ":7787,"ÑģÐ¸ÓĪÐºÓ£Ð½":7788,"ÑģÐ¸Ð¾Ð½Ð°":7789,"ÑģÐ¸ÑĦÐºÓ£":7790,"ÑģÐ¸Ð²ÑĭÐ¹":7791,"ÑģÐ¸ÑĦÐºÐ°":7792,"ÑģÐ¸ÓĪÐºÓ£Ñģ":7793,"ĠÐ½ÑĥÓĪÐ½Ð°":7794,"ĠÐ½ÑĥÐ¶Ð½Ð¾":7795,"ĠÐ´ÐµÐ´Ð°":7796,"ĠÐ´ÐµÐ´Ñĭ":7797,"ĠÐ´ÐµÐ»Ð¸ÑģÑĮ":7798,"ĠÐ´ÐµÐ¿Ð¸":7799,"ĠÐ´ÐµÑĤÑĮÑģÑı":7800,"ĠÐ´ÐµÐ²Ñı":7801,"ĠÐ´ÐµÐ³Ð¸Ð½":7802,"ÑģÐ¾ÑĢ":7803,"ÑģÐ¾Ð²ÐµÑĢ":7804,"ÑģÐ¾Ð±Ð¸ÑĢÐ°":7805,"ÑģÐ¾Ð±ÑĢÐ°":7806,"ĠhÑĥÑĤÐ¾":7807,"ĠhÑĥÐ»Ð°":7808,"ĠhÑĥÐºÐ¸ÑĤÑį":7809,"ĠhÑĥÐ»Ð¸ÓĪ":7810,"Ð»ÑįÐ»Ð¸Ð½":7811,"Ð»ÑįÐ¿ÑĤÑĭ":7812,"Ð»ÑįÐ¿ÐºÐ¾":7813,"Ð»ÑįÐ¼ÑįÑĤÑĭÐ½":7814,"Ð»ÑįÐ¼Ð½Ð¸Ð½":7815,"Ð»ÑįÑģÐ¸ÓĪÐºÓ£Ñģ":7816,"ĠÐ±ÑĥÑĪ":7817,"ĠÐ±ÑĥÐ´Ð°Ð½":7818,"ĠÐ±ÑĥÐ´ÑĮ":7819,"ĠÐ±ÑĥÓĪÐºÓ£ÑĤÑĭÐ½":7820,"ĠÐ±ÑĥÑĩÐ¾Ð»":7821,"ĠÐ±ÑĥÐ´ÑįÐ½":7822,"ĠÐ±ÑĥÐ»ÑĩÐ¾":7823,"ĠÐ±ÑĥÑĤÑĩÐ¾":7824,"ĠÐ±ÑĥÑĢÑĥÐ½":7825,"ĠÐ±ÑĥÐºÑĤÐ°ÑĢÐ°Ð½Ð¸Ð¼":7826,"ÑģÑĳÐ´Ñį":7827,"Ð²ÑĥÑĢÐ¸":7828,"Ð²ÑĥÐ²ÐºÓ£":7829,"Ð²ÑĥÑĤÑĩÐ°":7830,"Ð²ÑĥÐ»Ð¸ÑĤÑĭÐ½":7831,"ĠÑģÐ°ÑĪÐ°":7832,"ĠÑģÐ°hÐ°":7833,"ĠÑģÐ°ÑĤÐ°Ð½Ð°":7834,"ĠÑģÐ°ÑħÐ°ÑĢ":7835,"ĠÑģÐ°Ð¿Ð¾Ð¶Ð½Ð¸":7836,"ĠÑģÐ°Ð²ÑĥÑĢÐ¸":7837,"ÑīÐµÐ¹":7838,"ÑīÐ¸Ð»Ð¸":7839,"ÑīÐµÐ¼Ñĥ":7840,"ÑīÐ¸Ð½Ð¾Ð¹":7841,"ÑħÐ°Ð²Ñį":7842,"ĠÑĤÐ°ÑĢÐºÑį":7843,"ĠÑĤÐ°ÑĢÑĤÑĭÐºÓ£":7844,"ĠÑĤÐ°ÑĢÑĤÑĭÐºÐ¸":7845,"ĠÑĤÐ°ÑĢÑĬÑıÐºÐ»Ð°":7846,"ÑĤÐµÐ¹":7847,"ÑĤÐµÑĢÑįÐ½":7848,"ÑĤÐµÐ±Ñı":7849,"ÑĤÐµÓĪÐ½ÑįÑĢÑįÐ²ÑĥÐ½":7850,"ÑĤÐµÑģÐ½Ñı":7851,"ÑĤÐµÐ¼Ð°ÑĤÐ¸":7852,"ĠÐ¼Ð¾Ñħ":7853,"ĠÐ¼Ð¾Ð³Ñĥ":7854,"ĠÐ¼Ð¾Ð¸Ð¼":7855,"ĠÐ¼Ð¾ÑĪÐºÐ¸":7856,"ĠÐ¼Ð¾Ð¶Ð¶":7857,"Ð²Ð¸Ð´Ð°":7858,"Ð²Ð¸ÐºÑĤÐ°":7859,"ĠÐºÐ°ÑĤÐ°":7860,"ĠÐºÐ°Ð»Ð¸":7861,"ĠÐºÐ°Ð¼Ð°":7862,"ĠÐºÐ°Ð³Ð´Ð°":7863,"ĠÐºÐ°ÑģÑĤ":7864,"ĠÐºÐ°ÑĢÐºÐ°":7865,"ĠÐºÐ°ÐºÐ¸Ð¼Ð¸":7866,"ĠÐºÐ°ÓĪÐºÐ¸":7867,"ĠÐºÐ°Ð¶ÐµÑĤÑģÑı":7868,"ĠÐºÐ°hÐ¸Ð»Ð¸":7869,"ĠÐ·Ð°Ð²":7870,"ĠÐ·Ð°ÑĤÐ¾":7871,"ĠÐ·Ð°ÐºÐ°":7872,"ĠÐ·Ð°Ð²Ð¾":7873,"ĠÐ·Ð°Ð±Ð¸":7874,"ĠÐ·Ð°ÑĪÐ»Ð°":7875,"ĠÐ·Ð°ÑħÐ¾Ð´Ð¸":7876,"ĠÐ·Ð°ÑģÑĤÐ°Ð²":7877,"ĠÐ·Ð°Ð¿Ð»Ð°":7878,"ĠÐ·Ð°ÑħÐ²Ð°":7879,"ĠÐ·Ð°ÑģÑĥÐ½":7880,"ĠÐ·Ð°Ð·Ð²ÐµÐ½":7881,"ĠÐ·Ð°ÑħÐ¾ÑĤÐµÐ»":7882,"ĠÐ·Ð°Ð±ÐµÑĢÑĥ":7883,"ĠÐ·Ð°ÑĢÐ¿Ð»Ð°":7884,"ĠÐ·Ð°ÐºÐ¸Ð´Ñĭ":7885,"ĠÐ·Ð°Ð¼Ð°Ð¶ÐµÐ¼":7886,"ĠÑıÐ±":7887,"ĠÑıÐ·Ñĭ":7888,"ĠÑıÒ£Ð³Ñĥ":7889,"ĠÑıÐ»Ð¾Ð³Ð¸ÑĢ":7890,"Ð²ÐºÓ£Ð´Ð°":7891,"Ð²ÐºÓ£Ð´Ñį":7892,"ÑĩÐ¾Ð½":7893,"Ð²ÐµÐ»Ð°":7894,"Ð²ÐµÑĢÐ°":7895,"Ð²ÐµÑĪÑĮ":7896,"Ð²ÐµÑĩÐµÑĢÐ¾Ð¼":7897,"Ð²ÐµÑīÐµÐ½Ð¸Ðµ":7898,"ĠÐ¿ÑĢÐ¸Ð»Ðµ":7899,"ĠÐ¿ÑĢÐ¸Ð´ÐµÐ¼":7900,"ĠÐ¿ÑĢÐ¸ÐµÐ·":7901,"ĠÐ¿ÑĢÐ¸ÑħÐ¾Ð´Ð¸":7902,"ĠÐ¿ÑĢÐ¸Ð´ÑĥÑĤ":7903,"ĠÐ¿ÑĢÐ¸ÑħÐ¾Ð´Ð¸ÑĤ":7904,"ĠÐ¿ÑĢÐ¸ÑħÐ¾Ð´Ð¸Ð¼":7905,"ĠÐ¿ÑĢÐ¸ÑģÐ»Ñĥ":7906,"ĠÐ¿ÑĢÐ¸ÑħÐ¾Ð´Ð¸Ð»Ð¸":7907,"ĠÐ¿ÑĢÐ¸ÑģÑĤÐ°Ð½ÑĮ":7908,"ĠÐ¿ÑĢÐ¸Ð±ÐµÐ¶Ð°Ð»Ð¸":7909,"ĠÐ¿ÑĢÐ¸Ð¿Ð»Ñı":7910,"ĠÐ¿ÑĢÐ¸ÑĪÐ»Ð¾":7911,"ĠÐ¿ÑĢÐ¸ÑĤÐµÑģÐ½Ñı":7912,"ĠÐ¾Ð»ÑĩÐ°":7913,"ĠÐ¾Ð»Ð³Ð°":7914,"ĠÐ¾Ð»Ð´Ð°Ð½":7915,"ĠÐ¾Ð»Ð»Ð°Ð²":7916,"ĠÐ½Ð¸ÑĢÑĥ":7917,"ĠÐ½Ð¸ÐºÑĤÐ¾":7918,"ĠÐ½Ð¸Ð´ÑĭÐ¼":7919,"ĠÐ½Ð¸ÓĪÑĤÑįÐ»":7920,"Ð±Ð¸Ð»Ð°":7921,"Ð±Ð¸Ð´Ð°":7922,"Ð±Ð¸Ð´Ñį":7923,"ĠÑģÐ¾Ð¿ÑĢÐ¾":7924,"ĠÑģÐ¾ÑģÐµÑĤ":7925,"ĠÑģÐ¾Ð±Ð¾Ð»ÑĮ":7926,"ĠÑģÐ¾Ð»Ð¾ÐºÐ¸":7927,"ĠÑģÐ¾Ð»Ð¸Ð»Ð¸":7928,"ĠÑģÐ¾ÑĢÐµÐ²Ð½Ð¾":7929,"ĠÑģÐ¾Ð·ÑĢÐµ":7930,"Ð³ÑįÐ»Ð¸":7931,"Ð³ÑįÐ½Ð´Ó¯":7932,"Ð³ÑįÑģÐ¸ÑĢÑį":7933,"ĠÐ´Ð¾ÑģÑĤÐ°":7934,"ĠÐ´Ð¾Ð±Ñĥ":7935,"ĠÐ´Ð¾ÑĪÐµÐ»":7936,"ĠÐ´Ð¾Ð½ÑĩÐ°":7937,"ĠÐ´Ð¾Ð³Ð½Ð°Ð»":7938,"ĠÐ´Ð¾Ð»Ð¸Ð½Ð°":7939,"ĠÐ´Ð¾ÐµÐ·Ð¶Ð°Ñı":7940,"ĠÐ´Ð¾Ð±Ð°Ð²":7941,"ĠÐ´Ð¾Ð»Ð¸Ð½Ñĥ":7942,"Ð±Ð°Ñı":7943,"Ð±Ð°Ð´Ð°":7944,"Ð¼ÑĥÐºÐ¾Ð½":7945,"Ð¼ÑĥÑĩÐµÐ½ÑĮ":7946,"Ð¼ÑĥÑĩÑĥ":7947,"Ð¼ÑĥÑĩÐ¸Ð»Ð¸ÑģÑĮ":7948,"ĠÑħÐ¾Ð´Ñı":7949,"ĠÑħÐ¾Ð·Ñı":7950,"ĠÑħÐ¾Ð¶Ñĥ":7951,"ĠÑħÐ¾ÑĤÑı":7952,"ĠÑħÐ¾ÑĩÑĮ":7953,"ĠÑħÐ¾ÑĩÐµÑĤÑģÑı":7954,"Ð±Ð¾ÐºÐ¾Ð½ÑįÐ¼":7955,"Ð±Ð¾ÐºÐ¾Ð½ÑĩÑĥ":7956,"ÑģÑĤÐ°Ñı":7957,"ÑģÑĤÐ°Ð»Ð¾":7958,"ÑģÑĤÐ°ÑİÑĤ":7959,"ÑįÐ»ÑįÐºÑį":7960,"ÑģÑĤÐµÐ½":7961,"ÑģÑĤÑĤÓ¯":7962,"ÑģÑĤÐ¸Ð»ÑģÑı":7963,"ÑģÑĤÑĢÐ°Ñı":7964,"ÑĪÐ¸Ð²":7965,"ÑĪÐ¸Ð»Ð°":7966,"ÑĪÐ¸ÐºÑĤÐ°":7967,"ÑĪÐ¸ÑĤÑģÑı":7968,"ĠÑĩÑĤÐ¾Ð»Ð¸Ð±Ð¾":7969,"ĠÐ´ÑİÐ½":7970,"ĠÐ´ÑİÐ¿":7971,"ĠÐ´ÑİÑĢÑį":7972,"ĠÐ´ÑİÐ³Ñĥ":7973,"ĠÐ´ÑİÐºÑįÐ»":7974,"ĠÐ´ÑİÐ»Ð´ÑĥÐ»Ð°":7975,"ĠÑįÐ¼ÑįÐ¼Ð°":7976,"ĠÑįÐ¼ÑįÑģÐµ":7977,"ĠÑįÐ¼ÑįÐ¼Ð¸":7978,"ĠÑįÐ¼ÑįÐ²ÐºÓ£":7979,"ĠÑįÐ¼ÑįÐ´ÐµÐ¼":7980,"ĠÑįÐ¼ÑįÐ´ÑıÐ¼":7981,"ĠÑįÐ¼ÑįÐ´ÐµÓĪÐ¾":7982,"ĠÑįÐ¼ÑįÐ½Ð´Ñį":7983,"ĠÑįÐ¼ÑįÑĦÐºÓ£Ð»":7984,"ĠÑįÐ¼ÑįhÐ¸Ð½Ñį":7985,"ĠÑįÐ¼ÑįÐºÐ¾Ð½ÑįÐ¼":7986,"Ð·Ð°Ñı":7987,"Ð·Ð°ÐºÐ¾Ð½":7988,"Ð·Ð°Ð¿Ð¸":7989,"Ð·Ð°Ð´Ð¾Ð¼":7990,"Ð·Ð°Ð¼ÐµÑĢ":7991,"Ð·Ð°Ð²ÑĭÐ»Ð¸":7992,"Ð·Ð°ÑıÐ²":7993,"Ð·Ð°ÑĢÐ°Ð±Ð¾":7994,"Ð·Ð°Ð½ÐµÑģÐ»Ð¸":7995,"Ð·Ð°Ð½Ð½ÑĭÐµ":7996,"Ð·Ð°ÐºÑĢÐ¸ÑĩÐ°Ð»":7997,"Ð·Ð°Ð¹ÑĨÐµÐ²":7998,"Ð·Ð°ÐºÐ°Ð·ÑĭÐ²Ð°Ð»Ð¸":7999,"Ð±ÑĥÐ´Ñĥ":8000,"Ð±ÑĥÐºÑį":8001,"Ð±ÑĥÐ´ÑĤÐ¾":8002,"Ð±ÑĥÐ»Ð¼Ð¸":8003,"Ð±ÑĥÑĢÑĥÑĢÑįÐ½":8004,"ÄĵhÐ°":8005,"ÄĵÐºÑĥÑĢ":8006,"ÄĵÐºÑĥÑĢÐ°":8007,"ÐµÑĢÐµÐ´Ð¸":8008,"ĠÐ¾ÑĤÐº":8009,"ĠÐ¾ÑĤÐ´Ð°":8010,"ĠÐ¾ÑĤÐ²Ð¾":8011,"ĠÐ¾ÑĤÐ·ÑĭÐ²Ð°ÐµÑĤÑģÑı":8012,"ĠÐ¾ÑĤÑĢÐ°Ð±Ð¾ÑĤÐ°Ð»Ð°":8013,"ĠÐ¾ÑĤÐ¿Ð¸Ð»Ð¸":8014,"ĠÐ¾ÑĤÐ´Ð°ÐµÑĤÑģÑı":8015,"ĠÐ¾ÑĤÐ½ÐµÑģÐ»Ð¸":8016,"ĠÐ¾ÑĤÐ´Ð¾Ñħ":8017,"ĠÐ¾ÑĤÑĤÐ°ÑıÐ»Ð°":8018,"ĠÐ¾ÑĤÑĢÐ¾ÑģÑĤ":8019,"Ð»ÐµÑĤÑĭÐ»":8020,"Ð»ÐµÐ¿Ð»Ð°":8021,"Ð»ÐµÑģÐ¸Ð¼":8022,"ĠÐ³ÑĥÐ½Ð½Ð¾":8023,"ĠÐ³ÑĥÐ½Ð´ÑıÐ¼":8024,"ĠÐ³ÑĥÐ½Ð½ÑįÐ»":8025,"ÑĦÐºÐ¸":8026,"ÑĦÐ¾ÑĢ":8027,"ÑĦÐ°Ð¼Ð¸Ð»Ð¸":8028,"Ð»ÑĮÐ´Ó¯":8029,"ÑĤÐ°ÑĢÐ½ÑĥÐ½":8030,"ÑĤÐ°ÑĢÑĤÑĭÐºÓ£":8031,"ÑĤÐ°ÑĢÑĤÐ¸ÐºÐ¸":8032,"Ð±ÑĭÑģÑĤÑĢÐ¾":8033,"ĠÐ²ÑģÐµÐ¼":8034,"ĠÐ²ÑģÐµÐ¼Ð¸":8035,"Ð½ÐµÐ³Ð¾":8036,"Ð½ÐµÑĪÑĮ":8037,"Ð½ÐµÐ´Ð°Ð²Ð½Ð¾":8038,"ĠÑħÑĢÑĥ":8039,"ĠÑħÑįÑĢ":8040,"ĠÑħÐ¸Ð½Ñį":8041,"ĠÑħÑĥÐ½Ð¼Ð¸":8042,"ĠÐ¾Ð»ÐµÐ½Ðµ":8043,"Ð»ÑĥÑĤ":8044,"Ð»ÑĥÑĪÐºÐ¸":8045,"Ð»ÑĥÑģÐ°Ð»":8046,"Ð»ÑĥÑģÐ°Ð¼Ð°":8047,"Ð»ÑĥÐºÓ£Ð»Ð²Ð¸":8048,"Ð»ÑĥÐ¼Ð½Ó¯":8049,"Ð³ÑĥÑĢ":8050,"Ð³ÑĥÑģÐ¾":8051,"Ð³ÑĥÐºÑįÐ»":8052,"Ð³ÑĥÐ»ÑįÐ»":8053,"Ð³ÑĥÐ³Ð°ÑĢÑį":8054,"Ð»Ó£ÐºÑį":8055,"Ð»Ó£ÑĤÐ¸Ð½":8056,"ĠÐ¾Ð½Ñĳ":8057,"ĠÐ°ÓĪÐºÐ°":8058,"ĠÐ°ÓĪÐ´ÑıÓĪÐ°":8059,"ĠÐ°ÓĪÐ´ÑĥÐ»Ó£Ð½":8060,"Ð²ÑįÑĢÐºÑį":8061,"ÐºÑĥÐ½ÐºÐ°":8062,"Ð½ÑĭÐ½":8063,"ĠÐ´ÑıÐ¼Ð¸":8064,"ĠÐ´ÑıÐ»Ð¸Ð½":8065,"ĠÐ´ÑıÐ½Ð¼Ñį":8066,"ĠÐ´ÑıÐ´ÐµÐ¹":8067,"ĠÐ´ÑıÐ²Ð¸ÑĤ":8068,"ĠÐ³Ð¾Ð²Ð¾Ð´ÑĳÑĢÐ¾":8069,"ĠÐ²ÑĭÑģÐ¾":8070,"ĠÐ²ÑĭÑĢÑĭ":8071,"ĠÐ²ÑĭÑĪÐ»Ð¸":8072,"ĠÐ²ÑĭÐ±Ð¸ÑĢÐ°":8073,"ĠÐ²ÑĭÑĤÑı":8074,"ĠÐ²ÑĭÐ´ÐµÐ»":8075,"ĠÐ²ÑĭÐ¶Ð¸Ð»Ð¸":8076,"ĠÐ²ÑĭÐ´Ð°Ð»":8077,"ĠÐ²ÑĭÐ¹Ð´ÐµÑĤ":8078,"ĠÐ²ÑĭÑĤÐ°ÑīÐ¸":8079,"Ð½Ó£Ð´Ñį":8080,"Ð½Ó£Ð»Ð»Ñį":8081,"ĠÑĪÐµÐ¹":8082,"ĠÑĪÐ»ÐµÐ¿Ð½ÑĥÐ»":8083,"ÓĪÑįÑģ":8084,"ÓĪÑįÐ´Ñĭ":8085,"ÓĪÑįÑĢÑįÐ²":8086,"ÓĪÑįÐ´ÐµÐ´ÐµÐ½":8087,"ÓĪÑįÑĢÑĤÑĭÐºÐ¸Ð½":8088,"ĠhÐ°Ð³":8089,"ĠhÐ°ÑĢÑį":8090,"ĠhÐ°Ð²Ð°":8091,"ĠhÐ°Ð³Ð´Ð°":8092,"ĠhÐ°ÑĢÐ°Ð½":8093,"ĠhÐ°ÓĪÓ¯":8094,"ĠhÐ°ÐºÑĤÑĭÑĢÐ°":8095,"ĠhÐ°Ð¼Ð½Ð°":8096,"ĠhÐ°Ð¿Ð¾Ñı":8097,"ĠhÐ°ÑĢÑĥÐ¼Ñĥ":8098,"ÓĪÐºÓ£Ð»":8099,"ĠÐ±ÑįÐµÑĤÐºÐ¾":8100,"ÑģÐºÐ°Ð»":8101,"ÑģÐºÐ°Ð¶Ð¸":8102,"ÑģÐºÐ°Ð½ÑįÐ¼":8103,"ÑģÐºÐ°ÑĤÑĮÑģÑı":8104,"ÑĢÐ¸ÑĤÑģÑı":8105,"ĠÐ´Ð°Ðº":8106,"ĠÐ´Ð°Ð¼":8107,"ĠÐ´Ð°Ð»Ð°":8108,"ĠÐ´Ð°ÑİÑĤ":8109,"ĠÐ´Ð°Ð³Ð°Ð»Ð°":8110,"ĠÐ´Ð°Ð¼ÐºÐ°":8111,"ĠÐ´Ð°Ð½Ð¸Ð»Ð°":8112,"ĠÑĤÐ°ÐºÐ¶Ðµ":8113,"ÑİÑĤÑįÐ»Ð²Ñį":8114,"ĠhÑįÓĪ":8115,"ĠhÑįÐ»Ð¸Ð½":8116,"ĠhÑįÐ½ÓĪÑį":8117,"Ð´ÐµÑĢÑįÑģ":8118,"Ð´ÐµÑĢÑįÐ´Ð¾":8119,"Ð´ÐµÑĢÑįÐºÐ¸Ð½":8120,"ĠÐ¼Ð°ÑĪÐ°":8121,"ĠÐ¼Ð°ÑģÐ»Ð¾":8122,"ĠÐ¼Ð°ÑĢÐ¸Ñı":8123,"ĠÐ¼Ð°ÑĢÐ¸Ñģ":8124,"ĠÐ¼Ð°ÑģÑĤÐµÑĢÐ¸ÑĨÐ°":8125,"ĠÐ¼Ð°Ð¹Ð³Ñĥ":8126,"ÑįÐ½Ð³":8127,"ĠÑĤÑįÑĢÑį":8128,"ĠÑĤÑįÐ²Ñĥ":8129,"ÐºÐ°Ð½Ð¸Ð½":8130,"ÐºÐ°Ð½Ð´Ó¯":8131,"ÐºÐ°Ð½Ð¼Ñį":8132,"ĠÐ¾ÑĢÐ¾ÐºÐ¾":8133,"ĠÐ¾ÑĢÐ¾Ð½Ñį":8134,"ĠÐ¾ÑĢÐ¾Ð½Ð¼Ñį":8135,"ĠÐ¾ÑĢÐ¾Ð½Ð´Ó¯":8136,"ĠÐ¾ÑĢÐ¾ÐºÐ¾ÑĢ":8137,"ÑıÑĤÑĩÐ°":8138,"ÑĪÐ¾Ð½":8139,"ÑĪÐ¾Ð¼":8140,"ĠÐ¼ÑĭÑģÑĭ":8141,"ĠÐ±Ð¸ÑģÑĳÐ²Ñį":8142,"ĠÐ±Ð¸ÑģÑĳÑĤÑį":8143,"ĠÐ¿ÑĢÐ¾Ð¼Ð°":8144,"ĠÐ¿ÑĢÐ¾ÑģÐ¸ÑĤÑĮ":8145,"ĠÐ¿ÑĢÐ¾Ð±Ð¸Ð»Ð°ÑģÑĮ":8146,"ĠÐ¿ÑĢÐ¾ÐµÐ·Ð´Ð¸Ð¼":8147,"ĠÐ¿ÑĢÐ¾Ð²ÑıÐ»Ð¸ÑĤÑģÑı":8148,"ÑĩÐ¸ÑĤÑģÑı":8149,"ĠÐ´ÐµÐ»Ð°Ð¹":8150,"ĠÐ´ÐµÐ»Ð°ÐµÐ¼":8151,"Ð²ÐºÓ£Ð»Ð´Ð°":8152,"Ð¼Ó£ÑĤ":8153,"Ð¼Ó£Ð´Ð¸ÑĩÐ¾":8154,"Ð³Ó£Ð»":8155,"ÑĩÐµÐ²Ðµ":8156,"ĠÐ±Ð¾ÑĤÑĥ":8157,"ĠÐ±Ð¾Ð³Ñĥ":8158,"ĠÐ±Ð¾ÑıÑĤÑģÑı":8159,"ĠÐ±Ð¾ÑİÑģÑĮ":8160,"ĠÐ±Ð¾ÑĩÐºÑĥ":8161,"ĠÐ±Ð¾Ð»Ð¸ÑĤ":8162,"ĠÐ±Ð¾ÐºÐ¾Ð½ÑĩÑĥ":8163,"ĠÐ±Ð¾ÐºÐ°Ð¼":8164,"ÐºÐ¾Ð½ÑĩÐ¸Ð»Ð¸":8165,"ĠhÑĥÑĢÑĥÐ»":8166,"ĠhÑĥÑĢÑĥÐ²ÐºÓ£":8167,"ĠhÑĥÑĢÑĥÐ´ÐµÑĢÑį":8168,"ĠÑĢÐµÐ¹":8169,"ĠÑĢÐµÑģÐ¿Ñĥ":8170,"ĠÑĢÐµÑĩÐºÐ°":8171,"ĠÑĢÐµÐ·ÐºÐ¾":8172,"ÐºÑĤÑįÐ½":8173,"ÐºÑĤÑįÑĢÑį":8174,"ÐºÑĤÑįÐ½Ð°":8175,"ÐºÑĤÑįÐ´Ñį":8176,"ÐºÑĤÑįÑĦÐºÓ£Ð»":8177,"ÐºÑĤÑįÐ¼Ð½Ó£":8178,"Ð¾Ð½ÐºÐ°":8179,"Ð±ÐµÐ¶Ð¸ÑĤ":8180,"Ð±ÐµÐ³Ð°ÐµÑĤ":8181,"Ð±ÐµÑĢÑĥÑĤ":8182,"Ð¿Ð°ÑĢ":8183,"Ð¿Ð°Ð²":8184,"Ð¿Ð°ÑİÑĤ":8185,"Ð¿Ð°Ð½Ð¾Ð²Ð¸Ñĩ":8186,"Ð¸ÑĢÑĤÑĭÐºÓ£":8187,"ÑĤÑĭÑĢÐ³Ð°ÐºÐ°ÐºÐ¸Ð½":8188,"ĠÐ·Ð½Ð°Ð»Ð¸":8189,"ĠÐ·Ð½Ð°ÑİÑĤ":8190,"ĠÐ·Ð½Ð°ÐµÑĪÑĮ":8191,"ĠÐ·Ð½Ð°ÐºÐ¾Ð¼Ñĭ":8192,"ÑįÑĢÑĤÑĭÐºÓ£":8193,"ÑįÑĢÐ´ÑįÐ»Ð¾Ð½":8194,"Ð¼ÑĭÑĢ":8195,"ĠÐ±Ð°Ð¸Ð»":8196,"ĠÐ±Ð°Ð·Ð°":8197,"ĠÐ±Ð°ÐºÐ°Ð½":8198,"ĠÐ±Ð°ÑĢÐ³Ó£":8199,"ĠÐ±Ð°Ð¹ÐºÐ¾":8200,"ĠÐ²Ð°ÑĪÐ¸":8201,"ĠÐ²Ð°ÑĢÐºÑį":8202,"ĠÐ²Ð°ÑģÐ¸Ð»Ð¸":8203,"ĠÐ²Ð°ÑĢÐµÐ½ÑĮÐµ":8204,"hÓ£ÐºÑĤÐ°ÐºÐ°":8205,"ÑĪÐ°ÑĤÑĮ":8206,"ĠÐ¸Ð½ÑĤÑĭ":8207,"ĠÐ¸Ð½Ò£Ð°":8208,"ĠÐ¸Ð½Ð´ÐµÐ½Ñį":8209,"ĠÐ¸Ð½ÑģÑĤÐ¸":8210,"ĠÐ¸Ð½Ð½Ð¾Ðº":8211,"ĠÐ½ÑĥÓĪÐ°Ð½Ð´Ñĥ":8212,"ĠÐ½ÑĥÓĪÐ°Ð½Ð¼Ð°":8213,"ĠÐ½ÑĥÓĪÐ°Ð½Ð½ÑĥÐ½":8214,"ĠÐ½ÑĥÓĪÐ°Ð½ÑĤÑĭÐºÓ£Ð½":8215,"Ð½ÑıÐºÐ°":8216,"Ð½ÑıÑİÑīÐ¸Ð¼":8217,"Ð½ÑıÐ¶ÐºÐ°":8218,"Ð´ÐµÐ¼ÐµÐ½ÑĤÑĮÐµÐ²":8219,"Ð±ÑįÑĤÑĭÐ½":8220,"ĠÑĢÐ¾Ð´Ð°":8221,"ĠÑĢÐ¾Ð·Ð°":8222,"ĠÑĢÐ¾Ð²Ð½Ð¾":8223,"ĠhÐ¾Ð¼Ð¾":8224,"ĠÐºÑĥÐ»Ñİ":8225,"ĠÐºÑĥÑĢÐ³Ñĥ":8226,"ĠÐºÑĥÐ¿ÑĤÑĥ":8227,"ĠÐºÑĥÓ£ÐºÐ¾":8228,"ĠÐºÑĥÑĢÐµÑı":8229,"ĠÐºÑĥÑĤÑĥÑģÐ¸":8230,"ĠÐºÑĥÑĪÐ°ÑĤÑĮ":8231,"ĠÐ±Ð¸ÑĩÐ¾Ð²":8232,"ĠÐ±Ð¸ÑĩÐ¾ÑĤÑĭÐ½":8233,"ĠÐ¶Ð¸Ð²Ð¾ÑĤ":8234,"ĠÐ¶Ð¸Ð²Ð¾Ð¹":8235,"ĠÐ¶Ð¸Ð²Ð¸ÑĤÐµ":8236,"ĠÐ¶Ð¸Ð²Ð¾ÑĤÑĥ":8237,"ĠÐ¶Ð¸Ð²ÐµÑĪÑĮ":8238,"ÑĤÑĩÑįÐ¼":8239,"ÑĤÑĩÑįÐ¼Ð¸":8240,"ÑĤÑĩÑįÓĪÐºÓ£ÑĤÑĭÐ½":8241,"ÑĤÑĩÑįÐ¿ÐºÓ£Ð»":8242,"ÑĤÑĩÑįÐ»Ð¸Ð¼":8243,"ÑĤÑĩÑįÐ½ÑįÐ»":8244,"ÑĤÑĩÑįÒ£ÐºÓ£Ð½":8245,"ÑģÐ¿ÑĢÐ°":8246,"ÑģÐºÐ¸Ðµ":8247,"ÑĪÑĮÐµÑĤ":8248,"ÑĪÑĮÑģÑı":8249,"ĠÑħÐ¾ÑĢÐ¾ÐºÐ¸":8250,"ĠÑħÐ¾ÑĢÐ¾ÑĪÐ¸Ð¹":8251,"ĠÑħÐ¾ÑĢÐ¾ÑĪÐ¸Ñħ":8252,"ĠÑħÐ¾ÑĢÐ¾ÑĪÐµÐ½ÑĮÐºÐ¾":8253,"ĠÑĤÑĭÐ»Ð¸":8254,"ĠÑĤÑĭÑĢÑį":8255,"ĠÑĤÑĭÐ¼Ð°":8256,"ĠÑĤÑĭÐ¼Ó£":8257,"ĠÑĤÑĭÐ»Ð´Ñį":8258,"ĠÑĤÑĭÐ»Ð¸Ð¼":8259,"ĠÑĤÑĭÐ»Ð´Ð¾":8260,"ĠÑĤÑĭÐ³Ð´Ñį":8261,"ĠÐ¸Ð·Ð¿Ð¾Ð´":8262,"ĠÐ¸Ð·Ð±ÑĥÑĪÐºÐ°":8263,"ĠÐ¸Ð·Ð¼ÐµÐ½Ð¸":8264,"ĠÐ¸Ð·Ð³Ð¾ÑĢÐ¾Ð´ÑĮ":8265,"ĠÐ¸Ð·ÑĢÐµÐ´ÐºÐ°":8266,"ĠÑĢÐ°Ð·Ð±Ñĥ":8267,"ĠÑĢÐ°Ð·Ð´ÐµÐ»Ð°":8268,"ĠÑĢÐ°Ð·Ð³Ð¾Ð²Ð¾":8269,"ĠÑĢÐ°Ð·Ð³Ð°ÑĢ":8270,"ĠÑĢÐ°Ð·Ð±ÐµÐ³Ð°":8271,"ĠÑĢÐ°Ð·Ð²ÑĮÑİ":8272,"ÑīÐµÑĢÐ°":8273,"ĠÐ³ÑĥÐ³Ð´Ð°":8274,"ĠÐ³ÑĥÐ»ÑĩÐ°":8275,"ĠÐ³ÑĥÑģÐ¾Ð»":8276,"Ð¶Ð°ÑİÑĤ":8277,"Ð¶Ð°Ð»Ð¸ÑģÑĮ":8278,"Ð¶Ð°ÑīÐµÐµ":8279,"hÑĥÑİ":8280,"hÑĥÓĪÑĤÑĥ":8281,"hÑĥÐºÐ¸ÑĤÑį":8282,"hÑĥÐºÑįÐ²Ñį":8283,"hÑĥÐºÑĥÐ»Ñį":8284,"hÑĥÐ²ÑĥÐ»Ð¸ÑĤÑĭÐ½":8285,"Ð»ÑıÐ¹":8286,"Ð»ÑıÐ»ÑģÑı":8287,"ÐºÑĤÐ°Ð»Ð°Ð½":8288,"ÐºÑĤÐ°Ð»Ð´Ð¸":8289,"ÐºÑĤÐ°Ð´ÑıÒ£ÐºÓ£ÑĦ":8290,"ÐµÑħÐ°Ð½Ð¸Ðº":8291,"ĠÐ»Ð¾ÑģÑĮ":8292,"ĠÐ»Ð¾ÑģÐ¸":8293,"ĠÐ»Ð¾ÑģÐµÐ¹":8294,"ĠÐ»Ð¾Ð²Ð¸ÑĤ":8295,"ĠÐ»Ð¾Ð¿Ð¾ÑĢ":8296,"ĠÐ»Ð¾Ð²Ð¸Ð»Ð°":8297,"ĠÐ»Ð¾Ð´Ð¾ÑĩÐºÐ¸":8298,"ÐºÐµÑĪÐ°":8299,"ĠÑĩÑĥÑĢÐ³Ó£":8300,"ĠÑĩÑĥÐ¼Ð¾Ð¼":8301,"ĠÑĩÑĥÐ»ÑĥÐº":8302,"ĠÑĩÑĥÐ¼Ð¸ÐºÐ¸":8303,"ÑįÑĤÐ¾Ð¹":8304,"ĠÐ½Ð¾Ñģ":8305,"ĠÐ½Ð¾Ð¶":8306,"ĠÐ½Ð¾Ð³Ð°":8307,"ĠÐ½Ð¾ÑģÐ°":8308,"ĠÐ½Ð¾Ð²ÑĭÐµ":8309,"ĠÐ½Ð¾Ð³Ð¾Ð¹":8310,"ĠÐ½Ð¾ÑĩÐµÐ²Ð°ÑĤÑĮ":8311,"ÑĩÑĥÑĤÑģÑı":8312,"ĠÑĢÐ°Ð±Ð¾ÑĤÐ°ÐµÐ¼":8313,"ĠÐ±Ð¾Ð»ÑĮÑĪÐ¸Ñħ":8314,"ĠÐ±Ð¾Ð»ÑĮÑĪÑĥÑİ":8315,"ĠÐ±Ð¾Ð»ÑĮÐ½Ð¸ÑĨÐµ":8316,"ĠÑģÐ²Ð¾Ð´Ð½ÑĭÐµ":8317,"ĠÑįÑĢÓ£":8318,"ĠÑįÑĢÐºÐ¾":8319,"ĠÑįÑĢÐ³ÑįÑģÐ¸Ð½":8320,"ĠÑįÑĢÐ´ÑįÐ»Ð¾Ð½":8321,"ĠÐ³Ð°Ñģ":8322,"ĠÐ³Ð°Ð¼Ð°":8323,"ĠÐ³Ð°Ð¼Ð¸":8324,"ĠÐ³Ð°Ð²ÐºÓ£Ð»":8325,"ĠÐ³Ð°Ð½Ñı":8326,"ĠÐ³Ð°Ð´Ð°Ð½":8327,"ĠÐ³Ð°ÓĪÐºÓ£Ð½":8328,"ĠÐ³Ð°Ð´ÑıÑĢÐ°":8329,"ĠÐ³Ð°ÐºÐ°Ð½ÑįÐ¼":8330,"ĠÐ³Ð°Ð½Ð°ÑĤ":8331,"ĠÐ³Ð°Ð½Ð½Ð¸":8332,"ĠÐ³Ð°ÑĢÐ¿Ð°":8333,"ĠÐ³Ð°Ð²ÑĢÐ¸Ð»":8334,"ĠÐ±ÑĭÐ»Ð¸ÑĤÐ¾":8335,"hÐ¸ÑģÐ¸":8336,"hÐ¸ÑĩÐ¾":8337,"Ð»Ð°Ð½Ð½ÑĭÑħ":8338,"ĠhÑįÐ»ÑįÐºÑį":8339,"ĠhÑįÐ»ÑįÐºÑįÑĤ":8340,"hÐ°ÑĤÐ°Ð½Ð°":8341,"hÐ°Ð¼ÑįÐ¹":8342,"hÐ°Ð½ÑıÐºÐ°":8343,"ĠÐ°ÓĪÐ¸ÑĤ":8344,"ĠÐ°ÓĪÐ¸Ð»Ð°":8345,"ĠÐ°ÓĪÐ¸ÑĢÐ°":8346,"ĠÐ°ÓĪÐ¸Ð²Ð°":8347,"ĠÐ°ÓĪÐ¸Ð´Ó¯":8348,"ĠÐ°ÓĪÐ¸Ð²Ñį":8349,"ĠÐ°ÓĪÐ¸ÑĤÑĭÐ½":8350,"ĠÐ°ÓĪÐ¸ÑĢÑįÐ½":8351,"ĠÐ°ÓĪÐ¸ÓĪÐºÓ£Ð½":8352,"Ð¿ÐºÐ°Ñı":8353,"Ð´ÑĮÐµ":8354,"Ð²ÑĭÑģÑĥ":8355,"Ð²ÑĭÑħÐ¾Ð´":8356,"Ð½Ð¸Ð½Ñĭ":8357,"ĠÐ¼ÑĥÐ´Ð°":8358,"ĠÐ¼ÑĥÐºÐ¸":8359,"ĠÐ¼ÑĥÑģÑĥ":8360,"ĠÐ¼ÑĥÑĤÑĤÑĭÐºÐ¸":8361,"ĠÑĩÐµÑĪÐµÑĤÑģÑı":8362,"ÐºÓ¯ÐºÐ¾":8363,"ÐºÓ¯Ð½Ð¼Ñį":8364,"ÐºÓ¯ÑĤÑĩÐ¾":8365,"ÐºÓ¯Ð»Ð³Ó£":8366,"ÐºÓ¯ÑĤÑĤÐµÑĢÑį":8367,"Ð²ÐµÐ½Ð½Ð°Ñı":8368,"ĠÐ»ÐµÐ³":8369,"ĠÐ»ÐµÑģÑĤ":8370,"ĠÐ»ÐµÐ³Ð»Ð°":8371,"ĠÐ»ÐµÑĤÐ°Ð»":8372,"ĠÐ»ÐµÑĩÐ¸Ð»Ð°":8373,"ĠÐ»ÐµÑĤÐ°ÑĤÑĮ":8374,"ĠÐ»ÐµÑĤÐ°Ð»Ð¸":8375,"ĠÐ»ÐµÐ²Ð¸Ð½":8376,"ĠÐ»ÐµÑĤÐ°ÑİÑĤ":8377,"ĠÐ¶ÐµÐ½Ð°":8378,"ĠÐ¶ÐµÐ½Ðµ":8379,"ÑĤÐ°Ð¼ÑĤÐ¾":8380,"ĠÑģÐ¸ÑĢÐ¾":8381,"ĠÑģÐ¸ÐºÑį":8382,"ĠÑģÐ¸Ð¶Ñĥ":8383,"ĠÑģÐ¸ÑĢÐ¾ÑĤ":8384,"ĠÑģÐ¸Ð³Ð´ÑįÐ»Ñį":8385,"Ð¶Ð¸ÑģÑĮ":8386,"Ð¶Ð¸Ð³Ð°ÑĤÑĮ":8387,"Ð¶Ð¸Ð·Ð½ÑĮ":8388,"Ð¶Ð¸Ð³Ð°ÐµÑĤ":8389,"Ð¶Ð¸Ð¼Ð¾Ð»Ð¾":8390,"ĠÐ»Ð¸Ð±Ð³Ñį":8391,"ĠÐ»Ð¸ÑģÐ¸ÑĨ":8392,"ĠÑĢÐ°ÑģÐºÐ¾Ð»Ð¾":8393,"ĠÑĢÐ°ÑģÑĤÐ¸ÑĤ":8394,"ĠÑĢÐ°ÑģÑĤÐ¾Ð¿Ñĭ":8395,"ĠÑįÑĤÐ¸ÑĤÐ¾":8396,"ĠÐ´ÑĢÑĥÐ¶Ð¾Ðº":8397,"ĠÐ¿Ð°ÑĢÐ°":8398,"ĠÐ¿Ð°ÑĢÐ¾":8399,"ĠÐ¿Ð°Ð¿Ð°":8400,"ĠÐ¿Ð°ÑĢÐºÐ°":8401,"ĠÐ¿Ð°ÑģÑĤÑĮ":8402,"ĠÐ¿Ð°Ð½ÐºÐ°":8403,"ĠÐ¿Ð°Ð²ÐµÐ»":8404,"ĠÐ¿Ð°ÑĤÑĢÐ¾":8405,"ĠÐ»ÑĥÐº":8406,"ĠÐ»ÑĥÐºÓ£":8407,"ĠÐ»ÑĥÐºÑĤÐ°":8408,"ĠÐ»ÑĥÐºÐ¸Ð¼":8409,"Ò»Ð¸":8410,"Ð¿Ð¸Ð²ÐºÐ°":8411,"Ð¿Ð¸ÑģÐ°ÑĤÑĮ":8412,"ĠÐ¾Ð»ÐµÐ½ÐµÐ¹ÑĤÐ¾":8413,"ĠÑħÐ°Ð³Ð´Ñĭ":8414,"ĠÑħÐ°ÑĢÐ¸Ñĥ":8415,"ÑĢÐ³Ð¸Ð´Ó¯":8416,"Ð´ÐµÑĤÐ½ÑĭÐµ":8417,"Ð´ÐµÑĤÑıÐ¼":8418,"ĠÐ³Ð¸ÑĢÐºÑĥÐ½Ð°":8419,"Ð´ÐµÐ½ÑĤ":8420,"ĠÐ´ÑĥÑĢÐ°":8421,"ĠÐ´ÑĥÐºÑĤÑįÐ»":8422,"ĠÐ´ÑĥÑĩÐ°Ð¼Ð°":8423,"ĠÐ´ÑĥÑĤÑĥÐ´ÐµÐ½Ñį":8424,"ĠÐ´ÑįÐº":8425,"ÑĪÐºÐ°Ð¼Ð¸":8426,"ÑĤÑįÐ»ÑĤÑĭÐ½":8427,"ÑĤÑįÐ»Ð²ÑįÑĢ":8428,"ÑĢÓ£Ð²ÑįÐ½":8429,"ĠÑĤÐ°Ð´Ó¯Ð´Ð°":8430,"ĠÑĤÐ°Ð´Ó¯Ð²ÑįÑĢ":8431,"Ð½Ð¼ÑįÐ¼":8432,"ĠÐ°Ð¼Ð°ÑĪÐºÐ¸":8433,"ĠÐ°Ð¼Ð°ÑĤÐºÓ£":8434,"ĠÐ°Ð¼Ð°ÑĢÐ´Ó¯":8435,"ĠÐ°Ð¼Ð°ÑĢÐ´ÑĥÐºÐ¸Ð½":8436,"ĠÐ±ÑįÐµÑĤÑĭÐ»":8437,"ĠÑģÐµÐ²ÐµÑĢÐ°":8438,"ĠÑģÐ¿Ð¸Ð½Ðµ":8439,"ĠÐ»ÑİÐ±ÑıÑĤ":8440,"Ð¸Ð¼Ñı":8441,"ĠÐ¾ÑħÐ¾ÑĤÐµ":8442,"Ð¼ÑıÐ½ÑĭÐµ":8443,"ĠÐ¾Ð±Ð»Ð°Ð¸":8444,"ĠÐ¾Ð±ÑıÐ·Ð°":8445,"ĠÐ¾Ð±Ð»Ð¸Ð³Ð°":8446,"ĠÓĪÑįÐ½ÑįÐ¼":8447,"ĠÑįÐ»ÑįÑĤ":8448,"ĠÑįÐ»ÑįÐ²Ð°ÑĤÑĭÐ½":8449,"ĠÑįÐ»ÑįÐ´Ó¯Ð½":8450,"ĠÑįÐ»ÑįÐ²ÑįÐ»":8451,"ĠÑįÐ»ÑįÐ²Ð¾Ð½":8452,"Ð·ÑĭÐ²Ð°Ð»":8453,"Ð·ÑĭÐ²Ð°Ñİ":8454,"ĠÐºÑįÐ¿Ñį":8455,"ĠÐºÑįÐ¼ÑįÐ´Ð¸ÑģÑį":8456,"ÑĢÐ¸Ð»Ð´Ð°":8457,"ÑĢÐ¸Ð»Ð²Ð°":8458,"Ð´ÑıÐ½Ð´ÑĢÑį":8459,"Ð¼Ð¸Ð½ÑĥÐ½":8460,"Ð¼Ð¸Ð½Ð½Ó£":8461,"Ð¼Ð¸Ð½Ò£Ó£":8462,"ÓĪÐ¸ÑģÐ¸Ð»":8463,"ĠÑĤÐ°Ð¹Ð³Ð°Ð»Ð°":8464,"ĠÑĤÐ°Ð¹Ð¼ÐµÐ½Ñı":8465,"ĠÑĤÐ°Ð¹Ð¼ÑĭÑĢ":8466,"ĠÐ³Ð¸ÑĢÐºÑĥÑĢÑį":8467,"ĠÐ³Ð¸ÑĢÐºÑĥÑĩÐ°":8468,"ĠÐ³Ð¸ÑĢÐºÑĥÑģÐ°":8469,"ĠÐ³Ð¸ÑĢÐºÑĥÐ²ÐºÓ£":8470,"ĠÐ³Ð¸ÑĢÐºÑĥÓĪÐºÓ£ÑĤÑĭÐ½":8471,"ĠÐ³Ð¸ÑĢÐºÑĥÐ»Ð´Ð°Ð½":8472,"ĠÐ³Ð¸ÑĢÐºÑĥÑĤÑĩÐ°Ð²ÐºÓ£":8473,"ĠÐ²ÐµÑĩÐµ":8474,"ĠÐ²ÐµÐ´Ð¾Ð¼Ð¾":8475,"ÓĪÓ£Ð²":8476,"ÓĪÓ£Ð»Ð´Ð¸":8477,"ĠÐ½Ð°Ð²ÐµÑĢÑħÑĥ":8478,"ÄĵÐºÑĥÐ½ÐºÐ°":8479,"ĠÑĢÑĥÐ±Ð¸":8480,"ĠÑĢÑĥÐ³Ð°ÑĤÑĮ":8481,"ĠÑĢÑĥÐ±Ð¸Ð»Ð¸":8482,"ĠÑĢÑĥÑĩÑĮÑı":8483,"ĠÑĢÑĥÐ¼ÑıÐ½ÑĭÐµ":8484,"ĠÐ²Ð¸Ð´Ñĥ":8485,"ĠÐ²Ð¸ÐºÑĤÐ¾":8486,"ĠÐ²Ð¸Ð´Ð¸ÑĤ":8487,"ĠÐ²Ð¸ÑĤÑı":8488,"ĠÐ²Ð¸ÑģÐ¸ÑĤ":8489,"ĠÐ²Ð¸Ð´Ð°ÑĤÑĮ":8490,"ĠÐ²Ð¸ÐºÑĤÐ¾ÑĢ":8491,"ĠÐ²Ð¸Ð´Ð°ÑĤ":8492,"ĠÐ±ÐµÑĢÐµÑģ":8493,"ĠÐ¿ÐµÑĢÐµÐ²ÐµÑĢ":8494,"ĠÐ¿ÐµÑĢÐµÐ¸Ð¼":8495,"ĠÐ¿ÐµÑĢÐµÐµÑħÐ°Ð»Ð¸":8496,"ĠÐ¿ÐµÑĢÐµÐ³Ð¾Ð½":8497,"ĠÐ¿ÐµÑĢÐµÐºÐ¾ÑĩÐµÐ²Ð°Ð»Ð¸":8498,"ÓĪÐ¸Ð»Ð²Ð¸":8499,"ÓĪÐ¸Ð»Ð´ÑĥÐºÑĤÑĭÐ½":8500,"ÐºÑĤÐ¾ÑĤÐ¾":8501,"ÑıÐ½Ð½Ð¸Ðº":8502,"Ð±ÐµÐ½Ð½Ð¾":8503,"ÑħÑĥÑĤÑį":8504,"ÑħÑĥÐ²ÑĥÐ»":8505,"ÑħÑĥÑĢÐºÐ¾ÐºÐ¾":8506,"ÑħÑĥÐ»Ð²Ð¾Ð½":8507,"Ð¾ÑĢÐ¾Ð½Ð¼Ñį":8508,"Ð¾ÑĢÐ¾ÑĢÐ¸Ð½":8509,"ĠÑģÑĤÐ¾ÑıÑĤ":8510,"ĠÑģÑĤÐ¾Ð»ÑĮÐºÐ¾":8511,"ĠÑģÑĤÐ¾Ð»Ñĭ":8512,"ĠÑģÑĤÐ¾Ð¸ÑĪÑĮ":8513,"ĠÐ¿Ð¾Ð´Ðº":8514,"ĠÐ¿Ð¾Ð´ÑĬ":8515,"ĠÐ¿Ð¾Ð´Ð¿Ðµ":8516,"ĠÐ¿Ð¾Ð´ÑħÐ¾Ð´Ð¸ÑĤÑĮ":8517,"ĠÐ¿Ð¾Ð´Ð¿Ð¸ÑģÑĭÐ²Ð°Ð»Ð¸":8518,"ĠÐ¿Ð¾Ð´Ð½ÑıÑĤÑĮ":8519,"ĠÐ¿Ð¾Ð´Ð²ÐµÐ»Ð°":8520,"ÐºÐ¸Ð»Ð²Ñį":8521,"ÐºÐ¸Ð»ÑĤÑĭÑĢÑį":8522,"ĠÐ´ÑĭÐ³Ð¸Ð»":8523,"ĠÐ´ÑĭÑĢÐ³Ñį":8524,"ĠÐ´ÑĭÐ»Ð°ÑģÐ°":8525,"ÐµÐ²Ð³ÐµÐ½Ð¸Ñı":8526,"ÐºÐ°ÑĢÑĮ":8527,"ÐºÐ°ÑĢÐ´Ó¯":8528,"ĠÑģÐºÐ°Ð·Ð°Ð»ÑĤÐ¾":8529,"ÑģÐºÐ¾ÑĢÐ¾":8530,"ĠÑģÐ´ÐµÐ»Ð°Ð²":8531,"ĠÑģÐ´ÐµÐ»Ð°ÐµÑĤ":8532,"ĠÑģÐ´ÐµÐ»Ð°Ð½Ð¾":8533,"Ð¼ÐµÑĪÑĮ":8534,"ĠÐ±ÑĢÐ°ÑĤÐ°":8535,"ĠÐ±ÑĢÐ°ÑĤÑĥ":8536,"ĠÐ±Ð°Ð»Ó£":8537,"ĠÐ¾ÑģÑĤÐ°Ð²Ð¸ÑĤÑĮ":8538,"ĠÐ¾ÑģÑĤÐ°Ð½Ð¾Ð²Ð¸":8539,"ĠÐ¾ÑģÑĤÐ°Ð½Ð¾Ð²Ð¸Ð»Ð¸ÑģÑĮ":8540,"ĠÐ¾ÑģÑĤÐ°Ð½Ð°Ð²Ð»Ð¸":8541,"Ð·ÑıÐ¸Ð½":8542,"Ð½ÑĭÐ¹Ð´Ó¯":8543,"Ð»ÑİÐ´ÐµÐ¹":8544,"ĠÐ±ÐµÐ³ÑĥÐ½":8545,"ĠÐ±ÐµÐ³Ð°Ð´Ó¯":8546,"ĠÐ±ÐµÐ³Ð°ÑĤÑĮ":8547,"ĠÐ±ÐµÑĩÐµÐ²Ðµ":8548,"Ð¿ÑĥÑħÑĥ":8549,"ĠÐ¸ÑĩÑįÐ½Ð¾":8550,"ĠÐ¸ÑĩÑįÑĢÑįÐ½":8551,"ĠÐ¸ÑĩÑįÐ²ÑĥÐ½":8552,"ĠÐ¸ÑĩÑįÐ²ÑĢÑį":8553,"ĠÐ¸ÑĩÑįÑĤÐ½Ñį":8554,"ĠÐ¸ÑĩÑįÑĤÐ¼Ð¸":8555,"ĠÐ¸ÑĩÑįÑĤÐ¼Ó¯":8556,"Ò£ÑįÑħÐ¸":8557,"ĠÐ¼Ð°Ð»Ñĥ":8558,"ĠÐ¼Ð°Ð»Ó¯":8559,"ĠÐ°ÑıÐ´Ó¯":8560,"Ð±Ð¸ÑĢÐ°Ð»Ð°":8561,"Ð»Ð´ÑįÐºÐ¸Ð½":8562,"ĠÑįÑĤÑįÐµÑĤ":8563,"ĠÑįÑĤÑįÑĢÑįÐ½":8564,"ĠÑįÑĤÑįÐ²ÐºÓ£Ð»":8565,"ĠÑįÑĤÑįÑģÑįÐ»":8566,"ĠÐ°Ð½ÑĤÐ¸Ð»":8567,"Ð²Ð°Ð¹ÑĤÐµ":8568,"ĠÑĤÐ¾Ð³Ð¾Ð½":8569,"ĠÑĤÐ¾Ð³Ð¾Ð´Ó¯":8570,"ĠÑĤÐ¾Ð³Ð¾Ð²ÑĥÐ½":8571,"ĠÑĤÐ¾Ð³Ð¾Ð²ÑįÑĢ":8572,"ĠÑģÐ¼Ð¾Ð¶ÐµÑĤ":8573,"ĠÑģÐ¼Ð¾ÑĤÑĢÐ¸":8574,"ÑĢÐ°Ð²Ð»Ð¸":8575,"ÑĢÐ°Ð²ÑĪÐ¸ÑģÑĮ":8576,"ĠÑĢÐ°ÑģÑģÐºÐ°Ð¶ÐµÑĤ":8577,"ĠÑĢÐ°ÑģÑģÐºÐ°Ð·ÑĭÐ²Ð°ÐµÑĤ":8578,"ĠÒ»Ó¯":8579,"Ð¾ÑĤÑĨÐ°":8580,"Ð¾ÑĤÐ¿Ñĥ":8581,"Ð¾ÑĤÐºÑĢÑĭ":8582,"Ð¾ÑĤÑģÐ»Ñĥ":8583,"ĠÑįÐ¿ÐºÓ£ÑĤ":8584,"ĠÐ´Ð¸Ð³Ð¸Ð½":8585,"ĠÐ´Ð¸Ð¿Ð»Ð¾Ð¼":8586,"ĠÐ´Ð¸Ð·ÐµÐ»Ð¸":8587,"ĠÐ´Ð¸ÑĢÐ¸ÐºÐ°":8588,"ĠÐ´Ð¾Ð»Ð´Ñĭ":8589,"ĠÑĤÑįÐ³ÑįÐ¼Ó£":8590,"ĠÑĤÑįÐ³ÑįÐ¼Ð¸Ð½Ð¸Ð½":8591,"hÑįÐ»ÑįÓĪÐ¸ÑĤ":8592,"ÑĤÐ°Ð´Ó¯Ðº":8593,"ÐºÐ¸ÑĢÐ´Ð°":8594,"ĠÐ³Ð¾ÑĢÐ¾ÐºÐ¾":8595,"ÑħÐ¸ÑĩÅįÐ²ÑĥÐ½":8596,"ĠÐ¼ÐµÐ´Ð²ÐµÐ´Ð¸":8597,"ÑīÐ¸Ð¹":8598,"ĠÑħÑĥÐºÑĥ":8599,"ĠÑħÑĥÐ»Ð°ÑĢÑį":8600,"Ð´ÑİÐ³Ð°":8601,"Ð´ÑİÐºÑĩÐ°":8602,"ĠÐ½ÑĥÐ»Ð³Ð¸Ð»":8603,"ÑģÑĤÑĢÐµÐ»Ð¸":8604,"ĠÓĪÑįÐ½ÑįÑĢÑįÐ½":8605,"ĠÓĪÑįÐ½ÑįÑģÐ¾":8606,"ĠÓĪÑįÐ½ÑįÐºÑĤÑį":8607,"ĠÓĪÑįÐ½ÑįÐ´ÐµÐ½":8608,"ĠÓĪÑįÐ½ÑįÐ²ÑĢÑį":8609,"ĠÑĥÐ¼ÑĥÐºÅį":8610,"Ð½ÐµÑĤÑĥ":8611,"Ð»ÑįÐ»Ð´Ð¸Ð²Ð¸":8612,"Ð³Ð¸Ð½Ð¸Ð¿ÐºÓ£":8613,"ĠÐ¾ÑģÑĤÐ¾":8614,"ĠÐ¾ÑģÐ½Ð¾Ð²":8615,"ĠÐ¾ÑģÐ»Ð¾Ð¶Ð½ÐµÐ½Ð¸Ðµ":8616,"ĠÐ¾ÑģÐ½Ð¾Ð²Ð½Ð¾":8617,"ĠÐ¾ÑģÐ»ÐµÐ¿Ð»Ð°":8618,"ĠÐ¼Ð¸Ð½ÓĪÐ¸":8619,"ĠÐ¼Ð¸Ð½ÓĪÐ¸Ð»":8620,"ĠÐ¼Ð¸Ð½Ò£Ó£":8621,"ĠÐ¼ÑĥÐ½Ð½ÑĥÐ½":8622,"ĠÐ¼ÑĥÐ½ÓĪÐ¸":8623,"ĠÐ°hÓ£Ð²Ñį":8624,"ĠÐ°hÓ£Ð½ÑĥÐ½":8625,"ĠÐ°hÓ£ÑıÐ²Ð°ÑĢ":8626,"Ð³Ð¾Ð²Ð¾ÑĢÑı":8627,"Ð³Ð¾Ð²Ð¾ÑĢÐ¸Ð»":8628,"ĠÐ»Ð°Ð¿":8629,"ĠÐ»Ð°Ð²Ð°":8630,"ĠÐ»Ð°ÐµÐ¼":8631,"ĠÐ»Ð°ÑıÑĤÑĮ":8632,"ĠÐ»Ð°Ð¿Ð°":8633,"ĠÐ»Ð°Ð¿Ñĭ":8634,"ĠÐ»Ð°ÑĢÐµÐº":8635,"ĠÐ»Ð°Ð²Ð¸ÐºÑĤÐ°":8636,"ĠÑĪÐºÐ¾Ð»ÑĮÐ½Ð¸Ðº":8637,"ĠÑĪÐºÐ¾Ð»ÑĮÐ½Ð¸ÐºÐ¸":8638,"ĠÑĪÐºÐ¾Ð´Ð»Ð¸":8639,"ÑģÑĭÐ²Ð°ÐµÑĤ":8640,"ÐºÐ°Ð»Ð´Ñĭ":8641,"ÐºÐ°Ð»Ð²Ð¸":8642,"ĠÐºÐ»Ð°ÑĢÐ°":8643,"ĠÐºÐ»Ð°ÑģÑĤÑĥ":8644,"ĠÐºÐ»Ð°Ð´ÑĥÑĤ":8645,"ĠÐ²Ð¾Ð¹Ð´Ñĥ":8646,"ÑĤÑĩÐ°Ð½":8647,"ÑĤÑĩÐ°Ð²":8648,"ÑħÐ°Ð»Ð³Ð°ÑĢ":8649,"ĠÐ¼Ð°Ð»ÐµÐ½ÑĮÐºÑĥÑİ":8650,"Ð³ÑĥÐ½Ð¸":8651,"Ð³ÑĥÐ½Ð¸Ð¼":8652,"ĠÐ°Ð¼Ó£Ð½Ð°Ð½":8653,"Ð²Ð¾Ð¹Ð½Ñĭ":8654,"ĠÐ±Ð¸ÑĢÐ°Ð¿ÑĩÐ°":8655,"ÑħÐ¾ÑĢÐ¾ÑĪÐ¸Ð¹":8656,"ÑħÐ¾ÑĢÐ¾ÑĪÐµÐ½ÑĮÐºÐ¾":8657,"hÐ¾Ð´ÑıÑĤ":8658,"Ð»Ð²ÑįÑĤÑĭÐ½":8659,"ĠÐ±Ð¸ÑĩÑįÐ²ÑĥÐ½":8660,"ĠÑĤÑĥÑĢÑĥÐ»Ð¾":8661,"ĠÑĤÑĥÐ³ÑįÐ²ÐºÓ£":8662,"ĠÑĤÑĥÐ³ÑįÐ´ÐµÐ½":8663,"ĠÑĤÑĥÐ³ÑįÐ½Ó£Ð²Ñį":8664,"ĠÑĤÑĥÐ³ÑįÐ´ÐµÐ´ÐµÓĪÐ¾":8665,"ĠÐ½Ð¸ÐºÑįÐ´ÐµÑĢÑįÐ½":8666,"ĠÐ³ÑĥÐ½Ð½ÑįÐºÑį":8667,"ĠhÑįÐ³Ð´ÑĭÐ»":8668,"ĠhÑįÐ³Ð´ÑĭÐ²Ñį":8669,"ĠhÑįÐ³Ð´ÑĭÓĪÑį":8670,"ĠhÑįÐ³Ð´ÑĭÐ¼Ð°Ð¼Ð°":8671,"Ð¾Ð¼ÓĪÐ¾":8672,"Ð¾Ð¼ÐµÑħÐ°Ð½Ð¸Ðº":8673,"Ð´Ð¸Ð½ÑįÐ»":8674,"Ð´Ð¾Ð»Ð±Ð¾Ð»ÑĤÐ¾Ð½Ð¾":8675,"ĠÑģÑĥÑĢÑĥÐ»Ð»Ñį":8676,"ĠÑįÑĩÑįÐ½":8677,"ĠÐ°ÑĢÑģÐ°":8678,"ĠÐ°ÑĢÐºÐ¸ÑĤ":8679,"ĠÐ°ÑĢÑĩÑįÐ¼ÐºÐ°":8680,"ĠÐ°ÑĢÐ½Ð¾Ð»ÑĮ":8681,"ĠÐ°ÑĢÑĤÐ¸ÑģÑĤ":8682,"Ð²Ð°ÑİÑĤÑĤÐ¾":8683,"ÐºÑĥÑĢÐ´Ð¸":8684,"ĠÑħÑĥÑĢÑĥÑĩÐ¾":8685,"ĠÑħÑĥÑĢÑĥÐ´ÐµÐ½":8686,"ĠÑħÑĥÑĢÑĥÐ²ÑĢÑį":8687,"ĠÑħÑĥÑĢÑĥÐ´ÑįÐ½":8688,"ĠÑħÑĥÑĢÑĥÓĪÐ½ÑįÑĢÑįÐ²":8689,"ĠÐ±ÑįÐµÐ»Ð´ÑĥÐ»Ð°":8690,"ĠÐ¼Ð°Ð½Ð°Ð¼Ð¸":8691,"ĠÐ¼Ð°Ð½Ð°Ð²ÐºÓ£":8692,"ĠÐ¼Ð°Ð½Ð°ÑĢÐ°Ð½":8693,"ĠÐ¼Ð°Ð½Ð°Ð´ÑıÓĪÐ°":8694,"ĠÐ¼Ð°Ð½Ð°Ð²ÑĢÑįÐ½":8695,"ĠÐ¼Ð°Ð½Ð°Ð²ÑģÐ°":8696,"ĠÐºÑįÑĤÑįÐ½":8697,"ĠÐºÑįÑĤÑįÑĤÑĭÐ½":8698,"ĠÓ£Ð»Ñį":8699,"ĠÓ£Ð¼Ð´ÑįÑĤÑĭÐ½":8700,"ÐºÑĩÐ°Ð½":8701,"ÑģÑĤÐ¾ÑĦÐ¾ÑĢ":8702,"ĠÑģÐ¸Ð»Ñĭ":8703,"ĠÑģÑĤÑĢÐµÐ»Ð°Ð¼Ð¸":8704,"Ð¿ÑĢÐ¸Ð²Ñı":8705,"Ð¿ÑĢÐ¸ÑĩÐ°Ð»Ð¸":8706,"Ð¿ÑĢÐ¸ÑħÐ¾Ð´Ð¸Ð»Ð¸":8707,"Ð¿ÑĢÐ¸ÐºÐ°Ð·":8708,"ĠÑįÐ²ÑįÑģÐºÐ¸":8709,"ĠÐ¼ÑıÐ³ÐºÐ¾":8710,"Ð³ÑĢÐ°ÑĦÐ¸":8711,"Ð¿ÑĩÑĥÐ»Ð²Ñį":8712,"ÑĢÐ°Ð·Ð¶Ð¸":8713,"ÑĢÐ°Ð·Ð³Ð¾Ð²Ð°ÑĢÐ¸":8714,"ĠÐ°ÑıÑĤÐ¼ÑįÑĢ":8715,"Ð²Ð°ÑĢÐµÐ½ÑĮÐµ":8716,"ĠÐ»ÐµÑĤÐ½Ð¸Ð¼":8717,"ĠÐ»ÐµÑĤÐ½ÐµÐµ":8718,"ĠÑħÑįÑħÑį":8719,"ĠÑħÑįÐ»Ð°ÐºÓ£":8720,"ĠÐ±Ð°Ð»Ð´ÑĭÑĢÐ°Ð½":8721,"ĠÐ±Ð°Ð»Ð´ÑĭÐ´ÑıÐ½":8722,"ĠÐ±Ð°Ð»Ð´ÑĭÓĪÐ½Ð°":8723,"ÑģÑĥÐºÐ°":8724,"Ð±ÑĢÐ°Ð»Ð¸":8725,"ĠÐ¸ÑģÐµÑĢÑį":8726,"ĠÐ¸ÑģÐµÐ´Ð¾":8727,"ĠÐ¸ÑģÐµÑģÐ°":8728,"ĠÐ¸ÑģÐµÐ²ÐºÓ£":8729,"ĠÐ¸ÑģÐµÐ²ÐºÐ¾":8730,"ÑħÐ¾Ð·Ð½Ð°Ð¹":8731,"ĠÑĩÐ°Ð½":8732,"Ð²ÐµÑĤÑģÑı":8733,"ĠÐ¾Ð³Ð¾ÑĢÐ¾Ð²":8734,"ĠÐ´ÐµÑĢÐµÐ²Ñĥ":8735,"ĠÐ´ÑĥÐ½Ð´ÑįÐ»Ð°":8736,"ĠÐ´ÑĥÐ½Ð´ÑįÐ´ÑĥÐº":8737,"ĠÐ¿Ð¾Ð¹Ð´Ñı":8738,"ĠÐ¿Ð¾Ð¹Ð¼Ð°ÑĤÑĮ":8739,"ĠÑĤÑĥÐºÑģÐ°hÐ¸ÑģÐµ":8740,"ĠÐ°ÓĪÐ¸Ð»Ð´Ð°Ð½":8741,"ĠÑģÐ¸Ð»ÑĮÐ½ÑĭÑħ":8742,"ĠÑģÐ¸Ð»ÑĮÐ½ÐµÐµ":8743,"hÐ°Ð»Ð±Ð°":8744,"hÐ°Ð»Ð´ÑĥÐ»Ð°":8745,"ÑĤÐºÓ£Ð¸":8746,"ÑĤÐºÓ£Ð¹Ð¸":8747,"Ð´ÑĥÐ½Ð´ÑįÐ»Ó£":8748,"Ð´ÑĥÐ½Ð½ÑįÐ¼Ð°":8749,"ĠÐ¼ÐµÑĢÑįÑĤ":8750,"ĠÑĥÐ»ÑĥÐ¼Ð¸":8751,"ĠÐ±Ð¸Ð´ÐµÐ½Ð¾":8752,"ĠÐ±Ð¸Ð´ÐµÐ²ÐºÓ£":8753,"ĠÐ±Ð¸Ð´ÐµÑĩÐ¾":8754,"ĠÐ±Ð¸Ð´ÐµÑĢÓ£":8755,"ĠÐ±Ð¸Ð´ÐµÓĪÐ½Ð¾":8756,"ĠÐ±Ð¸Ð´ÐµÑĢÓ£Ð»":8757,"ĠÐ±Ð¸Ð´ÐµÑĢÓ£Ð²Ñį":8758,"ĠÑĩÐ¸Ð¿":8759,"ĠÑĩÐ¸ÐºÑĤÑĭ":8760,"ĠÑĩÐ¸ÐºÑĤÐ¸Ð»":8761,"ĠÑģÑĤÐ°ÑĢÐµÐ½ÑĮÐºÐ¸Ð¹":8762,"ĠÑįÑĤÐ¾Ð³Ð¾ÑĤÐ¾":8763,"ĠÐ´ÐµÐ²ÑĥÑĪÐºÐ°":8764,"ĠÐ´ÐµÐ²ÑĥÓĪÐºÓ£Ð²ÑĥÐ½":8765,"ĠÐ´ÐµÐ²ÑĥÓĪÐ½ÑįÑĢÑį":8766,"ĠÐ´ÐµÐ²ÑĥÑĪÐµÐº":8767,"ĠÐ´Ð¾Ð±ÑĭÑĩÐ¸":8768,"ĠÐ´Ð¾Ð±ÑĭÐ²Ð°ÐµÐ¼":8769,"ĠÄĵÐºÑĥÐ½Ñį":8770,"ĠÄĵÐºÑĥÐ½Ð¼ÑįÐ»":8771,"Ð½ÑįÐ»ÐºÐ¸":8772,"ÐµÐ³Ð¾ÑĢ":8773,"ÑĮÐµÑĪÑĮ":8774,"ĠÐ¸Ð»Ð¸ÑĤÑĩÐ°Ð½Ð°":8775,"ĠÐµÐ·Ð´Ð¾Ð²Ð¾Ð³Ð¾":8776,"ÑģÐ¿ÐµÐ²Ð°Ñı":8777,"Ð¿ÑįÐºÑĤÑį":8778,"Ð¿ÑįÐºÑĤÑĭÑĢÐ¾":8779,"ĠÐºÐ¾Ð½ÑĩÐ¸Ð»":8780,"ĠÐºÐ¾Ð½ÑĩÐ¸Ð»Ð¸":8781,"ĠÐºÐ¾Ð½ÑĩÐ¸Ð»Ð¸ÑģÑĮ":8782,"ĠÐºÐ¾Ð½ÑĩÐ¸Ð»Ð°":8783,"ĠÐºÐ¾Ð½ÑĨÐ¾Ð²":8784,"ĠÐºÐ¾Ð½ÑģÑĤÐ°Ð½":8785,"ĠÐ´ÑıÐ²Ð¸Ð»":8786,"ĠÐ´ÑıÐ²Ð²ÑįÑĢ":8787,"ĠÐ´ÑıÐ²Ð´ÑĥÐ»Ð°":8788,"ĠÐ´ÑıÐ²Ð´Ó¯ÑĤÑĭÐ½":8789,"ĠÐ¼Ð°ÑĤÑĮÑĤÐ¾":8790,"ĠÑĩÑĥÐ¼ÑĤÐ¾":8791,"ĠhÐ¸ÑĤÑį":8792,"ĠhÐ¸ÓĪÐ½ÐµÐ½":8793,"ÑģÑĤÑĢÐ¾Ð³Ð¸":8794,"ĠÐ±Ð°ÐºÐ°Ð¼Ð¸":8795,"ĠÐ±Ð°ÐºÐ°ÑģÑı":8796,"ĠÐ±Ð°ÐºÐ°Ð´ÑıÐ¼":8797,"ĠÐ±Ð°ÐºÐ°Ð´ÑıÑĢÐ°":8798,"ĠÐ´ÑįÐ³Ð¸Ð²Ñĥ":8799,"ĠÐ´ÑįÐ³Ð¸Ð¿ÐºÓ£":8800,"Ð´ÑĳÓĪÐ¾":8801,"ÐºÑģÑįÐ²ÑįÐ½":8802,"ĠÐ¿ÑĥÑĢÐ°":8803,"ĠÐ¿ÑĥÑĤÐ¸Ð½":8804,"ĠÐ¿ÑĥÑģÑĤÑĮ":8805,"ĠÐ¿ÑĥÑģÑĤÑĭ":8806,"ĠÐ¿ÑĥÑģÐºÐ°Ð¹":8807,"ĠÐ¿ÑĥÑĢÑĤÐ°":8808,"ÑĢÐ¾ÑģÐ»Ð¸":8809,"ĠÐ½Ð¸Ð¼Ò£Ð°":8810,"ĠÐ½Ð¸Ð¼ÓĪÑįÑĤ":8811,"ĠÐ´ÑĥÐ¼Ð°Ð»":8812,"ĠÑİÐ³Ð°":8813,"ĠÑİÐ»Ð´Ð¾":8814,"ĠÑİÐ´ÐµÐ½Ð¾":8815,"ĠÑİÑĢÐ¸Ð´Ð°":8816,"Ð³Ð°Ð»Ð±Ð°":8817,"ĠÐ±Ó¯Ð´ÐµÐ¼":8818,"ĠÐ±Ð¾Ð»ÐµÐ»Ð°":8819,"ĠÐ½ÑıÐ½Ñį":8820,"ĠÐ½ÑıÐ¼Ð¸":8821,"ĠÐ±Ð¸Ð´ÐµÑĢÑįÐºÐ¸Ð½":8822,"ĠÐ´ÐµÐ²Ð´Ð¾":8823,"ĠÐ´ÐµÐ²Ð´ÐµÑĢÑį":8824,"ĠÐ´ÐµÐ²Ð´ÐµÐ²ÐºÓ£Ð»":8825,"ĠÐ»Ð¾Ð´ÐºÐ°":8826,"ĠÐ´ÐµÑĤÐ¸ÑĤÐ¾":8827,"ĠÐ¾ÑħÐ¾ÑĤÐ¸ÑĤÑĩÐ°":8828,"ĠÐ¾ÑħÐ¾ÑĤÐ¸ÑĤÑģÑı":8829,"Ð°Ð¼Ó£Ð½Ð´Ó¯":8830,"Ð°Ð¼Ó£Ð½Ð°Ð½":8831,"Ð°Ð¼Ó£Ð½Ð¼Ó£":8832,"Ð¼Ð½Ð¸Ð»Ð°":8833,"Ð¼Ð½Ð¸hÑįÐ»":8834,"Ð¿ÑĢÐ¾ÑĥÑĩÐ¸Ð»ÑģÑı":8835,"ĠÐ¸Ð»Ð´Ð°Ð½":8836,"ĠÐ°Ð´Ð¸Ð»Ð¸ÑģÐ¸Ð²ÐºÓ£":8837,"ĠÐ°Ð´Ð¸Ð»Ð¸ÑĤÑĤÐ°":8838,"ĠÐ°Ð´Ð¸Ð»Ð¸Ð»Ð°Ð²ÑįÑĢ":8839,"ĠÐ°Ð¼Ð¸Ð½ÑĥÐ½":8840,"ĠÐ°Ð¼Ð¸Ð½ÑĤÑĭÐ½":8841,"ĠÐ°Ð¼Ð¸Ð½Ð½ÑĥÐ½":8842,"ĠÐ°Ð¼Ð¸Ð½Ð¼ÑĥÐ½":8843,"ĠÐ·Ð¸Ð¼Ð°":8844,"ĠÐ·Ð¸Ð¼Ð¾Ð²Ð°ÑĤÑĮ":8845,"ĠÑĤÑĥÐ³Ð´Ð¾":8846,"ĠhÑĥÐ²ÑĥÐ»Ð²Ð¾Ð½":8847,"ĠÑģÐ°Ð¼Ð¾Ð»ÐµÑĤÑĭ":8848,"ĠÑģÐ°Ð¼ÑĭÐ¼Ð¸":8849,"ĠÑģÐ¾Ð±Ð¸ÑĢÐ°Ð»":8850,"ĠÑģÐ¾Ð±Ð¸ÑĢÐ°Ð»Ð¸ÑģÑĮ":8851,"ĠÑģÐ¾Ð±Ð¸ÑĢÐ°ÑİÑģÑĮ":8852,"ĠÐ¶Ð¸Ð²ÑĥÑīÐ¸Ðµ":8853,"ĠÑĦÑģÑĳ":8854,"ĠÑĦÑĢÐ¾Ð½":8855,"ĠÑĦÐµÑĢÐ¼Ðµ":8856,"ĠÑĦÐ°Ð¼Ð¸Ð»Ð¸":8857,"ĠÑĦÐµÑĢÐ¼Ð°Ð´Ó¯":8858,"ÑįÐ´Ó¯Ð´Ð°":8859,"Ð²ÑĢÑįÐ½Ð´Ð°":8860,"ĠÑĥÑĩÐ°ÐºÐ¸":8861,"ĠÑĥÑĩÐ°Ð³Ð°":8862,"ĠÐ³ÑĢÐ¸Ð³Ð¾ÑĢ":8863,"ĠÐ³ÑĢÐ¸Ð³Ð¾ÑĢÐ¸Ð¹":8864,"ĠÐ½Ð°ÑĩÐ°Ð²":8865,"ĠÐ½Ð°ÑĩÐ°Ð»Ð¾":8866,"ÑīÐ°Ð¼":8867,"ÑīÐ°Ð´ÐºÑĥ":8868,"ĠÑĪÐ°ÑĤÑĥÐ½":8869,"ÐµÐ·Ð¶Ð°ÑĤÑĮ":8870,"ĠÑģÑĤÐ¾ÑĢÐ¾Ð½Ð¾Ð¹":8871,"ĠÐ²ÐµÑĢÑĤÐ¾Ð»ÐµÑĤÐ¾Ð¼":8872,"ĠÑĳÐºÑį":8873,"ĠÑĳÐºÑįÐ»":8874,"ĠÑĳÐ¿Ñĥ":8875,"ĠÑĳÐ½Ð¼Ð°":8876,"ÑįÐ¼ÑįÑĢÑįÐ½":8877,"ÑįÐ¼ÑįÑĢÑįÐ´Ñį":8878,"ÑįÐ¼ÑįÐ²ÑĢÑįÐ½Ð´Ð°":8879,"Ð¼Ó¯ÑĢÑį":8880,"Ð¼Ó¯Ð´Ó¯":8881,"Ð¼Ó¯Ð»Ó£":8882,"Ð¼Ó¯Ð´ÑıÐ¿ÐºÓ£Ð»":8883,"Ð¼ÑįÐ»Ð´Ñĥ":8884,"ĠÑģÑĥÐ¼ÐºÐ°":8885,"ĠÑģÑĥÐ¼ÐºÐ¸":8886,"ĠÐ½ÑįÐºÑĥÑĢÐ²Ð¸":8887,"Ð¿ÐµÑĢÐµÑģÑĤÐ°Ð»Ð°":8888,"Ð¿ÐµÑĢÐµÐ²Ð¾Ð´":8889,"Ð¿ÐµÑĢÐµÑģÑĤÐ°Ð½ÑĮ":8890,"ĠÑĥÐ²Ð¸Ð´Ð°Ð»Ð°":8891,"Ð½Ð¸Ð¼ÐºÐ°":8892,"Ð½ÑİÐºÐ°":8893,"ÑģÐ¿Ð¾ÑĢ":8894,"ÑĩÐºÐ°Ð´Ó¯":8895,"ÑĩÑįÐ»Ð´ÐµÐ¼":8896,"ÑĩÑįÐ»Ð´ÑįÐ½":8897,"ÑĩÑįÐ»Ð»ÑįÐ²":8898,"ĠÑģÐºÐ¾ÑĢÐµÐ¹":8899,"ĠÑģÐµÐ¼ÑĮÐµ":8900,"ĠÑģÐµÐ¼Ð½Ð°Ð´ÑĨÐ°":8901,"ĠÑįÐ½Ó£Ð½ÑįÐ½":8902,"ĠÑįÐ½Ó£Ð½Ð´Ó¯":8903,"ĠÑįÐ½Ó£Ò£ÑįhÑį":8904,"ĠÐ¸Ð»Ð°Ð»Ð´Ð°":8905,"ĠÐ¸ÑĢÐ³Ð¸ÑģÐ¾":8906,"ĠÐ¸ÑĢÐ³Ð¸ÑģÑįÐ»":8907,"ĠÐ¸ÑĢÐ³Ð¸ÑĩÓ£Ð»":8908,"ĠÑĥÐ±Ð¸Ð²Ð°ÑĤÑĮ":8909,"ĠÑĥÐ±Ð¸Ð²Ð°ÑİÑĤ":8910,"Ò£Ð½ÑįÑĢÑį":8911,"ĠÐ¸Ð½Ð´ÐµÑģÐ°":8912,"ĠÐ¸Ð½Ð´ÐµÑģÐ¾":8913,"ĠÐ¸Ð½Ð´ÐµÓĪÐºÓ£Ð²ÑĥÐ½":8914,"ĠÐ¸Ð½Ð´ÐµÐºÑįÐ»Ð´Ñĥ":8915,"ĠÑĢÐ¾ÑģÐ¾Ð¼Ð°ÑħÐµ":8916,"ĠÐ½ÑĥÐ»Ð³Ó£ÑĩÐ¾":8917,"ĠÐ½ÑĥÐ»Ð³Ó£ÐºÑĤÑį":8918,"ĠÐ½ÑĥÐ»Ð³Ó£ÑģÑĩÑįÐ²ÑĥÐ½":8919,"ÑģÐ¾Ð»Ð½ÑĨÐµ":8920,"Ð³Ó¯Ð´Ó¯":8921,"ĠÑģÐ»ÐµÐ´":8922,"ĠÑģÐ»ÐµÐ´Ð°":8923,"ĠÑģÐ»ÐµÐ²Ð°":8924,"ĠÑģÐ»ÐµÐ´Ð¾Ð¼":8925,"ÐºÐ¾ÑĢÐ½Ð¸":8926,"ĠÐ¼Ó¯ÑĤ":8927,"ĠÐ¼Ó¯Ðµ":8928,"ĠÐ¼Ó¯Ð²Ñį":8929,"ÑĢÐ¾Ð²ÑĮ":8930,"ÑĢÐ¾Ð²Ð½Ð°":8931,"ÑĢÐ¾Ð²Ð´ÑĥÐ¶":8932,"ĠÐ½ÐµÐºÑįÐ´Ð¾":8933,"ĠÐ½ÐµÐºÑįÑĢÑįÐ½":8934,"ĠÐ½ÐµÐºÑįÐºÐ¾Ð½ÑįÐ¼":8935,"ĠÐ·Ð°ÐºÐ¾Ð½ÑĩÐ¸Ð²":8936,"ĠÐ±ÑįÐ¹Ñį":8937,"ĠÐ±ÑįÐ¹Ò£Ð¾":8938,"ĠÐ¿Ð¾ÑģÐ¼Ð¾ÑĤÑĢÑİ":8939,"ĠÐ¿Ð¾ÑģÐ¼Ð¾ÑĤÑĢÐ¸ÑĤ":8940,"Ð¸ÑĩÑįÐ½Ð¾":8941,"Ð¸ÑĩÑįÑĤÐ½Ð¾":8942,"Ð»Ð´ÑĭÑĢÑį":8943,"ĠÑįhÓ£ÐºÑįÐºÐ¾":8944,"ÑħÑįÐ³Ð´Ð¸":8945,"Ð´ÑĥÐ»Ó£Ð¸":8946,"ĠÐ¿Ð¾Ð»Ð·Ð°ÑĤÑĮ":8947,"ĠÐ¿Ð¾Ð»Ð·ÐµÑĤ":8948,"ĠÐ¿Ð¾Ð¼Ð¾ÑĩÐ¸Ð»Ð°ÑģÑĮ":8949,"ĠÐ¿Ð¾Ð¼Ð¾Ð³Ð°Ñİ":8950,"ĠÐ¿Ð¾Ð±ÐµÐ¶Ð¸ÑĤ":8951,"ĠÐ¿Ð¾Ð±ÐµÐ³Ð°ÑĤÑĮ":8952,"ĠÑĤÐ¾Ð»ÑīÐ¸Ð½Ð¾Ð¹":8953,"ĠÐ´ÐµÐ´ÑĥÑĪÐºÐ°Ð¼Ð¸":8954,"ÑģÐ¾Ð±Ð°ÐºÑĥ":8955,"ĠÑĥÐ»Ð³ÑĥÑģÑĳ":8956,"ĠÑĥÐ»Ð³ÑĥÑĢÐ²Ð¸":8957,"ĠÑĥÐ»Ð³ÑĥÐºÓ£Ð»Ð²Ñį":8958,"Ð¸Ð·Ð²ÐµÑīÐµÐ½Ð¸Ðµ":8959,"Ð½Ð´Ð¸Ð¸":8960,"Ð½Ð´Ð¸Ð²ÑįÑĢ":8961,"Ð»Ð»ÑįÐ²":8962,"ÐºÑĤÑįÐ»Ð³ÑįÑģÐ¸ÑĢÑį":8963,"Ð²ÑĢÐ°Ð³Ð¸":8964,"ĠÐ½ÑıÐ½ÑĩÐ¸ÑĤÑĮ":8965,"ĠÐ¾Ð·ÐµÑĢÐµ":8966,"ĠÑįÐºÑĥÐ½Ð°":8967,"ĠÐ¸Ð´Ó¯Ð´Ð°":8968,"ĠÐ¸Ð´Ó¯Ð´Ñį":8969,"ĠÐ¸Ð´Ó¯Ð²ÑįÐ»":8970,"ÑĤÑĥÐºÐºÑį":8971,"ĠhÐ°Ð²Ð°Ð»Ð´ÑıÑĢÐ°":8972,"ĠÐ±Ð¾Ð»Ð¾ÑĢÐ¾ÐºÐ¸Ð½":8973,"ĠÑĢÐ¾Ð´Ð¸Ð»Ð¸ÑģÑĮ":8974,"ĠÐ´ÑĢÑĥÐ³Ð¾Ðµ":8975,"Ð½Ð¼ÑĥÑĢÑį":8976,"ÑĢÓ¯ÐºÑį":8977,"ÑĢÓ¯ÑĢÑįÐ½":8978,"ĠÐ´ÑĳÐ½ÑĤÐ°":8979,"ĠÐ´ÑĳÐ½ÑĩÐ°":8980,"ÑħÐ¸Ð½Ð¸":8981,"ÑħÐ¸Ð½Ò£Ó£":8982,"ĠÐ²Ð´ÑĢÑĥÐ³":8983,"ĠÐ¿ÐµÐ´ÑĥÑĩÐ¸Ð»Ð¸":8984,"ĠÐ¿ÐµÑīÐµÑĢÐ°":8985,"ĠÐ¿Ð»Ð¾ÑħÑĥÑİ":8986,"ĠÐ¿Ð»Ð¾ÑīÐ°Ð´ÐºÑĥ":8987,"ĠÐ¸ÑĢÑįÐºÑĤÑį":8988,"ĠÐ¸ÑĢÑįÐºÑģÐµ":8989,"ĠÐ¼ÑįÐ´Ñį":8990,"ĠÑĤÐ°Ð´ÑĥÐ´Ð°":8991,"ĠÑĤÐ°ÑĢÐ¸ÓĪÐ¸Ð½":8992,"ĠÑĤÐ°ÑĢÐ¸ÓĪÐ¸ÑĤÑĭÐ½":8993,"ĠÑĤÐ°ÑĢÐ¸ÓĪÐ¸Ñģ":8994,"ĠÐ½Ð°ÑĩÐ¸Ð½Ð°Ñİ":8995,"ĠÐ½Ð°ÑĩÐ¸Ð½Ð°ÐµÑĤ":8996,"ÐµÑĤÐµÑģÑĮ":8997,"Ð³Ð¸ÑĢÐºÑĥÐ½":8998,"ĠÐ´ÑİÑĢÐ³Ñĥ":8999,"ĠÐ¾ÑĤÑĨÑĥ":9000,"ĠÐ´ÑıÐ²Ð°Ð¼Ð°Ð»ÑĩÐ°":9001,"ĠhÑįÐ²ÑįÐºÓ£Ð´Ó¯":9002,"ĠÐ°ÑıÐ¼Ð°Ð¼Ð°Ð»Ð±Ð°":9003,"ĠÓ¯Ð´Ñı":9004,"ĠÄĵÐ´Ð°":9005,"ĠÅįÑĢÑį":9006,"ĠÅįÐ½Ð¼Ñį":9007,"Ð½ÑĩÐ°ÑĢÐ°Ð½":9008,"ÑįÑĤÐ¸ÑħÑĤÐ¾":9009,"ÑģÐµÐ½Ð¾":9010,"Ð³Ð»Ð°Ð·":9011,"Ð³Ð»Ð°Ð²Ð½Ð¾Ðµ":9012,"ĠÐ±ÐµÐ»ÑĭÐ¹":9013,"ĠÐ±ÐµÐ»ÐºÐ¾Ð²Ð°Ð»Ð¸":9014,"ĠÐ½Ó£Ð´Ð¾":9015,"ĠÑįÐ½Ð¸Ð½ÑĥÐ½":9016,"ĠÑįÐ½Ð¸Ð½Ò£ÑįhÑį":9017,"ĠÑįÐ½Ð¸Ð½Ð¼Ð¾ÑĤÑĭÐ½":9018,"ĠÐ¿Ð»Ð°ÑĩÐ°":9019,"ĠÐ¿Ð»Ð°Ð²Ð°ÐµÑĤ":9020,"ĠÐ¿Ð»Ð°ÐºÐ°Ð»":9021,"ÓĪÐ½Ð°ÑĢÐ°Ð²ÑĥÐ½":9022,"Ð²Ð¾Ð·ÑĮ":9023,"ĠÑĤÑĢÐ¾Ðµ":9024,"ĠÑĤÑĢÐ¾Ð³Ð°Ð»":9025,"ĠÑĤÑĢÐ¾Ð³Ð°ÑĤÑĮ":9026,"ĠhÑĥÑĤÑįÐ»Ð²ÑįÐ½":9027,"ĠhÑĥÑĤÑįÐ»Ð³ÑįÐ»Ð¸":9028,"ĠÐ¼Ð¾Ð¸Ð¼Ð¸":9029,"ĠÐ¾Ð»Ð´Ð¾Ñĳ":9030,"ĠÐ¾Ð»Ð´Ð¾ÐºÐ¾ÑĢÐ²Ñį":9031,"ĠÑįÐ¼ÑįÑĢÑįÑģ":9032,"ĠÑįÐ¼ÑįÑĢÑįÐºÐ¸Ð½":9033,"ĠÐ´ÑĢÑĥÐ³Ð¸Ð¼Ð¸":9034,"ĠÑģÐ¾Ð±Ð°ÐºÐ°Ñħ":9035,"ĠÑģÐ¾Ð±Ð°ÐºÐ°Ð¼Ð¸":9036,"ĠÓĪÐ¸Ð½Ð°ÐºÐ¸ÑĢÐ²Ð°":9037,"hÑĥÑĢÑĥÑĢÑį":9038,"hÑĥÑĢÑĥÑĢÑįÐ½":9039,"hÑĥÑĢÑĥÐ²ÑģÐ¾":9040,"ĠÑĪÐ¸ÑĢÑĥ":9041,"ĠÑĪÐ¸ÑĪÐµÐº":9042,"ÑįÑĤÑįÑĢÑįÐ½":9043,"ÑįÑĤÑįÐºÑįÐ»":9044,"ĠÐ¾Ð´Ð°Ð¼":9045,"ĠÐ²ÐµÑģÐ½Ð°":9046,"ĠÐ°hÐ°Ð»Ð¸Ð½":9047,"ĠÐ°hÐ°ÑĤÐºÐ°":9048,"ĠÐ°hÐ°ÑĤÐºÐ°ÑĢ":9049,"Ð´ÑıÑĢÐ°Ð´Ð°":9050,"Ð´ÑıÑĢÐ°ÐºÐ¸Ð½":9051,"ĠÐ²Ð¾Ð·Ð¸Ð»":9052,"ĠÐºÐ¾Ð»Ð¾ÑĤÑĮ":9053,"ĠÐºÐ¾Ð»Ð¾Ð±Ð¾":9054,"ĠÐºÐ¾Ð»Ð¾ÑĤÐ¸ÑĤÑĮ":9055,"ĠÐ±ÑĥÑĢÑĥÑĢÑį":9056,"ĠÐ±ÑĥÑĢÑĥÑģÐ¾":9057,"ĠÐ±ÑĥÑĢÑĥÑģÑĳ":9058,"ĠÑħÐ¾Ð´Ð¸Ð¼":9059,"ĠÑħÐ¾Ð´Ð¸ÑĪÑĮ":9060,"ĠÐºÑĥÓĪÐ°ÐºÐ°ÑĢÐ½ÑĥÐ½":9061,"ĠÑĤÑįÐ¿ÐºÑįÐ´ÐµÑĢÑįÐ½":9062,"ĠÑĤÑįÐ¿ÐºÑįÐ´ÐµÐ½Ñį":9063,"ĠÑĤÑįÐ¿ÐºÑįÐ¼ÑįÐ»":9064,"ÑģÐ»ÑĭÑĪÑĥ":9065,"ĠÐ¿ÑĢÑıÑĩÐµÑĤ":9066,"ĠÐ¿ÑĢÑıÑĩÑĥÑĤÑģÑı":9067,"ĠÐ¼Ð»Ð°Ð´ÑĪÐµÐ³Ð¾":9068,"ĠÐ½Ð°ÑĪÐ¸Ð¼":9069,"Ð´ÑıÐ²ÐºÓ£Ð²Ð°":9070,"Ð½Ð¸Ð»Ð´ÑĥÐº":9071,"Ð½Ð¸Ð»Ð²Ð¸":9072,"Ð½Ð¸Ð»Ð´Ð°Ð½":9073,"Ò£Ð¾Ñģ":9074,"Ò£Ð¾Ð²Ð¸":9075,"ĠÐ³Ð¾Ð»Ð¾Ð²Ð°":9076,"ĠÐ³Ð¾Ð»Ð¾Ð´Ñĥ":9077,"ĠÐ¼Ð¾Ð»Ð¾ÐºÐ¾":9078,"ĠÐ¼Ð¾Ð»Ð¾ÐºÐ¾Ð¼":9079,"ĠÐ¼Ð¾Ð»Ð¾Ð´Ð°Ñı":9080,"ĠÐ¿ÑĢÐ¸Ð²ÑıÐ·Ð°Ð»Ð¸":9081,"ĠÐ¿ÑĢÐ¸Ð²ÑıÐ·ÑĭÐ²Ð°ÑİÑĤ":9082,"ĠÐ¿ÑĢÐ¸Ð²ÑıÐ·ÑĭÐ²Ð°Ð»":9083,"ĠÑįÐ¼ÑįÐ²ÑĥÐ¼":9084,"ĠÑįÐ¼ÑįÐ²ÑĥÐ²ÐºÓ£Ð»":9085,"ĠÐ´ÑįÐ³Ð¸Ð»Ð²Ñį":9086,"ĠÐ´ÑįÐ³Ð¸Ð»Ð´Ñį":9087,"ĠÐ°Ð½ÓĪÐ°Ð½Ó£Ð²Ñį":9088,"ĠÐ°Ð½ÓĪÐ°Ð½Ó£ÑģÐ¸":9089,"ĠÐ½ÑĥÐ»Ð³Ð¸ÑĢÑį":9090,"ĠÐ½ÑĥÐ»Ð³Ð¸ÑģÑĤÑį":9091,"ĠÐ½ÑĥÐ»Ð³Ð¸ÑģÑĤÑįÐ²":9092,"ĠÐ½ÑĥÐ»Ð³Ð¸ÑģÐ¸ÑĤÑį":9093,"ĠÓĪÐ¸Ð½Ð°ÐºÐ¸Ð½Ð¼Ð°":9094,"ĠÓĪÐ¸Ð½Ð°ÐºÐ¸Ð½Ð¼Ð°ÑĢ":9095,"ĠÐ³ÑįÑĢÐ±Ó£ÑģÐ¸":9096,"Ð´ÑĢÑĥÐ·ÑĮÑı":9097,"ĠÑįÐ½Ó¯":9098,"ĠÑįÐ½ÐºÑį":9099,"ĠÑįÑĢÑĥÑĤ":9100,"ĠÐ²Ð½ÑĥÑĩÐºÐ°":9101,"ĠÐ²Ð½ÑĥÑĤÑĢ":9102,"ĠÐ²Ð¾Ð»Ðº":9103,"ĠÐ¿ÐµÐ½ÑģÐ¸Ñı":9104,"ĠÐºÑĢÐµÐ¿ÐºÐ¾":9105,"ĠÐºÑĢÐµÐ¿ÐºÐ¸":9106,"ĠÐºÑĢÐµÑģÑĤÐ¸Ð»":9107,"ĠÐºÑĢÐµÐ¿ÐºÐ¸Ðµ":9108,"ĠÐºÑĢÐµÐ¿ÐºÐ°Ñı":9109,"ĠÑĥÑĩÐ¸ÑĤÐµÐ»":9110,"ĠÑĥÑĩÐ¸ÑĤÑĤÐµÓĪÐ½ÑįÑĢÑįÐ²ÑĥÐ½":9111,"ĠÐ±Ð¸hÐ¸Ð²ÑĥÐ½":9112,"Ð½Ð¸ÐºÐ°ÐºÐ¾Ð¹":9113,"ÐºÑĥÑĤÑģÐºÐ°Ð¹":9114,"ĠÐ´ÑİÐºÑĩÐ°Ð²Ð°":9115,"Ð±ÑįÐ¹ÑįÐ»":9116,"ĠÐ³ÑĥÐ»ÑįÐ»Ð´ÑĥÐº":9117,"ĠÑĢÐ°ÑģÑģÐºÐ°Ð¶ÑĥÑĤÐ¾":9118,"ÑįÐ²Ð°Ð´Ð°":9119,"ÑĤÐ°ÑĢÐ¸Ð³Ð¸ÑĤ":9120,"ÑĤÐ°ÑĢÐ¸Ò£Ð¸":9121,"ĠÑģÐµÐ´Ð»Ð°":9122,"ĠÐ¿Ð°Ð»ÐºÐ¾Ð¹":9123,"ĠÐ¿Ð°Ð»ÐµÑĨ":9124,"ĠÑĥÐ¹ÑĩÐ¾":9125,"ĠÑĥÐ¹Ð´ÑįÐ½":9126,"ĠÐ½Ð°ÑĢÐ¾ÑĩÐ½Ð¾":9127,"ĠÐ½Ð°ÑĢÐ¾Ð´ÑĥÑĤÐ¾":9128,"ĠÑĤÑĢÐ¸Ð´ÑĨÐ°":9129,"ĠÑĤÑĢÐ¸Ð´ÑĨÐ°ÑĤÐ¾Ð³Ð¾":9130,"ĠÑĤÄģÐ´ÑĥÐº":9131,"Ð¿Ð¾ÑĩÐµÐ¼ÑĥÑĤÐ¾":9132,"ĠÐ³Ð¾ÑĤÐ¾Ð²Ð¸Ð»Ð¸":9133,"ĠÐ³Ð¾ÑĤÐ¾Ð²Ð¸ÑĤÑĮ":9134,"ĠÐ´ÐµÐ¿Ð´ÐµÐ²ÐºÓ£Ð»":9135,"ĠÐ´ÐµÐ¿Ð´Åį":9136,"ĠÐ´ÑİÐ³Ð°Ð½Ó£Ð²Ð°":9137,"ĠÐ´ÑİÐ³Ð°Ð½Ó£Ð²Ñį":9138,"ĠÐ³ÑĥÐ½Ð¸Ð²ÐºÓ£":9139,"ĠÐ³ÑĥÐ½Ð¸ÓĪÐºÓ£ÑĤÑĭÐ½":9140,"ĠÐ³ÑĥÐ½Ð¸Ð¿ÐºÓ£Ð»":9141,"ĠÐ³ÑĥÐ½Ð¸Ð¿ÐºÓ£":9142,"ĠhÑįÑĢÑįÐºÑįÐ»":9143,"ĠÐ°Ð¼Ð°ÑģÐºÓ£Ð¹Ð¸":9144,"ĠÒ»Ð°Ò£ÐºÑįÐ»":9145,"ĠÐ²Ð¾Ð¹Ð½Ð°ÓĪÑįhÓ£":9146,"ĠÐ²Ð¾Ð¹Ð½Ð°Ò£ÑįÑħÓ£":9147,"ĠÑĨÐµÐ½":9148,"ĠÑĨÐµÑĢ":9149,"ĠÑĨÐ²ÐµÑĤ":9150,"ĠÑĨÐµÐ»ÑĥÑİÑĤÑģÑı":9151,"ÑĤÑĢÑıÑĤ":9152,"ÑĤÑĢÐµÐ½Ð¸Ð½Ð´Ó¯":9153,"ÑģÐ¼Ð¾Ð»Ð¾Ð¹":9154,"ÑģÐ¼Ð¾ÑĤÑĢÐ¸ÑĤ":9155,"ĠÐ¾ÑĳÐºÓ£":9156,"ĠÐ¾ÑĳÐ´Ó¯Ð½":9157,"ĠÐ¾ÑĳÐ³Ð¸ÑĢ":9158,"ĠÐ¾ÑĳÐ½Ð¼Ð¾":9159,"ĠÐ¾ÑĳÐ»Ð³Ð¾":9160,"Ð´ÐµÑĢÓ£Ð»":9161,"Ð´ÐµÑĢÓ£Ð²Ñį":9162,"ÑĪÐºÑĥÑĢÑĭ":9163,"ÑĢÐ°ÑģÑģÐºÐ°":9164,"ÑĢÐ°Ð±Ð¾ÑĤÐ°Ð»":9165,"ÑĢÐ°Ð±Ð¾ÑĤÐ°Ñı":9166,"ÑĢÐ°Ð±Ð¾ÑĤÐ°ÑĤÑĮ":9167,"ÐºÐ¾Ð»Ð¾ÑĤÑĥ":9168,"ĠÐ¸Ð³ÑĢÐ°ÑİÑĤ":9169,"ĠÑĥÐ´ÑıÐ»Ð²Ð°ÑĤÑĭÐ½":9170,"ĠÐ³ÑĥÑĢÑĥÑģ":9171,"ĠÐ³ÑĥÑĢÑĥÑģÑĤÓ¯":9172,"ĠÐ¿Ð¾Ð»Ð¾Ð³":9173,"ĠÐ¿Ð¾Ð»Ð¾ÑģÐ°":9174,"ĠÐ¿Ð¾Ð»Ð¾Ð¶Ð¸ÑĤ":9175,"ĠÐ¿Ð¾Ð»Ð¾Ð¼Ð°ÑİÑĤ":9176,"ĠÐ¿Ð¾Ð»Ð¾Ð²Ð¸Ð½Ñĥ":9177,"ĠÑģÑĤÐ°ÑĢÐ¸ÐºÑĥ":9178,"ĠÑģÑĤÐ°ÑĢÐ¸ÐºÐ¸Ð²":9179,"ĠÑģÑĤÐ°ÑĢÐ¸ÐºÐ°Ð¼Ð¸":9180,"ĠÑģÐ°Ð¼Ð°ÑĤÐ¾":9181,"ĠÐ¾ÑĤÐ¿ÑĥÑģÑĤÐ¸Ð»":9182,"ĠÐ´ÑıÐ½ÑĤÐ°ÐºÓ£Ð»":9183,"ĠÑħÐ°Ð²Ð°Ð»Ð¸Ð»Ð¸Ð¼":9184,"ĠÑħÐ°Ð²Ð°Ð»Ð¸Ð»Ð´Ð°Ð½":9185,"ĠÑħÐ°Ð²Ð°Ð»Ð¸Ò£ÐºÓ£ÑĤÐ¸Ð½":9186,"ĠÐºÐ¾Ð¼Ð¾ÐµÐ¼Ð¸ÐºÐ°":9187,"ĠÑĤÑįÐ³ÑįÑĤÑĩÑįÐ¼":9188,"ĠÑĤÑįÐ³ÑįÑĤÑĩÑįÑĢÑįÐ½":9189,"ĠÑĤÑįÐ³ÑįÑĤÑĩÑįÐ²ÐºÓ£Ð»":9190,"ĠÐ²ÐµÑĢÑĤÐ¾Ð»ÐµÑĤÐµ":9191,"ĠÑĤÐ¾Ð»Ð³Ð¾ÐºÐ¸Ð½":9192,"ĠÑĤÐ¾Ð»Ð³Ð¾ÐºÐ¸Ð»":9193,"Ò£Ð¸Ð½Ð°ÐºÐ¸Ð½Ð¼ÑįÑĢ":9194,"ĠÐ±ÐµÐ´Ð½ÑĭÐµ":9195,"ĠÐ±ÐµÐ´Ð½ÐµÐ½ÑĮ":9196,"ĠÐ±ÐµÐ´Ð½ÑıÐ¶ÐºÐ°":9197,"ĠÑģÐ²Ð°ÑĢÐ¸ÑĤ":9198,"ĠÑģÐ¾Ð»Ó£Ð³Ð¸ÑĤ":9199,"ĠÐ¾Ð´ÐµÐ¶Ð´Ñĭ":9200,"ĠÐ¾Ð´ÐµÑĤÐ°Ñı":9201,"Ð¿ÐºÐ°Ð½Ð¼Ñį":9202,"Ð±Ð»Ð¸ÐºÐ°Ð½":9203,"ĠÑįÐ²Ó£Ð²ÑĥÑĢÑį":9204,"ĠÑįÐºÑģÐ¿ÐµÐ´Ð¸ÑĨÐ¸ÑıÐ»":9205,"ĠÐ´ÐµÑĢÐ¶Ð°Ð»":9206,"ĠÐ´ÐµÑĢÐ¶Ð°ÑĤÑĮ":9207,"ĠÐ´ÐµÑĢÐ¶Ð¸ÑģÑĮ":9208,"ĠÑĤÐ°ÑģÐºÐ°ÑĤÑĮ":9209,"ĠÐºÑĢÐ¸ÑĩÐ°":9210,"ĠÐºÐ¾Ð»ÐµÐ½Ð¸":9211,"ĠÐ¿Ð¾Ð¿Ð°Ð»Ð¸":9212,"ĠÐ¿Ð¾Ð¿Ð°Ð»Ð¾":9213,"ĠÐ¿Ð¾Ð¿Ð°Ð´ÐµÑĤ":9214,"Ð´Ð¾Ð¹Ð´Ñı":9215,"ĠÑĪÐ°Ð¼Ð°Ð½Ð°":9216,"ĠÑĪÐ°Ð¼Ð°Ð½Ð¾Ð²":9217,"ĠÑĪÐ°Ð¼Ð°ÑĪÐ¸Ð»":9218,"ĠÑĪÐ°Ð¼Ð°Ð½Ð¸ÑĤÐºÐ°":9219,"ĠÐ±Ð¾Ð³Ð°ÑĤÑĭ":9220,"ĠÐ±Ð¾Ð³Ð°ÑĤÑĭÐµ":9221,"ÐºÑĤÑįÐ´ÐµÑĩÐ°":9222,"ÐºÑĤÑįÐ´ÐµÑģÐ¾":9223,"ĠÐ¿Ð°ÑĢÐºÑĥ":9224,"ĠÐ¿Ð°ÑģÑĤÑĥÑħÐ¸":9225,"ĠÐ¿Ð°ÑģÑĤÑĥÑĪÐ¸Ð»Ð¸":9226,"ĠÑħÐ°Ð²Ð°Ð»ÑĩÐ°Ð²":9227,"ĠÑģÐ¿ÐµÑĪÐ¸ÑĤÑĮ":9228,"ĠÐ½ÑĥÒ£Ð°Ð½Ð½ÑĥÐ½":9229,"ĠÐ½ÑĥÒ£Ð°Ð½Ð´Ó¯Ð½":9230,"ĠÐ½ÑĥÒ£Ð°Ð½Ð´ÑĥÐºÐ¸Ð½":9231,"hÑįÐ»ÑįÐ»":9232,"Ð°Ð¼Ð¸Ð¼":9233,"ÑĤÄģÐ´Ó¯":9234,"ÑįÐ½Ó£Ð½Ð¼Ð¸":9235,"ÑįÐ½Ó£Ò£ÑįhÑį":9236,"ÑĢÐ¼Ð°Ð»Ð°":9237,"ĠÐ±ÑĢÐ¸Ð³Ð°Ð´Ð¸ÑĢÑĭ":9238,"ĠÐ±ÑĢÐ¸Ð³Ð°Ð´Ð¸ÑĢÐ¸Ð»":9239,"ĠÐ²ÑĢÐ°ÑĩÐ¾Ð¼":9240,"ÐºÐ°Ð½ÑįÐ¼Ð¸Ð»":9241,"ÑĢÐ°ÑĪÐµÐ½Ð½ÑĭÐ¹":9242,"Ð·Ð¸Ð¼Ñĥ":9243,"Ð·Ð¸Ð¼Ð¾Ð¹":9244,"Ð·Ð¸Ð´ÐµÐ½ÑĤ":9245,"ĠÑĤÑĢÐµÑħ":9246,"ĠÑĩÐµÑĢÑĤÐµÐ¹":9247,"ĠÐ¶ÐµÐ»ÑĩÑĮ":9248,"ĠÑģÑĤÐ°Ð´Ð¾Ð´Ñĥ":9249,"ĠÑģÐ°Ð¼Ð¸Ñħ":9250,"ĠhÐ°Ð²Ð°Ð»Ð¸Ð»Ð´Ð°Ð½":9251,"ĠÐºÑĥÐ´Ð°ÑĤÐ¾":9252,"ĠÐ³Ð¸ÑĢÐºÑĥÐ´ÑıÑĩÐ°":9253,"ĠÐ³Ð¸ÑĢÐºÑĥÐ´ÑıÐ²ÐºÓ£Ð»":9254,"ĠÐ³Ð¸ÑĢÐºÑĥÐ´ÑıÑĢÓ£Ð»":9255,"ĠÒ»ÑĥÐºÑĤÑĭ":9256,"ĠÒ»ÑĥÑİÐºÑĥ":9257,"ĠÒ»ÑĥÐµÑĤÑĩÅįÐ²ÑĥÐ½":9258,"ĠÑĪÐºÐ¾Ð»Ð°Ð²Ð°":9259,"Ð°Ð¼Ð¸Ð½ÑĤÑĭÐ½":9260,"Ð¾Ð´Ð½Ñĥ":9261,"Ð´ÑĥÐ½Ð´ÑįÐ´Ó¯":9262,"ĠÐ±ÑįÐ»ÑįÐ³Ð¾":9263,"ĠÐ±ÑįÐ»ÑįÐ´ÑıÐ¼":9264,"ĠÑģÑĭÐ½":9265,"ĠÑģÑĭÑĤÑĭÐµ":9266,"ĠÑģÑĭÐ½Ð¾Ð²Ðµ":9267,"ĠÑģÐ½ÐµÐ³Ñĥ":9268,"Ð¿ÑĢÐ°ÑģÐºÐ¾Ð²ÑĮÑı":9269,"ĠÐ´ÐµÐ»Ñį":9270,"ĠÐ²ÑĤÐ¾ÑĢÐ¾Ð³Ð¾":9271,"ĠÐ²Ð½Ð¸Ð·Ñĥ":9272,"ĠÐ¸ÑģÑįÐ²":9273,"ĠÐ¸ÑģÑįÐ²ÐºÓ£":9274,"ĠÐ¼Ð¸ÑĢÑį":9275,"ĠÐ¼Ð¸Ð¼Ð¾":9276,"ĠÐ°Ð¼ÑĥÐ´Ð¸Ð»":9277,"ĠÐ¿Ð¾ÐµÐ´Ñĥ":9278,"ĠÐ¿Ð¾ÐµÐ´ÐµÑĪÑĮ":9279,"ĠÑĤÐµÐ¼Ð½ÐµÑĤÑĮ":9280,"Ð¿Ð¾ÐºÐ°Ð¶Ð¸":9281,"ĠÐ»ÐµÐ½Ð°":9282,"Ð³Ð°Ð½ÑĤÑĭÐ½":9283,"ÑĤÑĥÑĢÑĥhÐ°Ð½":9284,"ÑĤÑĥÐºÑģÐ°Ð¼Ð°":9285,"ĠÐ¾Ð»Ð»Ð¾Ð»":9286,"ĠÐ¾Ð»Ð»Ð¾Ð¼Ð¾":9287,"ĠÑģÐ¾Ð±ÑĢÐ°Ð»ÑģÑı":9288,"ĠÑģÐ¾Ð±ÑĢÐ°Ð½Ð¸Ðµ":9289,"ÓĪÑįÐ½ÑįÐ´ÐµÐ½Ñį":9290,"ÓĪÑįÐ½ÑįÐ´ÐµÑģÐ¾":9291,"ĠÐ¾ÑħÐ¾ÑĤÑıÑĤÑģÑı":9292,"ĠÐ²ÐµÑīÐ¸ÑĩÐºÐ¸":9293,"Ð´Ð¾Ð»Ð³Ð¾Ð²Ð°ÑĤÐ¾":9294,"ĠÑĤÑĥÐ½ÓĪÐ°Ð´ÑıÑĢ":9295,"Ð»Ð´Ó£ÑĢÑį":9296,"Ð»Ð´Ó£ÑĢÑįÐ²":9297,"ÑģÐ»ÐµÐ´Ð¾Ð²":9298,"ĠÐ¾Ð³Ð½ÐµÐ¼":9299,"ĠÑįÐ´Ð¸Ðº":9300,"ĠÑįÐ´Ð¸ÐºÐ°":9301,"ĠÑįÐ´Ð¸ÓĪÐ¾":9302,"ĠÑįÐ´Ð¸ÓĪÐ¾Ð»":9303,"ĠÐ´ÑĥÐ½Ð½Ñį":9304,"ĠÐ´ÑĥÐ½Ð´ÑįÐ»":9305,"ĠÐ´ÑĥÐ½Ð´ÑįÐ»Ð¾":9306,"ĠÐ´ÑĥÐ½Ð´ÑįÐ»Ó£":9307,"ĠÐ´ÑĢÐ¾Ð²Ð°Ñħ":9308,"ÐºÐ¾ÑĤÐ¾ÑĢÑĭÐ¹":9309,"ĠÐ¸Ð»Ð°Ð½Ð¼Ð°Ð½":9310,"ĠÐ°Ð¼ÑĤÑĭ":9311,"ĠÐ°Ð¼ÐºÐ¸Ð½":9312,"ĠÐ°ÑħÐ°ÑĤÐºÐ°Ð½":9313,"ĠÐ°ÑħÐ°ÐºÑĤÐ°Ð»Ð¸":9314,"ĠÑĥÐ±ÑĮÐµÐ¼":9315,"ĠÐ¿Ð¾ÑıÑģ":9316,"ĠÐ¿Ð¾Ð´Ð¾ÑĪÐ»Ð¸":9317,"Ð³Ð¸Ð´Ð°ÑĤÐºÓ£":9318,"ĠÑĤÑĥÑĢÐ¿Ð°":9319,"ĠÐºÐ¾Ð¼Ð¼Ðµ":9320,"ĠÐºÐ¾Ð¼ÐµÐ½Ð´Ð°Ð½":9321,"ĠhÑĥÑĤÑįÐ¸":9322,"ĠhÑĥÑĤÑįÐ½":9323,"ĠhÑĥÑĤÑįÑĤÑĭÐ½":9324,"ĠhÑĥÑĤÑįÑģÐ¸":9325,"ĠÐ¿ÑĢÐ¸Ð´ÐµÑĤÑĤÐ¾":9326,"ĠÐ³ÑĥÐ½Ð¸Ð¼ÑĤÑį":9327,"ĠÐ´ÑıÐ²ÑĥÑģÐ°Ð´ÑıÑģÐ°":9328,"ĠhÐ°Ð²Ð°Ð»Ð´Ð°":9329,"ĠhÐ°Ð²Ð°Ð»ÑĩÐ°":9330,"ĠhÐ°Ð²Ð°Ð»ÑĩÐ°Ð²":9331,"ĠhÐ°Ð²Ð°Ð»Ð´ÑįÑģÐ°":9332,"ĠhÑįhÑįÐ½ÑĩÐ°":9333,"ĠhÑįhÑįÐ½Ð´ÐµÑĢÓ£Ð²ÑįÑĤÑĭÐ½":9334,"ĠÑĢÐ°Ð·Ð³Ð¾Ð²Ð°ÑĢÐ¸Ð²Ð°Ð»Ð¸":9335,"ĠÑħÐ°Ð²Ð°Ð»Ð´ÑıÑĦÐºÓ£Ð»":9336,"ĠÑħÐ°Ð²Ð°Ð»Ð´ÑıÑĪÑı":9337,"ĠÑĥÐ»Ð´ÑįÐµ":9338,"ĠÐ¾ÑģÑĤÐ°Ð²Ð»ÑıÐ»Ð¸":9339,"ĠÐ¸ÑĩÑįÑĤÑĩÑįÑĢÑįÐ½":9340,"ĠÑģÑĤÑĢÐµÐ»ÑıÐ»Ð°":9341,"ĠÐºÑĥÓĪÐ°ÐºÐ°Ð½Ð¼Ð°":9342,"ĠÐ½ÑıÐ¼Ð°Ð´Ð¸":9343,"ĠÐ½ÑıÐ¼Ð°ÑģÐ°Ð»":9344,"ĠÓ¯ÑĩÐ°ÐºÐ¸Ð»Ð¸Ð½":9345,"ĠÑĥÐ½Ð¸":9346,"ĠÑĥÐ½Ñį":9347,"ĠÑĥÐ½ÑĤÑĭ":9348,"ÑĤÑĤÐµÐ´ÐµÑĢÑį":9349,"Ð½Ð´ÐµÐºÑįÐ»":9350,"ÑįÑĩÑįÐ²":9351,"ÑģÑĩÐ°Ð½":9352,"ÑĤÐ°Ð¹Ð¼ÐµÐ½ÑĮ":9353,"ĠÑģÐ´Ð°Ð²Ð°Ð»":9354,"ĠÑģÐ´Ð°Ð²Ð°Ð»Ð¸":9355,"ĠÑģÐ»ÑĭÑĪÐ°Ð»":9356,"ĠÑģÐ»ÑĭÑĪÐ°Ð»Ð°":9357,"ĠÑįÐ¼Ð¾Ð½Ñį":9358,"ĠÑįÐ¼Ð¾Ð½Ð¼ÑįÐ¼":9359,"ĠÑįÐºÑĥÑĢÐ²ÑįÐ»":9360,"ĠÐ²ÑģÑıÐºÐ¾":9361,"ĠÐ²ÑģÑıÐºÐ¸Ð¹":9362,"ĠÑĥÑĤÐ¾ÐºÐ¾":9363,"ĠÑĥÐ»Ð¾ÐºÐ¸ÑĤÑĤÑį":9364,"ĠÑĥÑģÑĤÐ°ÑĤÑĭÐ½":9365,"ĠÑĥÑģÑĤÐ°Ð²Ð°ÑĤÑĭÐ½":9366,"ĠÑĥÐ¼Ð¸ÑĢÐ°ÐµÐ¼":9367,"ĠÐ½Ð°Ð¹Ð´Ñĥ":9368,"ĠÐ½Ð°Ð¹ÑĤÐ¸":9369,"ĠÐ½Ð°Ð¹Ð´ÐµÑĤ":9370,"ĠÐ½Ð°ÐºÐ°Ð½Ð½Ð¾Ð´Ó¯":9371,"ĠÑĤÑıÐ¶ÐµÐ»Ñĭ":9372,"ÑĢÑĥÐ¶ÑĮÑı":9373,"ĠÐºÐ°Ð¿ÐºÐ°ÑĢÑį":9374,"ĠÐºÐ°Ð¿ÐºÐ°Ð½Ð°":9375,"ĠÐ½Ð¸ÐºÐ¾Ð»Ð°ÐµÐ²Ð¸":9376,"ĠÑįÐ¼ÑįÐ½Ð¼ÑĥÑĢÑįÐ½":9377,"ĠÐ¾ÑĤÐºÑĢÑĭÐ²Ð°ÑĤÑĮ":9378,"ĠÐ²ÑĭÑĢÐ°ÑīÐ¸":9379,"ĠÐ²ÑĭÑĢÐ°ÑģÑĤÐ¸Ð»Ð¸":9380,"ĠÐ²ÑĭÑĢÐ°ÑģÑĤÐ°ÑİÑĤ":9381,"ĠÐ¼Ð°ÑĢÑĤÐ°":9382,"ĠÐ¼Ð°ÑĢÑĪ":9383,"ĠÐ¼Ð°ÑĢÑĮÑı":9384,"ĠÐ¼Ð°ÑĢÑĮÐ¸Ð½Ñĭ":9385,"ĠÐ±Ð¾ÑıÑģÑĮ":9386,"ĠÐ±Ð¾ÑıÐ»ÑģÑı":9387,"ĠÐ¸Ð½Ð´Ð¸ÑĩÅįÐ½":9388,"ĠÑħÑĥÑĤÑįÐºÐ¾":9389,"ĠÑħÑĥÑĤÑįÑģÐ¸Ð»":9390,"ĠÐºÐ¸ÑģÐ»Ð¾ÐºÐ°Ð½Ðµ":9391,"ĠÑģÑĤÑĢÐ°ÑĪÐ½Ð¾Ð³Ð¾":9392,"ĠÐ½Ð°ÑĩÐ°Ð»Ð¸ÑĤÐ¾":9393,"ĠÒ£ÑįÐ½ÑįÐ´ÐµÑĢÑį":9394,"ĠÐ·Ð°ÐºÑĢÐ¸ÑĩÐ°Ð»Ð¸":9395,"ĠÐºÐ¾Ð»ÑħÐ¾Ð·Ð½ÑĥÑİ":9396,"ĠÑģÐ¿ÑĢÐ°ÑĪÐ¸Ð²Ð°Ð»Ð°":9397,"ÑģÑĤÐ²ÐµÐ½Ð½Ð¸ÐºÐ¸":9398,"ĠÑĢÐµÐ½Ð°":9399,"ĠÑĢÐµÐ½ÑĤÐ³":9400,"ÑĤÓ£Ð¼Ó£Ð´Ð¸ÑĩÐ¾":9401,"ÐºÑĢÐ°ÑģÐ¸Ð²Ð°Ñı":9402,"ÑģÐ¸Ð½ÑįÐ¼":9403,"ÑĤÐ°ÑīÑĥ":9404,"ĠÑģÑĬÐµÑģÑĤÑĮ":9405,"ĠÑģÑĬÐµÐ»Ð°":9406,"ĠÑģÑĬÐµÐ´ÑıÑĤ":9407,"Ð¿Ð»ÑĭÐ²Ð¸":9408,"Ð¿Ð»ÑĭÐ²ÑĥÑĤ":9409,"ĠÐ¿ÑĢÐµÐ¶":9410,"ĠÐ¿ÑĢÐµÐ·Ð¸Ð´ÐµÐ½ÑĤ":9411,"Ð´ÐµÐ¿ÑĤÐ°":9412,"Ð´ÐµÐ¿ÑĤÐ¸Ð»":9413,"Ð´Ð°Ð»Ð²ÑįÑĢ":9414,"ÑĤÑĭÐ³ÑįÐºÐ¾":9415,"ĠÐ¸ÑĢÐ³Ó£Ð´ÐµÑĢÑį":9416,"ĠÑĥÑĤÐºÑĥ":9417,"ĠÑĥÑĤÑįÐ»Ñį":9418,"ĠÑĥÑĤÑĥÐ½Ð¸Ð»Ð¸":9419,"ĠÑĥÑĢÓ£hÐ¸ÑģÑı":9420,"ĠÑĥÑĢÓ£Ð´ÑıÐ½ÑįÐ»":9421,"ĠhÐ¸Ð½Ð´Ó¯":9422,"ĠhÐ¸Ð½Ð´Ð¸":9423,"Ð´ÑıÐ²Ð²Ð°":9424,"Ð´ÑıÐ²Ð´Ó¯Ð²ÑįÑĢ":9425,"ĠÐ½ÐµÐ²ÐµÑģÑĤÐ°":9426,"ĠÐ½ÐµÐ²ÐµÑģÑĤÑĥ":9427,"ĠÐ½ÐµÐ²ÐµÑģÑĤÐ¾Ð¹":9428,"ĠÑĤÑĥÑĤÐ¾Ð½ÑĩÐ°Ð½":9429,"ĠÑĤÑĥÑĤÐ¾Ð½ÑĩÐ°Ð½Ñĭ":9430,"ĠÑĤÑĥÑĤÐ¾Ð½ÑĩÐ°Ð½Ð°Ñħ":9431,"ĠÑĤÐ°ÑĢÐ³Ð°ÑĩÐ¸":9432,"ĠÑĤÐ°ÑĢÐ³Ð°ÑģÐ¸ÑĢ":9433,"ĠÐ·Ð°Ð¿Ð¸Ñħ":9434,"ĠÐ·Ð°Ð¿Ð¸ÑģÐ°Ð»Ð¸":9435,"ĠÐ·Ð°Ð¿Ð¸ÑģÑĭÐ²Ð°Ð»Ð¸":9436,"ĠÐ·Ð°Ð¿Ð¸ÑģÐ°Ð½Ð¾":9437,"ĠÐ·Ð°Ð¿Ð¸ÑģÑĭÐ²Ð°ÐµÑĤ":9438,"ĠÑıÐºÑĥÑĤÑģÐºÐ°Ð´Ó¯":9439,"ĠÐ´ÑİÐ²ÑĥÐ¿ÐºÓ£Ð»":9440,"ĠÐ²ÑĭÐ´ÐµÐ»ÑıÐ»Ð¸":9441,"ĠÐ²ÑĭÐ´ÐµÐ»Ð°Ð½Ð½ÑĭÑħ":9442,"ĠÑĪÑĥÑĢÑĥÐ¼":9443,"ÑįÐ½Ð¸Ð½Ò£ÑįhÑį":9444,"ĠÐ±Ð¾ÑĢÓ£Ð¼Ð°":9445,"ĠÐ±Ð¾ÑĢÓ£Ð²ÐºÐ°":9446,"ĠÑĢÐ¾Ð´Ð½Ñı":9447,"hÑĥÑĤÑįÐ»Ð´Ñį":9448,"hÑĥÑĤÑįÐ»Ð²Ð¸":9449,"hÑĥÑĤÑįÐ»Ð³ÑįÐ»Ó£":9450,"ĠÑĩÐµÐ³Ð¾ÑĤÐ¾":9451,"ĠÑĢÑĭÐ±ÐºÐ¸":9452,"ĠÑĢÑĭÐ±ÐºÑĥ":9453,"ĠÑĢÑĭÐ±ÐºÐ¾Ð¾Ð¿":9454,"ĠÐ¾Ð±Ð¼Ð°Ð½ÑĥÑĤÑĮ":9455,"ĠÓĪÑįÐ»Ð¸ÑĦÑģÐ¸":9456,"ĠÐ´ÑĭÐ¼Ð¾ÐºÑĥÑĢ":9457,"ĠÐ´ÑĭÐ¼Ð¾ÐºÑĥÑĢÐ°":9458,"ĠÐ¿ÑĤÐ¸ÑĨÐ°Ð¼":9459,"ĠÐ³ÑĢÑĥÐ·Ð¾":9460,"ĠÐ³ÑĢÑĥÐ·Ð¾Ð¼":9461,"ĠÐ¸ÑĢÑįÐºÑģÑįÐ´ÑĥÐº":9462,"ĠÑģÐ¾Ð²ÑħÐ¾Ð·ÑĤÓ¯":9463,"hÓ¯ÑģÐºÓ£":9464,"Ð°ÑıÐ¼Ð°Ð¼Ð°ÑĤ":9465,"ÑįÐºÑĥÐ½Ð´Ð°":9466,"ÑĥÑĤÑĢÐ¾Ð¼":9467,"ÑĩÐµÑĢÑĤ":9468,"ĠÑģÐµÑĢÐµÐ´Ð¸Ð½Ð°":9469,"ĠÐ¾ÑģÑĤÑĢÐ¾Ð³Ð¸":9470,"ĠÐ²ÑģÐ¿Ð¾Ð¼Ð½Ð¸Ð»":9471,"ĠÐ²ÑģÐ¿Ð¾Ð¼Ð¾Ð³Ð°":9472,"ĠÐ²ÑģÑĤÑĢÐµÑĤÐ¸Ð»":9473,"ĠÐ¿ÐµÑģÐ½Ð¸":9474,"ĠÐ¿ÐµÑģÑĨÐ°":9475,"ĠÐ¿ÐµÑģÐºÐ¾Ð¼":9476,"ĠÐ¿ÐµÑģÑĨÐ¾Ð²":9477,"ĠÐ¿Ð»ÑĭÐ»Ð¸":9478,"ĠÐ¿Ð»ÑĭÐ²Ð¸":9479,"ÑĪÐºÐ¾Ð»Ð°Ð´Ó¯":9480,"Ð´Ð°Ð»ÐµÐºÐ°":9481,"ĠÑĤÐ°ÑĤÐ¸ÑĢÐ°":9482,"ĠÐºÑĢÐ°ÑģÐ½Ð°Ñı":9483,"ĠÐ°ÐºÐºÑįÐ»":9484,"ĠÐ°Ð¼Ð¸Ñı":9485,"ĠÐ°Ð»Ð±Ð°ÑģÐ°":9486,"ĠÑĥÑģÐ¸ÑģÐ¸Ð»":9487,"ĠÑĥÓĪÑĤÑĥÐ²ÑĥÐ½Ñį":9488,"ĠÐ¿Ð¾ÑħÐ¾ÑĢÐ¾Ð½ÐºÐ°":9489,"ĠÐ¿Ð¾ÑħÐ¾ÑĢÐ¾Ð½ÐµÐ½":9490,"ĠÐ±Ð¸hÑįÐ¼":9491,"ĠÐ½Ð°ÑĥÑĩÐ¸Ð»Ð¸ÑģÑĮ":9492,"ĠÑĤÐ²Ð¾ÐµÐ¹":9493,"ĠÐµÑħÐ°ÑĤÑĮ":9494,"Ð½ÑĥÒ£Ð°Ð½":9495,"Ð½ÑĥÒ£Ð°ÑĢÑĤÑĭÐ½":9496,"ĠÑĩÐµÐ¼ÑĤÐ¾":9497,"ÐºÑįÑĤÑįÐºÐ¾":9498,"ĠÐ³Ð¾Ð½ÑıÐ»":9499,"ĠÑĤÑĥÐºÐºÐ¾":9500,"ĠÑĢÐ°Ð±Ð¾ÑĤÑĥ":9501,"Ð²ÑĥÐ½Ð°ÑĤÑĭÐ½":9502,"ĠÐ´ÐµÐ´ÑĥÑĪÐºÐ¸":9503,"ĠÐ¼Ð¾Ð³Ð»Ð¸":9504,"ĠÐºÐ°Ð¿ÐºÐ°Ð½Ð´Ó¯":9505,"Ð²ÐµÑģÐ½Ð¾Ñİ":9506,"ĠÑģÐ¾ÑģÐµÐ´Ð¸":9507,"ĠÐ´ÑİÐºÑĤÑįÐ¼Ñį":9508,"ĠÑįÐ¼ÑįÐ¿ÑĩÐ¾":9509,"ĠÑįÐ¼ÑįÐ¿Ð´ÐµÑĢÑį":9510,"ĠÑįÐ¼ÑįÐ¿Ð´ÐµÐ¼":9511,"ĠÑħÑĢÐ¸ÑģÑĤÐ¾ÑĦÐ¾ÑĢ":9512,"ĠÐ¼Ð°Ð³Ð°Ð·Ð¸Ð½Ðµ":9513,"ĠÐ¼Ð°Ð³Ð°Ð·Ð¸Ð½Ð´Ó¯":9514,"ĠÑĢÐµÐºÐ°Ð¼":9515,"hÑĥÑĤÑįÐ»Ð¸Ð½Ð´Ð°":9516,"ĠÐ»Ð¾ÑģÐµÐ½ÐºÐ¾Ð¼":9517,"ĠÑģÐ¸Ð´ÑıÑīÐµÐ³Ð¾":9518,"ĠÑģÐµÐ²ÐµÑĢÐ½Ð°Ñı":9519,"ĠÑģÐµÐ²ÐµÑĢÐ½ÑĥÑİ":9520,"hÑįÐ³Ð´ÑĭÐºÐ¾":9521,"ĠÓĪÑįÐ½ÑįÐ´ÐµÓĪÐ½ÑįÐ²":9522,"ĠÑįÐ²ÑįÐ½ÐºÐ¸Ð»":9523,"ĠÑįÐ²ÑįÐ½ÐºÓ£Ð´Ó¯":9524,"ĠÑĥÐ»ÑĥÐ¼Ó£Ð´ÐµÑĢÑį":9525,"ĠÐ³ÑĢÐ¸Ð±ÐºÐ¾Ð²ÑĭÐµ":9526,"ĠÐ¿Ð¾Ð¿Ð»ÑĭÐ»Ð°":9527,"ĠÐ¿Ð¾Ð¿Ð»ÑĭÐ²ÐµÐ¼":9528,"ĠÐ¿Ð°Ð»Ð°ÑĤÐºÐ°Ñħ":9529,"ĠÑģÐ¾Ð»Ð´Ð°ÑĤÐ°Ñħ":9530,"Ð¸ÑĢÑįÐºÑģÑį":9531,"Ð¸ÑĢÑįÐºÑģÐµ":9532,"ÑįÐºÑģÐ¿ÐµÐ´Ð¸ÑĨÐ¸Ð¸":9533,"ÑįÐºÑģÐ¿ÐµÐ´Ð¸ÑĨÐ¸Ñı":9534,"ÑįÐºÑģÐ¿ÐµÐ´Ð¸ÑĨÐ¸ÑıÐ»":9535,"ÑįÐºÑģÐ¿ÐµÐ´Ð¸ÑĨÐ¸ÑıÐ´Ó¯":9536,"ÑģÐ»ÑĥÑĪÐ¸Ð²Ð°ÐµÑĤ":9537,"Ð¼ÐºÐ¸ÑģÐ°":9538,"ĠÑģÐ²ÐµÑĤÐ»ÑĭÐ¹":9539,"ĠÑįÓĪÐ½ÑįÐºÐ¾":9540,"ĠÑįÓĪÐ½ÑįÐ½Ð´Ñį":9541,"ĠÑįÓĪÐ½ÑįÐ½Ð½Ñį":9542,"ĠÑįÐ±ÑįÐºÐ¾Ð½":9543,"ĠÑįhÐ¸ÐºÐ¾":9544,"ĠÑįhÐ¸ÐºÐ¾ÐºÐ¾":9545,"Ð´ÐµÑĩÐ¾Ð²":9546,"ĠÐ¸ÐºÐ¾Ð²ÐºÓ£Ð»":9547,"ĠÐ¸Ð½Ð¸Ð»Ð´Ñį":9548,"ĠÑĤÐ°ÑĢÐ¸Ð»Ð±Ð°":9549,"ĠÑĥÑİÑģÑį":9550,"ĠÑĥÐ¶Ñį":9551,"ĠÑĥÐ³ÑĥÑģÐ°ÐºÐ¸ÑĤ":9552,"ĠÑĥÐ³Ó£Ð³Ð¸ÑĤ":9553,"ĠÑĥÑĢÐºÑįÐ²ÑįÐ½":9554,"ĠÐ³Ð»ÑĥÑħÐ¾Ð¹":9555,"ĠÐ½Ð°ÑģÐ°Ð¶Ð¸Ð²Ð°ÐµÑĤ":9556,"ĠÑĤÓ£Ð½Ð¸ÓĪÐ½ÑįÑĢÑį":9557,"Ð¿Ð¾Ð¹Ð´ÐµÐ¼":9558,"ĠÐ»ÑĮÐ²Ð¾Ð¼":9559,"ÑĤÐ¸ÐºÓ£ÐºÑĥÐ½":9560,"ĠÐºÐ¾ÑĤÐ¾ÑĢÐ¾Ð³Ð¾":9561,"ĠÐºÐ¾ÑĤÐ¾ÑĢÑĥÑİ":9562,"ĠÐ½Ð¸Ð¶Ð½Ð¸Ð¼":9563,"ĠhÐ°Ð³Ð´ÑĭÐ»":9564,"ĠÑĤÑįÐ²Ð»Ó£":9565,"Ð½ÑıÐ¼Ð°Ð´Ð¸":9566,"ĠÑĢÐ¾Ð´Ð¸ÑĤÐµÐ»":9567,"ĠÑĩÑĥÐ»ÑĥÐ³Ð´ÑĭÐ»":9568,"ĠÐ³Ð°Ð½Ð°Ð»ÑĩÐ¸":9569,"ĠÐ»ÐµÐ¶Ð°ÑīÐµÐ³Ð¾":9570,"ĠÐ¶ÐµÐ½Ð¸ÑħÑĥ":9571,"ĠÐ»Ð¸ÑģÑĤÐ²ÐµÐ½Ð½Ð¸ÑĨÐµ":9572,"ĠÐ´ÑĥÐ»Ð¸Ð½Ð´Ó¯Ð½":9573,"ÓĪÐ¸ÑĤÑĭÐ½Ð´Ð°":9574,"ĠÑįÐ²ÑįÐ´ÑĭÐ²Ñį":9575,"ĠÐ¿ÑĢÐ¸Ð½Ð¾ÑģÐ¸Ð»":9576,"ĠÐ¿ÑĢÐ¸Ð½Ð¾ÑģÐ¸Ð»Ð¸":9577,"ĠÐ²ÑĭÑģÑĤÑĢÐµÐ»Ð¸ÑĤÑĮ":9578,"ĠÐ¿Ð°Ð»Ð°ÑĤÐºÑĥ":9579,"Ð³ÑĢÑĥÐ·ÑĩÐ¸ÐºÐ¸":9580,"Ð³ÑĢÑĥÐ·ÑĩÐ¸ÐºÐ¸Ð»":9581,"ĠÐ²Ð¾ÑģÐ¿Ð¸ÑĤÑĭÐ²Ð°Ð»Ð¸":9582,"ĠÐ»ÐµÐ½Ð¸Ð½Ð³ÑĢÐ°Ð´Ðµ":9583,"ĠÐºÐ¸ÑģÐ»Ð¾ÐºÐ°Ð½Ð´Ó¯":9584,"ĠÐºÐ¸ÑģÐ»Ð¾ÐºÐ°Ð½Ð´ÑĥÐ»Ð°":9585,"ĠÑĤÑĭÑĢÐ³Ð°Ð½Ó£Ð²Ð°":9586,"ĠÑĤÑĭÑĢÐ³Ð°Ð½Ó£Ð²Ñį":9587,"ĠÑĤÑĭÑĢÐ³Ð°Ð½Ó£ÑĤÑĭÐºÐ¸Ð½":9588,"ĠhÐ¸ÓĪÐºÑįÑĢÓ£Ð´ÐµÐ²ÐºÓ£":9589,"ĠÐ¿Ð¾ÑĤÐµÑĢÑıÐ»ÑģÑı":9590,"ĠÐ¿Ð¾ÑĤÐµÑĢÑıÑİÑĤÑģÑı":9591,"ĠÐºÐ¸Ð»Ð¾Ð¼ÐµÑĤÑĢÐ°":9592,"ĠÒ£Ð¸Ð½Ð°ÐºÐ¸Ð½Ð¼Ñį":9593,"Ð°ÑĢÐ°Ð¼Ð°":9594,"ÑĤÑĢÐ¾Ðµ":9595,"ÑĤÑĢÐ¾ÐµÐ¼":9596,"Ð»Ð´ÑĥÐ»Ó£ÑĤÑĭÐ½":9597,"ÑįÑıÐºÐ°":9598,"ÑĢÐºÑįÐ»ÑĤÑĭÐ½":9599,"ÐºÑĤÑĥÐ»Ó£":9600,"ÑģÑĥÑĢÑĥÐ²Ð¾":9601,"ÑģÑĥÑĢÑĥÑĩÐ¾":9602,"ÑģÐ´ÐµÐ»Ð°Ð²":9603,"Ð²Ð·ÑıÐ»":9604,"Ð²ÑģÑİÐ´Ñĥ":9605,"Ð¼ÐµÐ´Ð²ÐµÐ´Ñı":9606,"Ð³ÑĢÐµÐµÑĤ":9607,"ĠÐ±ÑĢÐ¾ÑĪÑĥ":9608,"ĠÑģÐ»Ð¾Ð¼Ð°":9609,"ĠÑģÐµÑĢÐ³ÐµÐµÐ²":9610,"ĠÐ¾ÑĤÐ¾ÑĢ":9611,"Ð¿ÑĤÐ¸ÑĨ":9612,"Ð¿ÑĤÐ¸ÑĨÑĭ":9613,"Ð¿ÐµÐ½ÑģÐ¸Ñı":9614,"Ð±ÐµÑĢÐµÑĤ":9615,"ĠÑįÐ»Ð±Ñį":9616,"ĠÐ´ÐµÐ¼Ó¯":9617,"ĠÐ´ÐµÐ¼Ð½Ð¾":9618,"ĠÐ´ÐµÐ¼ÐµÐ½ÑĤÑĮÐµÐ²":9619,"ĠÐ²Ð°Ð»Ñı":9620,"ÑĪÐ¸Ð½Ð¸Ð¼":9621,"Ð·Ð¾ÑĢÐ¸":9622,"Ð·Ð¾Ð¾ÑĤÐµÑħ":9623,"Ð·Ð¾Ð¾Ð²ÐµÑĤ":9624,"ĠÐ¸ÑĳÐ»ÑĤÑĭÐ½":9625,"ĠÐ¸ÑĳÑĤÐ¿Ð¸":9626,"ĠÐ¸ÑģÐºÐ°Ð»Ð¸":9627,"ĠÐ¼Ð¾Ð»ÑĩÐ¸ÑĤ":9628,"ĠÑĤÐ°Ð½ÑĩÑįÐ»Ð´ÐµÐ¼":9629,"ĠÑĥÐ³Ð½Ð°Ð»Ð¸":9630,"ĠÑĥÐ³ÑĢÐ°Ð½Ð´Ð°":9631,"ĠÑĥÑģÐ¸ÑĤÑĤÐ°":9632,"ĠÑĥÑģÐ¸ÑĤÐ½Ð°":9633,"ĠÑĥÑģÐ¸ÑĤÑĤÑı":9634,"ĠÐ³ÐµÐ¾Ð»Ð¾":9635,"ĠhÑĥÐ½Ñį":9636,"ĠhÑĥÐ½Ð¸Ð»":9637,"ĠÐ¿Ð¾Ð²ÐµÑģÐ¸Ð»Ð¸":9638,"ĠÐ¿Ð¾Ð²ÐµÑĢÐ¸Ð»Ð¸":9639,"ĠÐ½Ð°Ð´ÐµÐ²Ð°ÑĤÑĮ":9640,"ĠÐ½Ð°Ð´ÐµÐ²Ð°ÑİÑĤ":9641,"Ð½Ð°ÑĢÐ¾Ð´Ñĥ":9642,"Ð»Ð¾Ð´ÐºÐ°":9643,"Ð¼Ð¾Ð¼Ð¾Ð½Ð´Ð¾":9644,"Ð¿Ð¾Ð»Ð¾Ð²Ð¸Ð½Ð°":9645,"Ð¾Ð»Ð´Ð¾Ð¼Ð¾":9646,"Ð´ÑįÐ³Ð¸Ð»Ð¼Ñį":9647,"ÑģÐ°Ð´Ð¸ÐºÑĤÓ¯":9648,"ÑĤÑĥÐ³Ð¸ÑĤÑĥÐ³Ð¸":9649,"ĠÐ´ÐµÐ»Ð¸Ð»Ð¸":9650,"ĠÐ´ÐµÐ»Ð¸ÑĤÑĮÑģÑı":9651,"ĠÐ´ÐµÐ»Ð¸ÑĤÐµÑģÑĮ":9652,"ĠÐ¿ÑĢÐ¸Ð»Ð¸Ð¿Ð»Ð°":9653,"ĠÐ¾Ð»ÑĢÐ¾Ð¼Ð¸":9654,"Ð±Ð¾ÐºÐºÐ¾Ð½":9655,"ĠÑįÐ¼ÑįÐ²Ð´ÐµÑĢÑįÐ½":9656,"ĠÐ¾ÑĤÐ¿ÑĢÐ°Ð²Ð¸Ð»ÑģÑı":9657,"ĠhÐ°ÓĪÓ¯ÐºÑĤÐ°ÑģÐ°":9658,"ĠhÐ°ÓĪÓ¯ÐºÑĤÐ°Ð»ÑĩÐ°":9659,"ĠhÑįÑĢÐ³Ó¯Ð´ÑĥÐº":9660,"ĠhÑįÑĢÐ³Ó¯Ð»Ð´ÑĥÐ»Ð°":9661,"ĠÑģÐºÐ°Ð·ÐºÑĥ":9662,"ĠÑĢÐ¾Ð¶ÐºÐ¾Ð¼":9663,"ĠÑĢÐ¾Ð¶Ð´ÐµÐ½Ð¸":9664,"ĠÐ»Ð¾Ð³Ó£Ð´ÐµÑĢÑįÐ½":9665,"ĠÐ´ÑĥÐºÑĤÑįÐ²ÑĥÑĢÑį":9666,"ĠÐ´ÑĥÐ´Ð¸Ð½ÐºÐ°Ð´Ó¯":9667,"ĠÐ°Ð¼Ð°ÐºÐ°Ð³Ð¸ÑģÐ¸Ð½":9668,"ĠÐ»ÑİÐ»ÑĮÐºÐ¸":9669,"ĠÐ»ÑİÐ»ÑĮÐºÑĥ":9670,"ĠÐ»ÑİÐ»ÑĮÐºÐµ":9671,"ĠÑĥÐ»Ð´Ó£ÐºÑįÐ»":9672,"ĠÐ±ÐµÐ³Ð°ÑİÑĤ":9673,"ĠÐ¼Ð°Ð»ÑĮÑĩÐ¸":9674,"ĠÒ»ÑĥÑĢÑĥÑĢÑį":9675,"ĠÒ»ÑĥÑĢÑĥÑĢÑįÐ²ÑĥÐ½":9676,"ĠÑįÐ¿ÑĤÑĭhÐ¸Ð½ÑįÐ½":9677,"ĠÑįÐ¿ÑĤÑĭÐ»ÑįÐ»Ð²Ñį":9678,"ĠÑħÑĥÑİÐºÑĥÐºÐ¾":9679,"Ð´ÑİÐºÑĤÑįÐ´Ó¯ÑĤÑĭÐ½":9680,"ĠÑĢÑĭÐ±Ð°ÑĩÐ¸ÑĤÑĮÑĤÐ¾":9681,"Ð¾ÑĢÐ¾ÑĢÐ´Ð¸ÐºÓ¯Ð½":9682,"ĠÐ´ÐµÐ²ÑĩÐ¾Ð½ÐºÐ°":9683,"ĠÐ´ÐµÐ²ÑĩÐ¾Ð½Ð¾ÑĩÐºÐ°":9684,"ĠÐ´ÐµÐ²ÑĩÐ¾Ð½ÐºÐ¾Ð¹":9685,"ĠÐ°Ð´Ð¸Ð»Ð¸ÑĤÑĩÐ°Ò£ÐºÓ£Ð²ÑĥÐ½":9686,"Ð¸ÑĩÑįÑĤÑĩÑįÐ»Ð¸Ð¼":9687,"ĠÐ±ÐµÑĢÐ»Ð¾Ð³ÐµÑĤÐ¾":9688,"ĠÐºÐ¾Ð»Ð¾ÐºÐ¾Ð»ÑĮÑĩÐ¸ÐºÐ¸":9689,"ĠÑĥÑĩÐ¸ÑĤÐµÐ»ÑĮÐ½Ð¸ÑĨÐµ":9690,"ĠÐ°Ð¼ÑĥÑĤÐ²Ð°":9691,"ĠÐ°Ð¼ÑĥÑĤÑĤÑĥÐ»Ð°":9692,"ĠÑģÐµÑĢÐµÐ´Ð¸Ð½Ðµ":9693,"ĠÑģÐµÑĢÐµÐ´Ð¸Ð½ÐºÐ°":9694,"ĠÐ·Ð°Ð»ÐµÐ·Ð»Ð¸":9695,"ĠÑĥÐ¼Ó¯Ð½ÑĥÐ¿ÐºÑįÐ½ÑįÐ¼":9696,"ĠÓĻÐ¼ÓĻ":9697,"Ð°ÓĪÐ¸Ð»Ð²Ð°Ð½":9698,"ÑįhÐ¸ÐºÐ¾":9699,"ÑĢÐ³Ð¸Ð»Ð²Ð°":9700,"ÑĥÐ´ÑıÐ»ÑĤÑĭÐ½":9701,"Ð¼Ð»Ð°Ð´ÑĪÐ¸Ðµ":9702,"ÑĤÐ°ÑĢÐ¸Ð»Ð±Ð°":9703,"ĠÐ¾Ð¿ÑĭÑĤÐ¸Ñģ":9704,"ĠÑįÐ¹Ð´ÑįÑĢÑį":9705,"ĠÑįÄĵÑĢÑį":9706,"ĠÑįÑģÓ£Ð»Ñį":9707,"ĠÐ¿ÑĢÐ°Ð²Ð´Ñĥ":9708,"ÐºÐ°ÑĢÐ°Ð±Ð¸Ð½Ð¼Ñį":9709,"ÐºÐ¾Ð»Ð»ÐµÐ´":9710,"ÑĢÐ¾Ð´Ð¸ÑĤÐµÐ»Ð¸":9711,"ĠÐºÑĢÐ°ÑģÐ¸Ð²Ð°Ñı":9712,"ĠÐºÑĢÐ°ÑģÐ¸Ð²ÑĭÐ¹":9713,"ĠÐ°Ð¸ÑģÐ¸Ð²ÐºÐ°":9714,"ĠÑĥÑĢÑĥÑĩÐ¾":9715,"ĠÑĥÑĢÑĥÐ¿ÑĩÑį":9716,"ĠÑĥÐ»ÑįÐºÐ¾Ð½ÑįÐ¼":9717,"ĠÑĥÑĪÐ¸Ð¿Ð´Ñı":9718,"ĠÐ³ÑĢÑıÐ·ÑĮ":9719,"ĠÐ³ÑĢÑıÐ·Ð½Ð°Ñı":9720,"ĠÐ³ÑĢÑıÐ·ÑĮÑİ":9721,"ĠÐ¿Ð¾Ð½Ð¸Ð¼Ð°Ð»":9722,"ĠÐ±Ð¸Ð´Ð¸ÑĩÑį":9723,"ĠÐ½Ð°Ð·Ð²Ð°Ð½Ð¸ÐµÐ¼":9724,"ĠÐµÐ¼Ð±ÑĥÑĤ":9725,"ĠÐµÐ¼Ð±ÑĥÐ´Ð¾":9726,"ĠÐ½ÐµÐºÐ¾ÑĤÐ¾ÑĢÑĭÐµ":9727,"ĠÐ½ÐµÐºÐ¾ÑĤÐ¾ÑĢÑĭÑħ":9728,"Ð´Ð¾Ð½ÑĩÐ¸Ð½":9729,"Ð´Ð¾ÓĪÐ¾ÑĤÐ¾Ð´Ñĳ":9730,"Ð´Ð¾ÓĪÐ¾ÑĤÐ¾ÑĤÑĩÑįÐ½Ñį":9731,"ĠÐ³Ð¾Ð½ÑıÑĤÑĮ":9732,"ĠÐ³Ð¾Ð½ÑıÑĤ":9733,"ĠÐ´ÐµÐ¿ÑĤÑĭÐ»ÑįÐµ":9734,"ĠÐ±ÑĥÑĢÐ´ÑĥÐºÐ°":9735,"ĠÐ±ÑĥÑĢÐ´ÑĥÐºÐ°Ñı":9736,"ĠÐºÐ°ÑĢÑĤÐ¾ÑĩÐºÐ°":9737,"ĠÐºÐ°ÑĢÐ°ÑĥÐ»Ð¸":9738,"ĠÐ·Ð°ÐºÑĢÑĭÐ»Ð¸":9739,"ĠÐ·Ð°Ð¼ÐµÑĢÐ·":9740,"ĠÐ·Ð°Ð¼ÐµÑĢÐ·Ð°ÑİÑĤ":9741,"ĠÐ·Ð°Ð»Ð°ÑıÐ»Ð°":9742,"ĠÐ¿ÑĢÐ¸Ð±Ð»Ð¸Ð·":9743,"ĠÐ½Ð¸Ð¼Ð¾ÐºÐ¸Ð»ÑĤÑĭÐ½":9744,"ĠÐ¾Ð»ÐµÐ½ÐµÐ²Ð¾Ð´Ñĭ":9745,"ĠÐ¾Ð»ÐµÐ½ÐµÐ²Ð¾Ð´Ð¸Ð»":9746,"ĠÐ´ÑıÑıÑĢÐ°Ð½":9747,"ĠÐ´ÑıÑıÐºÐ°Ð»":9748,"ĠÐ±ÑįÑİÑĢÑį":9749,"ĠÐ´Ð°Ð³Ó£Ð½":9750,"ĠÑĢÐµÐ±ÑıÑĤÐ¸ÑĪÐµÐº":9751,"Ð¸ÑĢÐ³Ð¸ÑĩÐ¸Ð»":9752,"ĠÐ±Ð°Ð»Ð¾Ð²Ð°Ð»Ð¸":9753,"ĠÐ±Ð°Ð³Ð´Ð°Ð¼Ð°":9754,"ĠÐ±Ð°Ð³Ð´Ð°ÐºÑįÐ»Ð²Ñį":9755,"ĠhÐ¾ÑĢÐ¾ÑĪÐ¾":9756,"ĠÐ³ÑĥÐ»ÑĥÐ²ÑĥÐ½Ð´ÑĥÐ»Ð°":9757,"ĠÐ»Ð¾ÐºÐ¾ÑĢÐ¾Ð½":9758,"ÐºÓ¯ÑĢÐ´ÑĥÐº":9759,"ĠÐ»ÑĥÐºÓ£Ð»Ð´Ð¸":9760,"ĠÐ»ÑĥÐºÓ£Ð»Ð²Ð¸":9761,"ĠÑĤÐ°Ð¹Ð³Ð°Ð¼":9762,"ĠÐ´Ð°Ð»Ð³Ð°ÑģÐ¸Ð²ÐºÓ£Ð»":9763,"ĠÑģÑĥÑĢÑĥÐ¿Ð´ÐµÑĤ":9764,"ĠÐ°ÑĢÐºÐ¸ÑĢÐ°Ð½":9765,"ĠÐ±Ð°Ð»Ð´ÑĭÑĩÐ°Ð¼":9766,"ĠÑĩÐ°ÑģÐ¾Ð²Ð½Ð¸":9767,"ĠÑĤÑĥÐ½Ð´ÑĢÑįÐ»Ð¾":9768,"ĠÐ¿ÑĥÑĪÐ½Ð¾Ð³Ð¾":9769,"ĠÐ¿ÑĥÑĪÐ½Ð¾Ð¼Ðµ":9770,"ĠÐ´ÑĥÐ¼Ð°Ð¹ÑĩÐ°":9771,"ĠÐ´ÑĥÐ¼Ð°Ð¹Ð´ÑıÐ½Ð°":9772,"ĠÑģÑĤÄģÐ´Ð¾Ð´Ñĥ":9773,"ĠÐ°Ð´Ð¸Ð»Ð¸ÑģÐ¸ÑĦÐºÓ£":9774,"ĠÐ¿Ð¾ÑģÐ¼Ð¾ÑĤÑĢÐµÐ»":9775,"ĠÐ¿Ð¾ÑģÐ¼Ð¾ÑĤÑĢÐµÐ»Ð¸":9776,"ĠÐ¿Ð¾ÑģÐ¼Ð¾ÑĤÑĢÐµÐ»Ð°":9777,"ĠÐ±ÐµÑĢÐ»Ð¾Ð³Ð¸ÑĤÐ¾":9778,"ĠÐ²Ð¾Ð·Ð²ÑĢÐ°ÑīÐ°ÑĤÑĮÑģÑı":9779,"ĠÐ¿ÑĢÐ¸Ð²ÑıÐ·Ð°Ð½":9780,"ĠÐ´ÐµÐ¿ÑĤÐ¸Ð»ÑįÐ»Ñį":9781,"ĠÐ´ÐµÐ¿ÑĤÐ¸Ð»ÑįÐ»Ð²Ñį":9782,"ĠÐ´ÐµÐ¿ÑĤÐ¸Ð»ÑįÐ»Ð²Ð¾":9783,"ĠÑĤÑıÐ¶ÐµÐ»Ð°Ñı":9784,"ĠÐ²ÑĭÐ´ÐµÐ»ÑĭÐ²Ð°Ð¹":9785,"ĠÐ±Ð¸Ò£ÑįÑħÓ£Ð½":9786,"ĠÐ±Ð¸Ò£ÑįÑħÓ£Ð²":9787,"ĠÐ°Ð»ÐµÐºÑģÐ°Ð½Ð´ÑĢÐ¾Ð²Ð½Ð°":9788,"ĠÑĤÓ¯ÑĢÓ¯Ð»Ð°":9789,"ĠÑĤÓ¯ÑĢÓ¯Ð´Ó¯":9790,"ĠÑĤÓ¯ÑĢÓ¯Ð´ÑĥÐº":9791,"ĠÐ»ÐµÐ½Ð¸Ð½Ð³ÑĢÐ°Ð´ÑĤÓ¯":9792,"ĠÐ»ÐµÐ½Ð¸Ð½Ð³ÑĢÐ°Ð´ÑĤÑĭÐºÐ¸":9793,"hÐ¸Ð½Ð°Ð½":9794,"Ð¾Ð±Ð¾Ð´ÑĢÐ°Ð»Ð¸":9795,"ÑĤÐ²Ð¾Ñı":9796,"ÑĤÐµÐ»ÑĮÐ½Ð¾":9797,"ÑįÑħÐ¸ÐºÐ¾ÐºÐ¾":9798,"ÑĢÐ³Ð°ÑĢÐ°Ð½":9799,"ÑĥÐ²Ð¸Ð´ÐµÐ»":9800,"ÑĥÐ²Ð¸Ð´ÐµÐ»Ð¸":9801,"ÑĥÑĩÐ¸ÑĤÐµÐ»ÑĮ":9802,"ÑĥÓĪÑĤÑĥÐ²ÑĥÐ½Ð¼Ð¸":9803,"ÑģÐµÑĢÐ³ÐµÐµÐ²":9804,"Ð²ÑģÐ¿Ð¾Ð¼Ð½Ð¸Ð»":9805,"Ð²ÑģÐ¿Ð¾Ð¼Ð½Ð¸Ð»Ð°":9806,"Ð¼ÑĤÑĭÐ¼Ð¸Ð»":9807,"ĠÑģÑįÑĢÐ°ÓĪÐ¸Ð»":9808,"ĠÑģÐ²ÑıÐ·Ð°Ð»":9809,"ĠÑģÐ²ÑıÐ·Ð°Ð½Ð½ÑĭÐµ":9810,"ĠÐ¾Ð¼Ð¾ÑĪÑįÐ½":9811,"ĠÐ¾Ð´ÑıÒ£ÐºÓ£Ð½":9812,"ĠÐ¾Ð¿Ð»ÐµÐ²Ð°Ð½":9813,"Ð±Ó¯Ð½Ó£Ð»Ð»Ñį":9814,"ĠÑįÐºÓ£Ð½Ð¸Ð½":9815,"ĠÑįÐ»Ð³ÑįÐ´ÐµÑĢÑįÐ½":9816,"Ó¯ÑĩÐ°ÐºÐºÐ¸":9817,"ĠÐ°ÑĤÐ¸ÑĢÐºÐ°Ð½":9818,"ĠÐ°Ð»ÑĤÐ°ÑĤÑĤÑıÐ½Ð°":9819,"ĠÑĥÓĪÐºÑĥÑĤÑĩÑįÐ½":9820,"ĠÑĥÐºÑĢÐ°Ð»":9821,"ĠÐ¿Ð¾Ð»ÑĥÑĩÐ°Ð»Ð¸":9822,"ĠÐ¿Ð¾Ð¼Ð½Ð¸ÑĤ":9823,"ĠÐ¿Ð¾Ð¼Ð½Ð¸ÑĤÑĮ":9824,"ĠÐ¿Ð¾ÐºÑĢÑĭÑĪÐºÐ¾Ð¹":9825,"ĠÐ½Ð°Ð»ÐµÐ´Ð¸":9826,"ĠÑĤÑĢÐ°Ð²Ñĥ":9827,"ĠÑĤÑĢÐ°Ð²Ð°ÑĤÐ¾":9828,"ÐºÑĥÐ»Ð°ÐºÐ¸Ð»":9829,"ÐºÑĥÐ»Ð°ÑĨÐºÐ¸Ñħ":9830,"Ð´Ð¾ÑĢÐ¾Ð³Ñĥ":9831,"ĠÑĢÐ°ÑĨÐ¸Ð¸":9832,"Ð´ÑĭÐ³Ð¸Ð½Ð´ÑıÐ½":9833,"ĠÐ´ÐµÐ²Ð¾ÑĩÐºÐ°":9834,"ĠhÑĥÐ»ÑĥÐ´Ð°Ð½":9835,"ĠhÑĥÐ»ÑĥÐºÓ¯Ð½":9836,"ĠÐºÐ°ÑİÑĢÐ´Ó¯":9837,"ĠÐºÐ°ÑİÑĢÐ°Ð¼Ð¸":9838,"ĠÐºÐ°Ð¼ÑĥÑģ":9839,"ĠÐ·Ð°Ð²ÑıÐ·":9840,"ĠÑıÐºÐ¾Ð²Ð»ÐµÐ²":9841,"ĠÐ¿ÑĢÐ¸ÐµÑħÐ°Ð²":9842,"ĠÐ¿ÑĢÐ¸Ð»ÐµÑĤÐ°Ð»Ð¸":9843,"ĠÐ¿ÑĢÐ¸Ð»ÐµÑĤÐ°ÐµÑĤ":9844,"ĠÐ½Ð¸ÐºÐ¾ÑĩÐ¾":9845,"ĠÐ½Ð¸ÐºÐ¾Ð¼Ñĥ":9846,"Ð±Ð°Ð³Ð´Ð°ÐºÑįÐ»":9847,"ĠÑħÐ¾Ð³Ð´Ð¾Ò£Ñį":9848,"ĠÑħÐ¾Ð³Ð´Ð¾Ò£Ð¾Ð²Ð¸":9849,"ÑģÑĤÐ²ÑĥÐ¹ÑĤÐµ":9850,"ÑĢÑĭÐ±Ð°ÑĩÐ¸ÑĤÑĮ":9851,"Ð·Ð°Ð±Ð¾Ð»ÐµÐ»Ð°":9852,"ÑĤÐ°ÑĢÐ³Ð°ÑģÐ¸ÑĢ":9853,"ĠÑħÐ²Ð°ÑģÑĤÐ°":9854,"ĠÑĪÑĥÐº":9855,"ĠÑĪÑĥÑģÑĤÑĢÐ°Ñı":9856,"ĠhÑįhÑįÐ½Ð¸":9857,"ĠÑĤÑįÑĤÐ¸Ð²Ð´ÐµÑĦÐºÓ£":9858,"ĠÐ¿ÑĢÐ¾Ð¼ÑħÐ¾Ð·Ðµ":9859,"ĠÐ±Ð¾ÑĢÐ¾ÑĪÐ¸Ð»":9860,"ĠÐ±Ð¾ÑĢÐ¾ÓĪÐºÐ¾Ð½":9861,"ÐºÑĤÑįÐ½ÑįÐ²ÑįÑĤÑĭÐ½":9862,"ĠÐ±Ð°Ð´Ð°ÑĢÐ°Ð´Ð°":9863,"ĠÐ±Ð°Ð±Ð°Ð¹":9864,"ĠÐ±Ð°Ð±Ð°Ð¸Ð»":9865,"ĠÐ²Ð°ÑĢÐ¸Ð»Ð°":9866,"ÑĪÐ°Ð¼Ð°Ð½ÐºÐ°":9867,"ĠhÐ¾ÐºÐ¾ÑĢÐ¸Ð²ÑĢÐ°":9868,"ĠÐºÑĥÑĢÐ¾Ð»ÐµÑģÐ¸Ð¼":9869,"ĠÑĤÑĭÐ³ÑįÐ²ÑįÑĢ":9870,"ĠÑĢÐ°Ð·Ð¶ÐµÐ³":9871,"ĠÐ½Ð¾ÑĢÐ¸Ð»ÑĮÑģÐº":9872,"ĠÑģÐ¸Ð»Ð°Ð¼Ð¸":9873,"ĠÐ¾Ð´Ð½Ð¾Ð½Ð¾Ð³Ð¸Ðµ":9874,"ĠÑģÐ¿ÑĥÑģÑĤÐ¸Ð»ÑģÑı":9875,"ĠÑģÐ¿ÑĥÑģÐºÐ°ÑĤÑĮÑģÑı":9876,"ĠÑĥÐ»ÐµÑĤÐµÐ»Ð°":9877,"ĠÑĥÐ»ÐµÑĤÐµÑĤÑĮ":9878,"ĠÐ²Ð¸Ð´Ð½Ðµ":9879,"ĠÐ·ÐµÐ¼Ð»ÑıÑħ":9880,"ĠÑħÑĥÐ²ÑĥÐ»Ð±ÑįÐ½":9881,"ĠÐ°ÑĢÑĩÐ°ÑĢÑįÐ²ÑĥÐ½":9882,"ĠÓ£Ð´Ó¯Ð²ÑįÐ»":9883,"ĠÑĩÐ°ÓĪÐ¸ÑĤÐ¿Ñį":9884,"ĠÑĩÐ¸ÑģÑĤÐ¾ÑĤÐ°":9885,"ĠÐ²ÐµÑĢÑĤÐ¾Ð»ÐµÑĤÑĭÑĤ":9886,"Ð¼ÑĥÐ¶ÑĩÐ¸Ð½Ñĭ":9887,"ĠÐ°Ò£Ð°Ð½Ó£Ð²Ð°":9888,"ĠÐ³Ð»Ð°Ð²Ð½Ð¾Ð³Ð¾":9889,"ĠÐ¿Ð°ÑĢÐ½Ð¸ÑĪÐºÐ°":9890,"ĠhÐ°Ð²Ð°Ð»Ð¸Ð»ÑĩÐ°Ð»Ð°Ð¸":9891,"ĠÐ´ÑıÐ²ÑĥÑĩÐ°Ð´ÑıÓĪÐºÓ£ÑĤÑĭÐ½":9892,"ĠÑĢÐ°Ð·Ð¾Ð¶Ð³Ñĥ":9893,"ÑĤÐ°Ð¹Ð³Ð°Ð´Ó¯ÐºÓ¯Ð½":9894,"ĠÐ´ÑĭÐ¼Ð¾ÐºÑĥÑĢÐµ":9895,"ĠÐ´ÑĭÐ¼Ð¾ÐºÑĥÑĢÑĭ":9896,"ĠÐºÑĢÐ°ÑģÐ½Ð¾ÑıÑĢÑģÐº":9897,"ĠhÐ°Ð»Ð³Ð°Ð½Ð´Ð¸Ð¸":9898,"Ð²ÐµÑĢÑĤÐ¾Ð»ÐµÑĤÐ¸Ð»":9899,"ĠÑĥÑİÑĩÑįÐ´Ðµ":9900,"ĠÑĥÑİÑĩÑįÐ´ÐµÑĢÑį":9901,"ĠÐ´ÑĳÑĢÐ¾Ð¼Ð¾Ð´ÑĳÑĢÐ¾":9902,"ĠÐºÑįÑĢÐ³ÑįÐ½ÑĤÐ¸Ð½":9903,"ĠÒ£Ð¾Ð»Ñį":9904,"ĠÐ½Ð°Ð¿Ð°ÑĢÐ½Ð¸ÐºÐ¾Ð²":9905,"ĠÐ½ÐµÐ¼Ð½Ð¾Ð¶ÐºÐ¾ÑĤÐ¾":9906,"ĠhÐ¾Ð³Ð¾ÑĢÐºÓ£Ð²Ñį":9907,"Ð°Ð±Ð´ÑĥÐ½":9908,"Ð¾Ð±ÑĢÐ°Ð´Ð¾Ð²Ð°Ð»Ð¸ÑģÑĮ":9909,"ÑĤÑĩÐµÑĦÐºÓ£Ð»":9910,"Ð»Ð»Ð°Ð²ÑĥÐ½":9911,"ÑģÐ½Ð¸Ð¼Ð°ÑĤÑĮ":9912,"ÑģÐ½ÑıÐ»Ð¸ÑģÑĮ":9913,"ÑĩÐµÑģÐºÐ¸Ð¹":9914,"ĠÑģÐ¸Ð½Ð´Ó¯":9915,"ĠÑģÑİÐ»ÑĥÐ³Ð´Ñĭ":9916,"ĠÑģÑĢÐµÐ´":9917,"ĠÑģÑĢÐµÐ·Ð°Ñı":9918,"ĠÑģÑĩÐ¸ÑĤÐ°ÑĤÑĮ":9919,"ĠÑģÑĤÐµÐ¿Ð°Ð½Ð¾Ð²Ð¸Ñĩ":9920,"ĠÑģÑĤÐµÑģÐ½ÑıÐ»Ð¸ÑģÑĮ":9921,"ĠÐ¾Ð¿Ð¾Ð·":9922,"ĠÐ¾ÑģÐ¾Ð±ÐµÐ½Ð½Ð¾":9923,"Ð±ÐµÑĢÐµÑģÑĤÑĭ":9924,"ĠÑįÐ½ÑĥÐ´ÐµÑĢÑį":9925,"ĠÑįÐ½ÑĥÐ´ÑįÑĢÑį":9926,"ĠÑįÑħÐ¸ÐºÐ¾":9927,"ĠÑįÐ²ÐµÐ½ÐºÐ¸Ð¹ÑģÐºÐ¾Ðµ":9928,"ĠÑįÐºÑģÑįÐºÑĤÑį":9929,"ĠÑįÐºÑģÑįÐºÑĤÑįÐ½ÑįÐ²ÑįÑĤÑĭÐ½":9930,"ĠÐ´ÑĢÐ¾Ð³":9931,"ĠÐ´ÑĢÐ¾Ð±Ð¸":9932,"ĠÐ¸Ð½ÐµÐºÑĤÑįÐ»":9933,"ĠÐ¸Ð³ÑĢÑĥÑĪÐºÐ¸":9934,"ĠÐ¸Ð³ÑĢÑĥÑĪÐºÑĥ":9935,"ĠÐ¼Ð¸ÑĢÐ½Ð¾Ð¼":9936,"ĠÐ¼Ð¸ÑĢÐ½ÑĭÐ¹Ð´Ó¯":9937,"ĠÐ°Ð´Ð¸Ð´ÑıÑĢ":9938,"ĠÐ°Ð´ÑĭÐ»":9939,"ĠÐ°ÑĢÐ³Ð¸ÑĪÐ¸Ð»":9940,"ĠÐ°ÑħÐ¸Ð»Ð°":9941,"ĠÐ°Ð±Ð°ÑĩÓ£Ð²Ð°":9942,"ĠÑĥÑģÐ¿ÐµÐ»Ð¸":9943,"ĠÑĥÐ»ÐµÑĤÐ°ÑİÑĤ":9944,"ĠÐ³Ó¯ÑģÑĳÐ»":9945,"Ð´ÑĥÐ¼Ð°Ñİ":9946,"ĠhÓ¯ÑģÐºÓ£":9947,"ĠÐ¿Ð¾ÑĢÐ¾Ñħ":9948,"ĠÐ±Ð¸ÑģÄģÐ½":9949,"ĠÐ±Ð¸ÑĩÅįÐ»":9950,"ĠÐ½Ð°Ð·ÑĭÐ²Ð°Ð»Ð¸ÑģÑĮ":9951,"ĠÐ½Ð°Ð·ÑĭÐ²Ð°Ð»ÑģÑı":9952,"ÑĩÐ°Ð¹Ð½Ð¸ÐºÐ¸":9953,"ĠÐ·Ð¾Ð²ÑĥÑĤ":9954,"ĠÐ·Ð¾Ð¾ÑĤÐµÑħ":9955,"ĠÑĤÐ¾ÑĢÑĩÐ°Ð»Ð¾":9956,"ĠÑĤÐ¾ÑĢÑģÑĥÐºÐ°":9957,"ĠÑĤÐ¾Ð²Ð»Ð¾":9958,"ĠÑĤÐ¾Ð²Ð»Ó£":9959,"ĠÑĤÐ¾Ð¿Ð¸ÑĤÑĮ":9960,"ĠÑĤÐ¾Ð¿ÑĤÑĭÐ³Ð¸Ð½":9961,"ĠÑĤÐ¾Ð¿ÑĤÑĭÐ³Ð¸Ð½Ð°":9962,"ĠÑĤÐ¾Ð·Ð¾Ð²ÐºÐ°":9963,"ĠÑĩÐ¾ÐºÐ½Ð°":9964,"ĠÐºÐ¾ÑĢÐ¾ÑĩÐµ":9965,"ĠÐºÐ¾ÑĢÐ¼Ð¸Ð»Ð¸":9966,"ĠÐºÐ¾ÑĢÐ¼Ð¸ÑĤÑĮ":9967,"ÑħÐ°Ð²Ð°Ð»Ð¸Ð¼":9968,"ĠÐ¼Ð¾Ð½ÓĪÓ£Ð½":9969,"ĠÐºÐ°Ð½Ð¸ÐºÑĥÐ»Ð¸Ð»":9970,"ĠÐ·Ð°Ð»Ð°ÐµÑĤ":9971,"ĠÐ·Ð°Ð»Ð°ÑİÑĤ":9972,"ĠÐ·Ð°Ð¿Ð°Ð´":9973,"ĠÐ·Ð°Ð¼ÐµÐ»Ð¾":9974,"ĠÐ·Ð°Ð¼ÐµÑĩÐ°ÑİÑĤ":9975,"ĠÐ·Ð°Ð¿ÐµÐ²Ð°Ð»":9976,"ĠÐ·Ð°Ð¿ÐµÐ²Ð°Ð»Ð°":9977,"ĠÐ´Ð¾Ð³Ð¾Ð½ÑıÑĤÑĮ":9978,"ĠÐ´Ð¾Ð³Ð¾Ð½ÑıÑĤ":9979,"ĠÑħÐ¾Ð³Ð´ÑĭÓĪÐ¾ÐºÐ¾ÑĢ":9980,"Ð±Ð¾Ð³Ð°ÑĤÑĭÐ¹":9981,"ĠÐ´ÑİÐ³Ó¯Ð´ÐµÑĦÐºÓ£Ð»":9982,"ĠÑįÐ¼ÑįÐ³ÑįÐ½Ð¸Ð½":9983,"Ð·Ð°ÑģÐ½ÑĥÐ»":9984,"Ð·Ð°ÑģÐ½ÑĥÐ»Ð¸":9985,"ĠÐ¾ÑĤÐºÐ°Ð·ÑĭÐ²Ð°ÑİÑĤ":9986,"ĠÐ¾ÑĤÐ²ÐµÐ·Ñĥ":9987,"Ð»ÐµÐ²ÑģÐºÐ¸Ð¹":9988,"ÑĦÐºÐ¾Ð½Ñį":9989,"ĠÐ´ÑıÐ´ÑıÐ½ÑĥÐ½Ð¼Ð¸":9990,"ĠÐ²ÑĭÑĤÐ°ÑīÐ¸Ð»":9991,"ĠÐ²ÑĭÑĤÐ°ÑīÐ¸Ð»Ð¸":9992,"ĠÐ²ÑĭÑĤÐ°ÑģÐºÐ¸Ð²Ð°ÑĤÑĮ":9993,"ĠÑĪÐµÑģÑĤÐ¾Ð¼":9994,"ĠÑĪÐµÑĢÑģÑĤÑĮÑİ":9995,"ĠhÐ°Ð¼Ð½Ó£Ð½Ð´Ó¯":9996,"ĠÐ¿ÑĢÐ¾ÑģÑĤÑĭÐ»":9997,"ĠÐ¿ÑĢÐ¾ÑģÐ½ÑĥÐ»Ð°ÑģÑĮ":9998,"ĠÐ¿ÑĢÐ¾Ð²Ð°Ð»Ð¸Ð»ÑģÑı":9999,"ĠÐ¿ÑĢÐ¾Ð²Ð°Ð»Ð¸Ð²Ð°ÑİÑĤÑģÑı":10000,"ĠÐ¿ÑĢÐ¾Ð¼ÑĭÑģÐ»Ð°":10001,"ĠÐ¿ÑĢÐ¾ÑĦÐµÑģÑģÐ¸Ð¾Ð½Ð°":10002,"ĠÐ¿ÑĢÐ¾ÑĦÐµÑģÑģÐ¾ÑĢ":10003,"Ð¿Ð°ÑģÑĤÑĥÑħ":10004,"ĠÐ±Ð°ÑĢÐ¶Ð¸":10005,"ÑĩÑĥÐ»ÑĥÐºÑĩÑĥÐ»ÑĥÐº":10006,"Ð²ÑĭÑĤÐ°ÑīÐ¸Ð»":10007,"Ð²ÑĭÑĤÐ°ÑīÐ¸Ð»Ð¸":10008,"ĠÐ¼ÑĥÑĩÐ°ÑıÑģÑĮ":10009,"ĠÑģÐ¸ÓĪÐ¸Ð»Ð³ÑįÐ½Ð´Ó¯":10010,"ĠÐ»Ð¸ÑĪÐ½Ð¸Ð¼":10011,"ĠÐ»Ð¸ÑĪÐ½ÐµÐ³Ð¾":10012,"Ò»Ð¸Ð½ÑįÒ£Ð½ÑįÑĢÑįÐ²ÑĥÐ½":10013,"ĠÑĥÐ¼ÐµÑĤÑĮ":10014,"Ð¸Ð¼Ó¯ÐºÑģÑįÐ²Ñį":10015,"ĠÐ¾Ð±ÑĢÑĭÐ·Ð³Ð°Ð»":10016,"hÑįÑĢÑįÐ»Ð³Ñį":10017,"ÄĵÐºÑĥÐ½Ð°Ð²Ð°Ð»":10018,"ĠÑĢÑĥÐ³Ð°ÐµÑĤÑģÑı":10019,"Ð´ÑİÐ³Ð°Ð½Ó£Ð´Ó¯":10020,"ĠÑĢÑĭÐ±Ð°ÑĩÐ¸ÑĤÑĩÑį":10021,"ĠÑĤÑĥÑĢÑĥÑħÐ°Ð½ÑģÐºÐ°":10022,"ĠÑĤÑĥÑĢÑĥÑħÐ°Ð½ÑģÐºÐµ":10023,"ĠÐ¼Ð°Ð½Ð°Ð²ÑĥÐ»Ð»Ñį":10024,"Ð¾Ð¹Ð¾Ð¹Ð¾Ð¹":10025,"ĠÐ¾Ð³Ð¾ÑĢÐ¾Ð´":10026,"ĠÑĤÑĥÐ½Ð³ÑĥÑģÐºÑĥ":10027,"ĠÐ±Ð¾Ð»ÐµÐ·Ð½Ð¸":10028,"ĠÐ±Ð¾Ð»ÐµÐ·Ð½ÑĮ":10029,"ĠÐ³ÑĢÐ¸Ð±Ð¾ÐºÑĬÑı":10030,"ĠÐ½ÑįÐºÓ¯Ð½Ð¸Ð½":10031,"ĠÑĤÑĢÐ¾Ð³Ð°Ð¹":10032,"ĠÐºÑĢÐµÐ¼Ð»Ñı":10033,"ĠÐºÑĢÐµÐ¼Ð»ÐµÐ²ÑģÐºÐ¸Ð¹":10034,"ĠÐ¸Ð½ÑĤÐµÑĢÐ½Ð°ÑĤÑĤÑĥÐ»Ð°":10035,"ĠÐ¾ÑĤÐ¿ÑĥÑģÐºÐ°ÑİÑĤ":10036,"ĠÒ»ÑĥÑĤÑįÐºÑį":10037,"ĠÑĥÐ»Ð´ÑįÓĪÐ¸Ð»Ð²Ð°Ð½":10038,"ĠÑįÐ¼Ð¾Ð½Ð¼ÑĥÑĩÐ¾":10039,"ĠÑĢÐ°ÑģÑģÐ»Ð°Ð±":10040,"ĠÑĢÐ°ÑģÑģÐ»Ð°Ð±Ð¸ÑĤÑĮ":10041,"ĠÑģÐ¿ÑĢÑıÑĤÐ°Ð»Ð°ÑģÑĮ":10042,"ĠÐ½ÑıÓĪÑĤÐ°ÑĤÑĭ":10043,"ĠÐ°Ð±Ð´ÑĥÐ½Ð´ÑĥÐºÐºÐ¸":10044,"ĠÐ¾Ð¼ÓĪÐ¾Ð¼":10045,"ĠÐ³Ð»ÑĥÑħÐ°ÑĢÐ¸":10046,"ĠÐ¼Ð¾Ð»Ð´Ð°hÐ¸Ð½Ð°Ð½":10047,"ĠÐ¾ÑĤÐ¿ÑĢÐ°Ð²Ð¸Ð»Ð¸ÑĤÐ¾":10048,"ĠÐ¿ÑįÐºÑĤÐ¸ÑĢÑĥ":10049,"ĠÑįÑĳÐºÓ£ÐºÐ¾":10050,"ĠÑįÑĳÐºÓ£ÐºÓ¯Ð½":10051,"Ð¿Ð¾ÑģÐ¼Ð¾ÑĤÑĢÐµÐ»":10052,"ĠÑıÐºÑĥÑĤÐ¸Ð¸":10053,"ĠÑıÐºÑĥÑĤÐ¸Ñİ":10054,"ĠÑģÐ¿ÐµÑĨÐ¿ÐµÑĢÐµÑģÐµÐ»ÐµÐ½ÑĨÑĭ":10055,"ĠÑģÐ¿ÐµÑĨÐ¿ÐµÑĢÐµÑģÐµÐ»ÐµÐ½ÑĨÐµÐ²":10056,"ĠÐ³Ð¾ÑĢÐ½Ð¾ÑģÑĤÐ°ÐµÐ²":10057,"ĠÐ´ÐµÐ¶ÑĥÑĢÐ¸Ð´ÐµÐ¿ÐºÓ£Ð»":10058,"ĠÐ´Ð°ÑĢÐ¸Ð¼Ð°Ð´ÑıÐ½Ð°":10059,"ĠÐ´Ð°ÑĢÐ¸Ð¼Ð°ÑģÑĤÐ°Ð½":10060,"ĠÐ´Ð¼Ð¸ÑĤÑĢÐ¸ÐµÐ²Ð½Ð°":10061,"ĠÐ´Ð¼Ð¸ÑĤÑĢÐ¸ÐµÐ²Ð¸Ñĩ":10062,"ĠÐ´Ð²ÐµÐ½Ð°Ð´ÑĨÐ°ÑĤÑĮ":10063,"ĠÐ´Ð²ÐµÐ½Ð°Ð´ÑĨÐ°ÑĤÐ¾Ð³Ð¾":10064,"ĠÑĩÐ°ÑģÑĤÐ¸":10065,"ĠÒ£Ð¸Ð½Ð°ÐºÐ¸ÑĢÐ²ÑĥÐ½":10066,"Ð°ÐºÐºÑįÐ»":10067,"Ð°ÐºÐ¸Ð½Ð¼Ð¸":10068,"Ð°ÑħÐ°Ð»Ð´Ð°":10069,"Ð¾Ð³Ð¾Ð½ÐµÑĢ":10070,"ÑĤÑĩÐ¸Ð»Ð´Ñį":10071,"ÑĥÐºÑģÑįÐ´Ñĭ":10072,"ÑĥÑģÐ¸ÑĤÑĤÐ°":10073,"ÑģÐ¿Ð°ÑģÐ¸Ð±Ð¾":10074,"ÑģÑĬÐµÐ»Ð°":10075,"Ð³Ð»ÑıÐ´ÑĭÐ²Ð°ÐµÑĤ":10076,"ÑĩÄĵÑĢÐºÐ°":10077,"ĠÑģÓ¯Ð»ÑįÐ¼ÑįÑĤÑĭÐ½":10078,"ĠÐ¾ÑĢÑĥÐ¶Ð¸Ðµ":10079,"Ð¿ÑĢÐ¾Ð¼ÑħÐ¾Ð·":10080,"Ð±ÑĢÐµÐ·ÐµÐ½":10081,"ĠÑįÑĩÐ°ÐºÑį":10082,"ĠÑįÑĤÑĭÑĢÐºÐ¾Ð½":10083,"ĠÑįÐ´Ó£Ð³Ð¸ÑĤ":10084,"ĠÑįÐ¼ÑįÐ»Ð»ÑįÐ½":10085,"ĠÐ´ÐµÐ½Ñĥ":10086,"ĠÐ´ÐµÐ½ÐµÐ³":10087,"ĠÐ¿ÑĢÐ°ÑģÐºÐ¾Ð²ÑĮÑı":10088,"ĠÐ¿ÑıÑĤÐµÑĢÑĭÑħ":10089,"ĠÐ¿Ð»ÐµÐ¼ÑıÐ½Ð½Ð¸Ðº":10090,"ÓĪÐºÐ°ÐºÑĤÐ°":10091,"Ð»Ð°hÐ°Ð´Ð°":10092,"Ð¸Ð½Ð¼ÑįÐºÐ¿ÑįÑĤÑĭÐ½":10093,"ÐºÐ¾Ð¼Ð°ÑĢÑĭ":10094,"ÐºÐ¾ÐºÑĥÑĤÑĤÑįÐ½":10095,"ÐºÐ¾Ð»ÑĭÐ±ÐµÐ»ÑĮÐºÐ°":10096,"ÐºÐ¾Ð¿ÑĭÑĤÐ°Ð¼Ð¸":10097,"ĠÐ¸Ð³Ð°ÑĢÑģÐºÐ¾Ðµ":10098,"ĠÐ¸hÑįÐ»Ð´Ó¯":10099,"ĠÐ¸ÑģÑĩÐ°Ð´Ð°":10100,"ĠÐ¼ÐµÑĢÑıÑĤÑĮÑģÑı":10101,"ĠÐºÑĥÐ½ÑĤÐ¾":10102,"ĠÐºÐ°Ð»ÑħÐ¾Ð·Ð½Ð°Ð¹":10103,"ĠÐ°Ð¿ÑĢÐµÐ»Ñı":10104,"ĠÐ°Ð²Ð³ÑĥÑģÑĤÐ°":10105,"ĠÑĥÐºÑĢÐ°ÑĪÐµÐ½Ð½ÑĭÐ¹":10106,"ĠÑĥÐ³Ð¸ÑģÐºÓ£":10107,"ĠÑĥÐºÑĥÐ½Ð¼Ó£ÑĤ":10108,"ĠÑĥÑĩÐµÐ±Ñĥ":10109,"ĠÑĥÐµÐ·Ð¶Ð°ÑİÑĤ":10110,"ĠÐ³Ð¸ÑĢÐ°Ð¼Ð´Ð°":10111,"Ð´ÑĥÐºÑĥÐ´ÑıÐ¼":10112,"ĠÐ¿Ð¾ÑĩÑĤÐ¸":10113,"ĠÐ¿Ð¾Ð¿Ð¾Ð²Ñĭ":10114,"ĠÐ¿Ð¾ÐºÑĥÑģÐ°Ð»Ð¸":10115,"ĠÐ¿Ð¾Ð³Ð¸Ð±":10116,"ĠÐ¿Ð¾ÑģÑĤÐ°Ð²Ð¸Ð»":10117,"ĠÐ¿Ð¾Ð¸Ð³ÑĢÐ°ÑĤÑĮ":10118,"ĠÐ½Ð°ÑħÐ¾Ð´Ð¸Ð»Ð¸ÑģÑĮ":10119,"ĠÐ½Ð°Ð³ÑĢÑĥÐ·Ð¸Ð»Ð¸":10120,"ĠÑĤÐµÑĤÑı":10121,"Ð½Ð¸Ð´ÑĭÐ¼Ð´Ó¯":10122,"ÑħÐ¾ÑĤÐµÐ»Ð°":10123,"Ð¿Ð¾ÐµÐ´ÐµÐ¼":10124,"Ð¿Ð¾ÑģÑĤÐ¾ÑıÐ½Ð½Ð¾":10125,"ÐºÑįÑĢÐ³ÑįhÑįÐ»Ð¸Ð½":10126,"ĠÑĢÐ°Ð¹Ð¾Ð½":10127,"ĠÑĢÐ°Ð´ÑĥÑİÑģÑĮ":10128,"ĠÑĢÐ°ÑģÑĤÐµÑĤ":10129,"ĠÐºÐ¾Ð¼Ð°ÑĢÐ¾Ð²":10130,"Ð´ÑĭÐ»Ð°ÑĩÐ°":10131,"ÐµÐ¼Ð±ÑĥÑĤ":10132,"ĠÐ½ÑĥÐ»ÐµÐ²Ð¾Ð¹":10133,"ÑģÐ¾Ð±Ð¾Ð»ÐµÐ¹":10134,"ĠhÑĥÑĤÐ°ÐºÐ°ÑĩÐ°":10135,"ĠÐ±ÑĥÑĢÐ°Ð½Ðµ":10136,"Ð²ÑĥÑĢÐ±Ð°":10137,"Ð²ÑĥÑĢÐ°Ð¸":10138,"ĠÐ·Ð°ÑıÑĨ":10139,"ĠÐ¿ÑĢÐ¸ÐºÐ¾Ð½ÑĩÐ¸ÑĤÑĮ":10140,"ĠÐ¿ÑĢÐ¸ÐµÐ·Ð¶Ð°ÐµÐ¼":10141,"ĠÐ¿ÑĢÐ¸ÑĩÐ°Ð»Ð¸Ð»Ð°":10142,"ĠÐ½Ð¸ÐºÑįÐ»Ð´ÐµÑĢÑį":10143,"ĠÐ´Ð¾ÑĩÐµÑĢÑıÐ¼":10144,"ÑģÑĤÐ²Ð¸Ðµ":10145,"ĠÐ´ÑİÐ»Ð´ÑįÐµ":10146,"Ð·Ð°ÑģÑĤÐ°Ð²Ð»ÑıÐ»":10147,"Ð±ÑĥÑģÐ»ÑįÐ»":10148,"Ð±ÑĥÐ±ÐµÐ½ÑĤÐ¾":10149,"Ð±ÑĥÑĢÐ´ÑĥÐºÐ°":10150,"ĠÑħÐ°Ð»Ð³Ð°ÑĢ":10151,"ĠÑĪÐ¾Ð±Ð´Ð¾Ð½":10152,"ĠÐ´Ð°ÑĢÑĮÑı":10153,"ĠÑĤÑįÐ»Ð¸Ð½Ð¼ÑįÑĤÑĭÐ½":10154,"ĠÑĤÑįÑĢÐ³ÑįÐºÑģÑįÐ»Ð±ÑįÑĢ":10155,"ĠÐ¿ÑĢÐ¾ÐºÐ»Ñı":10156,"ĠÐ¿ÑĢÐ¾Ð¶Ð¸ÑĤÐ°":10157,"ĠÐ¿ÑĢÐ¾ÑĤÐºÐ½ÑĥÐ»Ð¸":10158,"ÑĤÑĭÑĢÐ³Ð°Ð»Ð´ÑıÑĢÐ°ÐºÐ¸Ð½":10159,"ĠÐµÑģÑģÐµÑı":10160,"ĠhÐ¾ÐºÑĤÐ¾ÑĤÐºÓ£Ð¹Ð¸":10161,"ĠhÐ¾Ð³Ð´Ð¾Ð½Ð´Ð¾":10162,"ĠÑĢÐ°Ð·Ð²ÐµÑĢÐ½ÑĥÐ»":10163,"ĠÑĢÐ°Ð·Ð¼ÐµÑĢÐ¾Ð¼":10164,"hÑĥÐ»Ð°ÐºÓ£Ð»Ð²Ð°":10165,"ĠÐ»Ð¾ÐºÑĥÑģÐ°Ð´ÑıÐ²ÐºÓ£Ð»":10166,"Ð·Ð°Ð»ÐµÐ·Ð»Ð°":10167,"ĠÐ»ÐµÑģÐ¾ÑģÐ¸Ð±Ð¸":10168,"ĠÐ¿Ð°Ð»Ð¾ÑĩÐºÐ¸":10169,"ĠÐ»ÑĥÑĩÐ°Ð´ÑĭÑĤ":10170,"ĠÑħÐ°ÑĢÐ±Ð°Ð»Ð´Ñį":10171,"ĠÑĥÐ¼ÑĢÐµÑĪÑĮ":10172,"hÐ¸Ð½ÓĻÐ²":10173,"ĠÐ¿ÐµÑĢÐµÐ¿ÑĢÐ°Ð²Ð¸Ð»Ð¸ÑģÑĮ":10174,"ĠÐ²ÐµÑĢÑĪÐ¸Ð½Ðµ":10175,"ĠÐ¿Ð¾Ð´Ð²Ð¾Ð´Ð¸ÑĢÑį":10176,"ĠÐ¿Ð¾Ð´ÑĢÐ¾ÑģÑĪÐ¸Ñħ":10177,"ĠÐ¸ÑĩÑįÑĤÑĤÑįÐ²ÑĥÐ½":10178,"ĠÐ°Ð½Ò£Ð°Ð½Ó£":10179,"ĠÑģÐ¼Ð¾ÑĤÑĢÐµÐ»Ð°":10180,"ĠÒ»Ð¸Ð³ÑĢÑįÐ²":10181,"ĠÐ´Ð¸ÐºÐ¾Ð½ÑĩÑįÐ´ÐµÑĢÑį":10182,"ĠÐ³Ð¾ÑĢÐ¾ÑĪÐ¸hÐ°":10183,"ĠÐ½Ð¸ÐºÑįÑģÑįÐ´Ñį":10184,"ĠÑģÑĤÑĢÐµÐ»ÑĮÐ½ÑĥÐ»Ð°":10185,"ĠÐ¼ÑıÐ³ÐºÐ¸Ðµ":10186,"ĠÐ±ÑĥÐ»ÑĤÐ°Ð´Ð¸ÑĦÐºÓ£":10187,"ĠÐ¿ÑįÐºÑĤÑĭÑĢÑĥ":10188,"ĠÑħÑįÑĢÑįÐºÑįÑĤ":10189,"ĠÐ¸ÑģÐµÐ´ÐµÐ¼Ð°":10190,"ĠÑĢÐµÐ±ÐµÐ½Ð¾ÑĩÐºÐ¾Ð¼":10191,"ĠÑĩÐ°ÓĪÐºÑĥÐ»Ð´Ó¯":10192,"hÐ°Ð»Ð³Ð°ÑĢÐ¸Ð½":10193,"ĠÐºÐ¾Ð½ÑĩÐ°ÑĤÑĮÑģÑı":10194,"ĠÐ´ÑıÐ²Ó¯ÑģÐµÐ´ÐµÑĢÑį":10195,"ĠhÐ¸ÑģÐ¸hÐ¸Ð½ÑįÐ½":10196,"ĠhÐ¸ÓĪÐ¸Ð»Ð³ÑįÐ½Ð¼Ñį":10197,"ĠÐ´ÑįÐ³Ð¸Ð»Ð¸Ð¿ÐºÓ£":10198,"Ð½ÑİÓĪÑĥÐ½Ð´ÑıÑĢ":10199,"Ð¸ÑĤÑĤÑıÓĪÐ°":10200,"ĠÐ¿Ð¾Ð¿ÑĢÐ°Ð²Ð¸Ð»Ð¸ÑģÑĮ":10201,"ĠÐ±ÑĥÑģÑģÑįÐ»Ð´ÑįÐ½":10202,"ÑįÑĤÐ¸ÑĢÐºÑįÐ½":10203,"ĠÐ´ÑıÐ¿ÐºÐ°ÑĤÐºÓ£Ð½":10204,"Ð¾ÑħÐ¾ÑĤÐ½Ð¸Ðº":10205,"ĠÐ³ÑįÑĢÐ±Ó£ÑģÓ£Ð´Ó¯":10206,"ĠÐ¿ÐµÐ½ÑģÐ¸Ð¾Ð½ÐµÑĢÐ¾Ð¼":10207,"ĠÑĥÑĩÐ¸ÑĤÑĩÑįÑĩÐ°":10208,"ĠÐ°Ð»ÐµÐºÑģÐµÐ¹":10209,"ĠÐ¾ÑĤÐ¿ÑĥÑģÑĤÐ¸Ð»Ð°":10210,"ĠÑįÐ²Ó£Ð²ÑĥÐ½ÑįÐ²ÑįÑĢ":10211,"ĠÐ´ÐµÑĢÐ¶Ð°ÑĤ":10212,"ĠÑĤÑĢÐµÑĤÑĮÐµÐ¼":10213,"ĠÐ²ÑĤÐ¾ÑĢÐ¸ÑĩÐ½Ð¾":10214,"ĠÐ°ÑĢÐ°ÐºÑĥÐºÐ°Ð½":10215,"ĠÑģÐ¾Ð²hÐ¾Ð·ÑĤÓ¯":10216,"ĠÐ²ÑĭÑĢÐ°ÑģÑĤÑıÑĤ":10217,"ĠÐ²ÑģÐ¿Ð¾Ð¼Ð¸Ð½Ð°Ð»Ð°":10218,"ĠÐ°ÐºÑĩÑĥÐ´ÑıÐ¿ÐºÓ£Ð»":10219,"Ð½ÑıÐ¼Ð°Ð¿ÑĩÑĥÐµ":10220,"ĠÐ¿Ð°Ð»Ð°ÑĤÐºÐ°Ð»Ð´Ð¸":10221,"ĠÐ²Ð°Ð»ÐµÐº":10222,"ĠÐ¿ÑįÐºÑĤÑĭÑĢÓ¯":10223,"ĠÐ¸Ð½Ó£Ð³ÑįÑĢÑįÐ½":10224,"ĠÑĩÐ°ÑģÐ¾Ð²Ð½ÑıÐ³Ð¸ÑĤ":10225,"ĠÑģÑĤÄģÐ´Ð¾Ð»ÄģÑĤÑĭÐ½":10226,"Ð¸ÑģÐ¿ÑĥÐ³Ð°Ð»Ð¸ÑģÑĮ":10227,"ĠÐ´ÑįÑĢÑĥÐ¼ÐºÐ¸ÑĩÑįÐ»Ð»ÑįÐ²":10228,"ĠÐ»Ð°Ð±Ð°Ð·Ð¾Ð¼":10229,"ĠÐºÐ¾Ð¼Ð¼ÐµÑĢÑģÐ°Ð½ÑĤÑĭ":10230,"ĠÐ¾ÑĤÑģÑĥÑĤÑģÑĤÐ²ÑĥÐµÑĤ":10231,"Ð³Ð»ÑĥÑħÐ°ÑĢÐµÐ¹":10232,"ĠÐ¾Ð±Ð¸Ð¶Ð°ÐµÑĪÑĮ":10233,"ĠÐ¸ÑģÐ¿Ð¾Ð»Ð½ÑıÑİÑīÐ¸Ð¼":10234,"ĠÑģÐ¿ÐµÑĨÐ¸Ð°Ð»ÑĮÐ½ÑĭÐµ":10235,"ĠÑĨÐµÐ»Ð¸ÐºÐ¾Ð¼":10236,"Ð°ÑĪÑĥÐ½":10237,"Ð°ÓĪÐ°Ð´ÑıÐºÐ°":10238,"Ð°Ó£Ð²ÑĥÐºÐ¸ÑĢ":10239,"Ð¾ÑĤÐµÐºÐ°ÑĢÑĮ":10240,"Ð¾Ð±ÑĭÐºÐ½Ð¾":10241,"Ð¾ÑģÐ»Ð¾Ð¶Ð½ÐµÐ½Ð¸Ðµ":10242,"ÑĤÑİÑĢÐ¼Ð°Ð»Ð°":10243,"ÑĤÐ¼ÑįÑĢÐ¸ÑĤ":10244,"Ð¸ÑĳÐ»Ð¸Ð½":10245,"Ð½ÐµÐ»ÑĮÐ·Ñı":10246,"Ð½Ò£Ó£Ð´ÑıÑĦÐºÓ£":10247,"Ð»Ð³Ð°Ð»Ð¸Ð½":10248,"ÐµhÑįÐ»Ð°":10249,"ÑįÐ´Ð¸ÓĪÐ¾Ð»":10250,"ÑĥÐ¼ÐµÑĢÐ»Ð°":10251,"Ð´Ð»ÐµÐ¶Ð°ÑīÐµÐµ":10252,"ÐºÐ½ÑįÐ½Ð¸Ð½":10253,"ÑģÐ²ÐµÑĤÐ»Ð¾":10254,"Ð²ÑģÑĤÑĢÐµÑĤÐ¸Ð»Ð¸":10255,"ÑĭÑĤÐ°ÑĤÑĮÑģÑı":10256,"ÑıÐ³Ð¾Ð´Ñĭ":10257,"Ð³Ð½Ð¸Ð»ÑĥÑĪÐºÐ¸":10258,"ÑĩÓ¯ÑģÐºÐ°":10259,"ĠÐ±ÑİÐ»Ð»ÐµÑĤ":10260,"ĠÐ±ÐµÐ»ÑĮÐ´Ñĭ":10261,"ĠÑģÐ»Ð°Ð±Ð¾":10262,"ĠÑģÑĢÑĥÐ±Ð¸Ð»Ð¸":10263,"ĠÑģÐ¶ÐµÐ²Ð°Ð»":10264,"ĠÑģÐ¼ÑĥÑĤÐ½Ð¾":10265,"ĠÑģÐºÐ¾Ð½ÑĩÐ°ÐµÑĤÑģÑı":10266,"ĠÑģÐ²Ð°ÑĢÑīÐ¸":10267,"ĠÑģÐ¸ÑĢÐ¸Ð½Ð´Ð°Ð»Ð°":10268,"ĠÑģÐºÐ»Ð°Ð´ÑĭÐ²Ð°Ñİ":10269,"ĠÐ¾Ð¹Ð¸ÑĤÑĭÐ½":10270,"ĠÐ¾ÑĩÐºÐ°Ñħ":10271,"ĠÐ¾ÑĢÐ»Ð¾Ð²Ð¾":10272,"ĠÑįÐ´ÐµÐ»Ð¸Ð½":10273,"ĠÑįÐ´ÑıÐ¼Ð¼Ð°Ð»":10274,"ĠÑįÑĤÐ½Ð¾Ð³ÑĢÐ°ÑĦÐ¸":10275,"ĠÑįÐºÐ¾Ð»Ð¾Ð³Ð¸":10276,"ĠÐ´ÑĢÐ°Ð»Ð¸ÑģÑĮ":10277,"ĠÐ´ÑįÐ»ÐºÑį":10278,"ĠÐ´Ð¸Ð»Ð´Ð°Ð½":10279,"ĠÐ²Ð»Ð°ÑģÑĤÑĮ":10280,"ĠÐ²ÑĢÑįÐ¼Ñı":10281,"ĠÐ²ÐµÑĢÐµÐ²":10282,"ĠÐ²Ð±Ð»Ð¸Ð·Ð¸":10283,"ĠÐ²Ð´Ð°Ð»ÐµÐºÐµ":10284,"ĠÐ²Ð¿ÑĢÐµÐ´ÑĮ":10285,"ĠÐ²Ð¸Ð»ÑĮÐ½Ð¸Ñģ":10286,"ĠÐ¿ÑĢÐ¸Ð½Ð°Ð´Ð»ÐµÐ¶Ð°ÑīÐµÐµ":10287,"ÓĪÐ³Ð¸Ð»Ð¾":10288,"Ð¹Ð»Ð¾Ð²":10289,"ÐºÐ°Ð¼ÑĭÑģÑĭ":10290,"ÐºÐ°Ð¿ÐºÐ°Ð½Ð´ÑĥÐºÐ¿Ð¸":10291,"Ð¸Ð½ÑģÑĤÐ¸ÑĤÑĥ":10292,"ÑĤÑĭÐ¼Ð°ÑĤÐ½Ñį":10293,"ÐºÐ¾Ð²Ð¾Ð´ÑĮÐµ":10294,"ĠÐ¸Ð²Ð¸Ð³Ð¸Ð½":10295,"ĠÐ¼ÐµÐ»ÐºÐ¾Ð²Ð¾Ð´ÑĮÐµ":10296,"ĠÐ¼Ð¸Ð»Ð¸ÑĨÐ¸":10297,"ĠÐ¼ÐµÑĤÐµÐ¾ÑĢÐ¸ÑĤ":10298,"ĠÑĤÐ°Ð²ÑįÑĢÐ°Ð²":10299,"ĠÐºÑĢÑĭÐ»ÑĮÑı":10300,"ĠÐ°Ð¼Ð°Ð½Ð´Ó£":10301,"ĠÐ°Ð´ÐµÐ»Ð¸Ð½Ñĥ":10302,"ĠÑĥÐ´ÑĭÐ³Ð¸ÑĢ":10303,"ĠÑĥÐ¿ÑĥÑģÐºÐ°Ð»":10304,"ĠÑĥÐ¼Ð¾Ð»ÑıÑĤÑĮ":10305,"ĠÑĥÐ³Ð¾Ð²Ð°ÑĢÐ¸Ð²Ð°Ñı":10306,"ĠÑĥÐ¿Ð¾Ð»Ð½Ð¾Ð¼Ð¾":10307,"ĠÐ³Ð½Ð¸Ð»ÑĭÐµ":10308,"ĠÐ³Ð¾Ð»ÑĭÐµ":10309,"ĠÐ³Ð²Ð°ÑĢÐ´ÐµÐµÑĨ":10310,"ĠhÓĻÐ³Ð´Ñĭ":10311,"ĠÐ¿Ð¾ÑģÐ¾ÑĢÐµÐ²Ð½Ñĥ":10312,"ĠÐ¿Ð¾ÐµÑħÐ°ÑĤÑĮ":10313,"ĠÐ¿Ð¾ÑĨÐ°ÑĢÐ°Ð¿Ð°Ð»":10314,"ĠÐ¿Ð¾ÐºÐ¾ÑĢÐ¼Ð¸Ð»Ð°":10315,"Ð²Ð¾ÑģÑĮÐ¼Ð¸Ð¼ÐµÑģÑı":10316,"Ð²Ð¾ÑģÐ¿Ð¸ÑĤÑĭÐ²Ð°ÑĤÑĮ":10317,"ĠÐ±Ð¸Ð±Ð»Ð¸Ð¾ÑĤÐµÐºÐ°ÑĢÑĮ":10318,"ĠÐ±Ð¸hÎµ":10319,"ĠÐ½Ð°Ð»Ð¾Ð¶Ð¸Ð»Ð¸":10320,"ĠÐ½Ð°Ð²Ð°Ð»Ð¸Ð»":10321,"ĠÐ½Ð°ÑĩÐ¸Ð½Ð°Ð»":10322,"ĠÐ½Ð°Ð¿ÑĢÐ¸Ð¼ÐµÑĢ":10323,"ĠÐ½Ð°Ð¿ÑĢÐ¾ÑĤÐ¸Ð²":10324,"ĠÐ½Ð°Ð¸Ð»Ð°Ð¸":10325,"ĠÐ½Ð°ÑĤÐºÐ½ÑĥÐ»ÑģÑı":10326,"ĠÐ½Ð°Ð¾Ð±Ð¾ÑĢÐ¾ÑĤ":10327,"ĠÑĤÐµÑĢÑĢÐ¸":10328,"ĠÑĤÑĢÐµÐ½Ð¸Ð½Ð°":10329,"ĠÑĤÑİÑĢÑĮÐ¼Ñĥ":10330,"ÑĩÐ°ÑģÐ¾Ð²Ð½Ñı":10331,"Ð´ÑıÑĢÓ£Ð²Ð°Ð½":10332,"Ð½Ð¸ÐºÐ¾Ð»ÑĮÑģÐºÐ¾Ðµ":10333,"Ð½ÑįÐºÑĥÐ½ÑįÐ²":10334,"ĠÐ·Ð´Ð¾ÑĢÐ¾Ð²ÑĭÐµ":10335,"ĠÐ·Ð²ÐµÐ·Ð´Ð¾ÑĩÐºÐ°Ð¼Ð¸":10336,"ĠÐ·Ð´ÑĢÐ°Ð²ÑģÑĤÐ²ÑĥÐ¹ÑĤÐµ":10337,"Ð¿Ð¾ÑĥÐ±Ð¸Ð²Ð°Ð»":10338,"ĠÐµÑĦÐ¸Ð¼Ð¾Ð²Ð¸Ñĩ":10339,"ĠÐ½ÐµÑģÑĩÐ°ÑģÑĤÑĮÐµ":10340,"ĠÐ±ÑĭÑģÑĤÑĢÐµÐµ":10341,"ĠÑĤÐ¾Ð´ÑĳÐ´Ð¾":10342,"ĠÑĩÐ¾Ð»Ó£":10343,"ĠÑĩÐµÐ¼ÑĥÑĤÐ¾":10344,"ÑĢÐµÐ±ÑıÑĤÐ¸ÑĪÐºÐ¸":10345,"Ò£Ð¸ÑħÐ¸":10346,"ÑĨÐµÐ»ÑĭÐ¹":10347,"ĠÑĤÑĥÑĤÑĥÐ´ÐµÑĢÑįÐ½":10348,"ĠÑĤÑĥÐ³ÑĥÐ½Ð´Ó¯":10349,"ĠÑĢÐ°Ð´Ð¸Ð¾ÐºÐ¾":10350,"ĠÐºÐ¾ÑĢÑıÐ³Ð¸":10351,"ĠÐºÐ¾ÑĢÐ¾ÑģÑĤÑĭ":10352,"ĠÐºÐ¾ÑģÑĤÐµÐ¹":10353,"ĠÐ½ÑĥÓĪÐ½Ð°Ð½":10354,"ĠÐ´ÐµÐ¿Ð¸ÓĪÐºÓ£Ð²ÑĥÐ½":10355,"ĠÐ´ÐµÐ²ÑıÑĤÐ¾Ð¼":10356,"ĠÐ´ÐµÐ³Ð¸Ð½ÓĪÐ¸ÑĤ":10357,"ÑģÐ¾Ð²ÐµÑĢÑĪÐµÐ½Ð½Ð¾":10358,"ĠÐ±ÑĥÑĢÑĥÐ½Ð´ÑĥÐºÐ¾Ð²":10359,"ĠÑģÐ°hÐ°ÑĢ":10360,"ĠÑģÐ°Ð¿Ð¾Ð¶Ð½Ð¸ÐºÐ¾Ð²":10361,"ĠÐºÐ°ÑģÑĤÐµÐ»ÑıÐ½":10362,"ĠÐºÐ°ÑĢÐºÐ°Ñģ":10363,"ĠÐ·Ð°Ð±Ð¸Ð²Ð°ÑĤÑĮ":10364,"ĠÐ·Ð°Ð·Ð²ÐµÐ½ÐµÐ»":10365,"ĠÐ·Ð°ÐºÐ¸Ð´ÑĭÐ²Ð°ÑİÑĤÑĤÐ¾":10366,"ĠÑıÐ·ÑĭÐº":10367,"ĠÐ¿ÑĢÐ¸ÐµÐ·Ð¶Ð°Ð»":10368,"ĠÐ¿ÑĢÐ¸Ð¿Ð»ÑıÑģÐºÑĥ":10369,"ĠÐ¿ÑĢÐ¸ÑĤÐµÑģÐ½ÑıÐµÑĤ":10370,"ĠÑģÐ¾Ð¿ÑĢÐ¾Ð²Ð¾Ð¶Ð´Ð°Ð»Ð¸":10371,"ĠÑģÐ¾Ð·ÑĢÐµÐ»Ð¸":10372,"ĠÐ´Ð¾Ð±ÑĥÐ´ÐµÑĤÐµ":10373,"ĠÐ´Ð¾Ð½ÑĩÐ°Ð´ÑıÐ¼":10374,"ĠÐ´Ð¾Ð±Ð°Ð²Ð»ÐµÐ½Ð¾":10375,"Ð¼ÑĥÑĩÐµÐ½ÑĮÐµ":10376,"Ð±Ð¾ÐºÐ¾Ð½ÑĩÑĥÑĩÑįÐ»Ð´ÑįÐ½":10377,"ĠÐ´ÑİÐºÑįÐ»Ó£":10378,"Ð·Ð°Ð¿Ð¸ÑħÐ½ÑĥÐ»":10379,"ĠÐ¾ÑĤÑĢÐ¾ÑģÑĤÐºÐ¸":10380,"Ð»ÑĥÐ¼Ð½Ó¯ÑĤÐ¼ÑįÑĢÐ¸ÑĤ":10381,"ĠÐ²ÑĭÐ±Ð¸ÑĢÐ°Ð»Ð¸":10382,"ĠÐ²ÑĭÑĤÑıÐ½Ñĥ":10383,"ĠÐ²ÑĭÐ´ÐµÐ»ÐºÐ°":10384,"ÓĪÑįÑĢÑĤÑĭÐºÐ¸Ð½Ð´Ó¯":10385,"ĠhÐ°ÑĢÑĥÐ¼ÑĥÐºÑĤÐ°Ð»Ð¸Ð½":10386,"ĠÐ¾ÑĢÐ¾ÐºÐ¾ÑĢÐ²ÑįÑĢ":10387,"ĠÐ¿ÑĢÐ¾ÐµÐ·Ð´Ð¸Ð¼ÑģÑı":10388,"ĠÑĢÐµÑģÐ¿ÑĥÐ±Ð»Ð¸ÐºÐ°Ð½":10389,"ĠÐ±Ð°Ð¹ÐºÐ¾Ð²Ð°":10390,"ĠÐ¸Ð½ÑģÑĤÐ¸ÑĤÑĥÑĤ":10391,"ĠÐ¸Ð½Ð½Ð¾ÐºÐµÐ½ÑĤÐ¸Ð¹":10392,"ĠÑĢÐ¾Ð²Ð½Ð¾ÑĢÐ¾Ð²Ð½Ð¾":10393,"ĠÐºÑĥÐ»ÑİÐ¼":10394,"ĠÐºÑĥÑĢÐ³ÑĥÑĢ":10395,"ĠÑĢÐ°Ð·Ð³Ð¾Ð²Ð¾ÑĢ":10396,"ĠÑĢÐ°Ð·Ð±ÐµÐ³Ð°ÑİÑĤÑģÑı":10397,"ĠÑĢÐ°Ð·Ð²ÑĮÑİÑĩÐ¸Ð»":10398,"hÑĥÓĪÑĤÑĥÐ»":10399,"ĠÐ»Ð¾Ð¿Ð¾ÑĢÅį":10400,"ĠÑĩÑĥÐ»ÑĥÐºÑĩÑĥÐ»ÑĥÐºÑĩÑĥÐ»ÑĥÐº":10401,"Ð²ÑĭÑħÐ¾Ð´Ð½Ð¾Ð¹":10402,"ĠÐ»ÐµÐ²Ð¸Ð½ÑģÐºÐ¸Ðµ":10403,"ĠÐ¿Ð°ÑĢÐºÐ°Ñħ":10404,"ĠÐ¿Ð°Ð½ÐºÐ°Ð³Ð¸":10405,"ĠÐ¾Ð±Ð»Ð°Ð¸Ð²Ð°ÐµÑĤ":10406,"ĠÐ¾Ð±ÑıÐ·Ð°ÑĤÐµÐ»ÑĮÐ½Ð¾":10407,"ĠÐºÑįÐ¿ÑįÐ¼Ñį":10408,"ĠÐ²Ð¸ÐºÑĤÐ¾ÑĢÐ°":10409,"ĠÐ¿Ð¾Ð´Ð¿ÐµÐ²Ð°Ð»Ð¸":10410,"ĠÐ´ÑĭÐ³Ð¸Ð»ÑĢÑįÐ²Ñį":10411,"ĠÐ´ÑĭÑĢÐ³ÑįÑģÐ¾":10412,"ĠÐ¾ÑģÑĤÐ°Ð½Ð°Ð²Ð»Ð¸Ð²Ð°Ð»Ð¸ÑģÑĮ":10413,"ĠÐ±ÐµÐ³ÑĥÐ½ÑĮÐµÐ¹":10414,"ĠÐ¸ÑĩÑįÑĤÐ¼Ó¯Ð´ÐµÑĩÑį":10415,"Ð¾ÑĤÑģÐ»ÑĥÐ¶Ð¸Ð»":10416,"ĠÐ¾ÑģÐ½Ð¾Ð²Ð½Ð¾Ðµ":10417,"ĠÐ¾ÑģÐ½Ð¾Ð²Ð½Ð¾Ð¼":10418,"ĠÑĪÐºÐ¾Ð´Ð»Ð¸Ð²Ð°Ñı":10419,"ĠÐ°ÑĢÐ½Ð¾Ð»ÑĮÐ´":10420,"ĠÑħÑĥÑĢÑĥÐ´ÑįÐ½Ð³Ð¾":10421,"ÑĢÐ°Ð·Ð³Ð¾Ð²Ð°ÑĢÐ¸Ð²Ð°Ñİ":10422,"ĠÑħÑįÐ»Ð°ÐºÓ£Ð»Ð°":10423,"ĠÐ±Ð°Ð»Ð´ÑĭÓĪÐ½Ð°ÑĢÐ°":10424,"ĠÐºÐ¾Ð½ÑģÑĤÐ°Ð½ÑĤÐ¸Ð½":10425,"ĠhÐ¸ÓĪÐ½ÐµÐ½Ñį":10426,"ĠÐ¿ÑĥÑģÑĤÑĭÐ¼":10427,"Ð°Ð¼Ó£Ð½Ð´Ó¯ÑĦ":10428,"ĠÐ³ÑĢÐ¸Ð³Ð¾ÑĢÑĮÐµÐ²Ð¸Ñĩ":10429,"ĠÑĳÐ½Ð¼Ð°ÑģÐ¸Ð»ÑĩÐ°Ð»":10430,"ÑĢÐ¾Ð²Ð´ÑĥÐ¶Ð½ÑĭÐµ":10431,"ĠÐ¿Ð¾Ð»Ð·Ð°ÑĤÑĮÑĤÐ¾":10432,"ĠÐ¿ÐµÐ´ÑĥÑĩÐ¸Ð»Ð¸ÑīÐµ":10433,"ĠÐ´ÑıÐ²Ð°Ð¼Ð°Ð»ÑĩÐ°Ð¼":10434,"ĠÐ²Ð½ÑĥÑĤÑĢÐµÐ½Ð½Ð¾":10435,"ĠÐºÑĢÐµÐ¿ÐºÐ¸Ð¼Ð¸":10436,"ĠÐ±ÐµÐ´Ð½ÐµÐ½ÑĮÐºÐ¾":10437,"ĠÒ»ÑĥÑİÐºÑĥÐºÅį":10438,"ĠÑģÑĭÐ½Ð¾Ð²ÐµÐ¹":10439,"ÑĤÑĥÑĢÑĥhÐ°Ð½ÑģÐºÑį":10440,"ĠÐ°ÑħÐ°ÐºÑĤÐ°Ð»Ð¸ÓĪÐºÓ£Ð½":10441,"ĠÐ½Ð¸ÐºÐ¾Ð»Ð°ÐµÐ²Ð¸ÑĩÐµÐ¼":10442,"ĠÑĢÐµÐ½Ð°ÑĤÐ°":10443,"ĠÐ²ÑģÐ¿Ð¾Ð¼Ð¾Ð³Ð°ÑĤÐµÐ»ÑĮ":10444,"ĠÐ´ÑĥÐºÑĤÑįÐ²ÑĥÑĢÑįÐ¸":10445,"ĠÐ°Ð¼Ð°ÐºÐ°Ð³Ð¸ÑģÐ¸Ð½Ð¼Ð¸":10446,"ĠÑĥÐ¼Ó¯Ð½ÑĥÐ¿ÐºÑįÐ½ÑįÐ¼Ð¸Ð»":10447,"ÐºÐ¾Ð»Ð»ÐµÐ´Ð¶":10448,"ĠÐ¿ÑĥÑĪÐ½Ð¾Ð¼ÐµÑħÐ¾":10449,"ĠÐ¾Ð¼Ð¾ÑĪÑįÐ½ÓĪÑį":10450,"ĠÑıÐºÐ¾Ð²Ð»ÐµÐ²Ð½Ð°":10451,"ĠÐ½Ð°Ð·ÑĭÐ²Ð°Ð»ÑģÑıÑĤÐ¾":10452,"ĠÐ¿ÑĢÐ¾ÑĦÐµÑģÑģÐ¸Ð¾Ð½Ð°Ð»ÑĮÐ½ÑĭÐ¹":10453,"Ð±ÑĢÐµÐ·ÐµÐ½ÑĤÑĤÐ¾":10454,"ĠÐ»ÐµÑģÐ¾ÑģÐ¸Ð±Ð¸ÑĢ":10455,"Ð¾Ð±ÑĭÐºÐ½Ð¾Ð²ÐµÐ½Ð½Ð°Ñı":10456,"ĠÑĥÐ¿Ð¾Ð»Ð½Ð¾Ð¼Ð¾ÑĩÐµÐ½":10457,"ĠÐ¿Ð¾ÑģÐ¾ÑĢÐµÐ²Ð½ÑĥÐµÐ¼ÑģÑı":10458,"Ð²Ð¾ÑģÑĮÐ¼Ð¸Ð¼ÐµÑģÑıÑĩÐ½Ð°Ñı":10459}